{
  "version": "1.0",
  "truncation": null,
  "padding": null,
  "added_tokens": [
    {
      "id": 0,
      "content": "[UNK]",
      "single_word": false,
      "lstrip": false,
      "rstrip": false,
      "normalized": false,
      "special": true
    },
    {
      "id": 1,
      "content": "[PAD]",
      "single_word": false,
      "lstrip": false,
      "rstrip": false,
      "normalized": false,
      "special": true
    },
    {
      "id": 2,
      "content": "[EOS]",
      "single_word": false,
      "lstrip": false,
      "rstrip": false,
      "normalized": false,
      "special": true
    },
    {
      "id": 3,
      "content": "[SOS]",
      "single_word": false,
      "lstrip": false,
      "rstrip": false,
      "normalized": false,
      "special": true
    },
    {
      "id": 4,
      "content": "[MASK]",
      "single_word": false,
      "lstrip": false,
      "rstrip": false,
      "normalized": false,
      "special": true
    },
    {
      "id": 5,
      "content": "[CLS]",
      "single_word": false,
      "lstrip": false,
      "rstrip": false,
      "normalized": false,
      "special": true
    }
  ],
  "normalizer": null,
  "pre_tokenizer": {
    "type": "ByteLevel",
    "add_prefix_space": false,
    "trim_offsets": true,
    "use_regex": true
  },
  "post_processor": null,
  "decoder": null,
  "model": {
    "type": "BPE",
    "dropout": null,
    "unk_token": null,
    "continuing_subword_prefix": null,
    "end_of_word_suffix": null,
    "fuse_unk": false,
    "byte_fallback": false,
    "ignore_merges": false,
    "vocab": {
      "[UNK]": 0,
      "[PAD]": 1,
      "[EOS]": 2,
      "[SOS]": 3,
      "[MASK]": 4,
      "[CLS]": 5,
      "!": 6,
      "\"": 7,
      "#": 8,
      "$": 9,
      "%": 10,
      "&": 11,
      "'": 12,
      "(": 13,
      ")": 14,
      "*": 15,
      "+": 16,
      ",": 17,
      "-": 18,
      ".": 19,
      "/": 20,
      "0": 21,
      "1": 22,
      "2": 23,
      "3": 24,
      "4": 25,
      "5": 26,
      "6": 27,
      "7": 28,
      "8": 29,
      "9": 30,
      ":": 31,
      ";": 32,
      "=": 33,
      ">": 34,
      "?": 35,
      "A": 36,
      "B": 37,
      "C": 38,
      "D": 39,
      "E": 40,
      "F": 41,
      "G": 42,
      "H": 43,
      "I": 44,
      "J": 45,
      "K": 46,
      "L": 47,
      "M": 48,
      "N": 49,
      "O": 50,
      "P": 51,
      "Q": 52,
      "R": 53,
      "S": 54,
      "T": 55,
      "U": 56,
      "V": 57,
      "W": 58,
      "X": 59,
      "Y": 60,
      "Z": 61,
      "[": 62,
      "]": 63,
      "_": 64,
      "`": 65,
      "a": 66,
      "b": 67,
      "c": 68,
      "d": 69,
      "e": 70,
      "f": 71,
      "g": 72,
      "h": 73,
      "i": 74,
      "j": 75,
      "k": 76,
      "l": 77,
      "m": 78,
      "n": 79,
      "o": 80,
      "p": 81,
      "q": 82,
      "r": 83,
      "s": 84,
      "t": 85,
      "u": 86,
      "v": 87,
      "w": 88,
      "x": 89,
      "y": 90,
      "z": 91,
      "{": 92,
      "}": 93,
      "~": 94,
      "¢": 95,
      "£": 96,
      "¤": 97,
      "¦": 98,
      "§": 99,
      "¨": 100,
      "©": 101,
      "ª": 102,
      "«": 103,
      "®": 104,
      "¯": 105,
      "°": 106,
      "±": 107,
      "²": 108,
      "³": 109,
      "´": 110,
      "µ": 111,
      "¶": 112,
      "¹": 113,
      "º": 114,
      "»": 115,
      "¼": 116,
      "½": 117,
      "¿": 118,
      "Â": 119,
      "Ã": 120,
      "Å": 121,
      "Î": 122,
      "Ï": 123,
      "Ð": 124,
      "â": 125,
      "Ġ": 126,
      "Ģ": 127,
      "Ħ": 128,
      "Ĩ": 129,
      "ĩ": 130,
      "Ī": 131,
      "ī": 132,
      "Ĭ": 133,
      "Į": 134,
      "Ĳ": 135,
      "Ĵ": 136,
      "ĵ": 137,
      "Ķ": 138,
      "ĺ": 139,
      "Ļ": 140,
      "ľ": 141,
      "Ŀ": 142,
      "ł": 143,
      "Ń": 144,
      "Ġt": 145,
      "he": 146,
      "Ġa": 147,
      "in": 148,
      "Ġs": 149,
      "Ġthe": 150,
      "Ġw": 151,
      "re": 152,
      "Ġo": 153,
      "ou": 154,
      "nd": 155,
      "ha": 156,
      "er": 157,
      "Ġm": 158,
      "it": 159,
      "Ġb": 160,
      "is": 161,
      "en": 162,
      "Ġc": 163,
      "ed": 164,
      "Ġd": 165,
      "Ġf": 166,
      "on": 167,
      "Ġto": 168,
      "Ġl": 169,
      "Ġp": 170,
      "Ġof": 171,
      "es": 172,
      "ing": 173,
      "as": 174,
      "Ġand": 175,
      "or": 176,
      "ll": 177,
      "ar": 178,
      "Ġh": 179,
      "an": 180,
      "Ġhe": 181,
      "Ġn": 182,
      "Ġin": 183,
      "Ġha": 184,
      "at": 185,
      "om": 186,
      "Ġe": 187,
      "le": 188,
      "hat": 189,
      "Ġg": 190,
      "Ġbe": 191,
      "ic": 192,
      "ot": 193,
      "ĠI": 194,
      "ut": 195,
      "se": 196,
      "im": 197,
      "ent": 198,
      "Ġwas": 199,
      "ve": 200,
      "ow": 201,
      "Ġre": 202,
      "id": 203,
      "ld": 204,
      "Ġth": 205,
      "Ġy": 206,
      "st": 207,
      "Ġthat": 208,
      "Ġu": 209,
      "ce": 210,
      "Ġon": 211,
      "Ġwh": 212,
      "ur": 213,
      "ly": 214,
      "Ġit": 215,
      "et": 216,
      "ir": 217,
      "gh": 218,
      "ith": 219,
      "Ġyou": 220,
      "ver": 221,
      "Ġde": 222,
      "Ġwith": 223,
      "ion": 224,
      "Ġhis": 225,
      "ad": 226,
      "qu": 227,
      "Ġhad": 228,
      "ay": 229,
      "al": 230,
      "Ġfor": 231,
      "Ġr": 232,
      "Ġas": 233,
      "Ġwe": 234,
      "âĢ": 235,
      "Ġnot": 236,
      "Ġst": 237,
      "ac": 238,
      "Ã©": 239,
      "ght": 240,
      "ould": 241,
      "Ġat": 242,
      "Ġher": 243,
      "il": 244,
      "Ġse": 245,
      "am": 246,
      "Ġme": 247,
      "The": 248,
      "Ġan": 249,
      "ain": 250,
      "ri": 251,
      "âĢĻ": 252,
      "ill": 253,
      "Ġmy": 254,
      "ter": 255,
      "her": 256,
      "ro": 257,
      "Ġhim": 258,
      "Ġsa": 259,
      "Ġv": 260,
      "ich": 261,
      "Ġis": 262,
      "red": 263,
      "ke": 264,
      "Ġwhich": 265,
      "ĠM": 266,
      "oo": 267,
      "if": 268,
      "Ġqu": 269,
      "our": 270,
      ".\"": 271,
      "Ġso": 272,
      "us": 273,
      "Ġle": 274,
      "ore": 275,
      "Ġshe": 276,
      "ag": 277,
      "pe": 278,
      "Ġsu": 279,
      "and": 280,
      "ch": 281,
      "Ġhave": 282,
      "ant": 283,
      "ess": 284,
      "li": 285,
      "Ġfr": 286,
      "ct": 287,
      "ous": 288,
      "out": 289,
      "Ġne": 290,
      "Ġcon": 291,
      "Ġby": 292,
      "Ġthis": 293,
      "res": 294,
      "ard": 295,
      "Ġcom": 296,
      "ne": 297,
      "Ġsh": 298,
      "Ġall": 299,
      "ble": 300,
      "ight": 301,
      "all": 302,
      "Ġbut": 303,
      "Ġup": 304,
      "Ġj": 305,
      "te": 306,
      "Ġfrom": 307,
      "Ġex": 308,
      "Ġk": 309,
      "Ġwere": 310,
      "th": 311,
      "Ġsaid": 312,
      "ait": 313,
      "Ġla": 314,
      "est": 315,
      "lf": 316,
      "Ġ\"": 317,
      "Ġwho": 318,
      "os": 319,
      "ul": 320,
      "ĠC": 321,
      "Ġfe": 322,
      "'s": 323,
      "Ġthey": 324,
      "pp": 325,
      "Ġwhe": 326,
      "ame": 327,
      "ie": 328,
      "Ġwould": 329,
      ",\"": 330,
      "very": 331,
      "ong": 332,
      "ast": 333,
      "Ġno": 334,
      "ust": 335,
      "Ġdo": 336,
      "ers": 337,
      "ist": 338,
      "Ġone": 339,
      "Ġli": 340,
      "em": 341,
      "ol": 342,
      "Ġor": 343,
      "art": 344,
      "Ġun": 345,
      "Ġthem": 346,
      "Ġen": 347,
      "ome": 348,
      "ound": 349,
      "Ġpl": 350,
      "Ġal": 351,
      "ation": 352,
      "Ġman": 353,
      "He": 354,
      "un": 355,
      "self": 356,
      "ind": 357,
      "ĠP": 358,
      "ure": 359,
      "ap": 360,
      "?\"": 361,
      "ak": 362,
      "Ġab": 363,
      "han": 364,
      "Ġtr": 365,
      "ass": 366,
      "ge": 367,
      "ood": 368,
      "um": 369,
      "ort": 370,
      "Ġtheir": 371,
      "Ġout": 372,
      "Ġcould": 373,
      "one": 374,
      "hed": 375,
      "ell": 376,
      "Ġthere": 377,
      "ven": 378,
      "ĠS": 379,
      "ck": 380,
      "ig": 381,
      "ĠA": 382,
      "Ġbeen": 383,
      "Ġwor": 384,
      "ice": 385,
      "ire": 386,
      "ide": 387,
      "Ġar": 388,
      "Ġwill": 389,
      "ĠB": 390,
      "ate": 391,
      "el": 392,
      "Ġag": 393,
      "ace": 394,
      "Ġpr": 395,
      "!\"": 396,
      "ked": 397,
      "--": 398,
      "Ġint": 399,
      "Ġare": 400,
      "ĠL": 401,
      "Ġgo": 402,
      "ine": 403,
      "itt": 404,
      "Ġwhen": 405,
      "ĠF": 406,
      "au": 407,
      "Ġtw": 408,
      "ite": 409,
      "own": 410,
      "nt": 411,
      "Ġpro": 412,
      "reat": 413,
      "ved": 414,
      "Ġif": 415,
      "ough": 416,
      "Ġam": 417,
      "ive": 418,
      "Ġco": 419,
      "able": 420,
      "Ġyour": 421,
      "ĠH": 422,
      "It": 423,
      "Ġaf": 424,
      "Ġmore": 425,
      "Ġet": 426,
      "hing": 427,
      "Ġwhat": 428,
      "ence": 429,
      "ĠÃ": 430,
      "Ġmo": 431,
      "ther": 432,
      "ack": 433,
      "urn": 434,
      "ĠG": 435,
      "Ġgr": 436,
      "ab": 437,
      "Ġro": 438,
      "Ġbr": 439,
      "Ġsp": 440,
      "Ġtim": 441,
      "ake": 442,
      "Ġlo": 443,
      "ĠJ": 444,
      "ais": 445,
      "lo": 446,
      "Ġvery": 447,
      "pt": 448,
      "Ġthen": 449,
      "Ġkn": 450,
      "ought": 451,
      "Ġsome": 452,
      "tain": 453,
      "Ġdis": 454,
      "ade": 455,
      "Ġus": 456,
      "Ġinto": 457,
      "Ġim": 458,
      "Ġrep": 459,
      "ans": 460,
      "ment": 461,
      "cc": 462,
      "me": 463,
      "ance": 464,
      "Ġdes": 465,
      "Ġpo": 466,
      "ile": 467,
      "ity": 468,
      "Ġagain": 469,
      "ud": 470,
      "Ġday": 471,
      "nder": 472,
      "age": 473,
      "But": 474,
      "Ġlike": 475,
      "ĠÃł": 476,
      "Ġsee": 477,
      "ĠR": 478,
      "Ġany": 479,
      "Ġdid": 480,
      "ft": 481,
      "av": 482,
      "ress": 483,
      "ep": 484,
      "ry": 485,
      "Ġsha": 486,
      "ave": 487,
      "fore": 488,
      "Ġad": 489,
      "Ġother": 490,
      "way": 491,
      "Ġupon": 492,
      "ittle": 493,
      "ue": 494,
      "ng": 495,
      "Ġtwo": 496,
      "Ġlong": 497,
      "Ġover": 498,
      "Ġtime": 499,
      "Ġhand": 500,
      "Ġthan": 501,
      "are": 502,
      "Ġtoo": 503,
      "fe": 504,
      "Ġlittle": 505,
      "ish": 506,
      "Ġch": 507,
      "Ġshould": 508,
      "ĠN": 509,
      "op": 510,
      "ree": 511,
      "And": 512,
      "Ġbo": 513,
      "Ġloo": 514,
      "Ġper": 515,
      "Ġque": 516,
      "Ġcan": 517,
      "Ġonly": 518,
      "Ġour": 519,
      "Ġsay": 520,
      "Ġnow": 521,
      "Ġknow": 522,
      "che": 523,
      "Ġbl": 524,
      "ated": 525,
      "other": 526,
      "Ġpass": 527,
      "ving": 528,
      "Ġcomp": 529,
      "Ġmade": 530,
      "Ġpre": 531,
      "ra": 532,
      "ps": 533,
      "Ġabout": 534,
      "Ġpe": 535,
      "ber": 536,
      "Ġrem": 537,
      "we": 538,
      "Ġcha": 539,
      "ions": 540,
      "Ġfo": 541,
      "Ġcl": 542,
      "ried": 543,
      "ĠE": 544,
      "Ġbefore": 545,
      "ies": 546,
      "ons": 547,
      "Ġgreat": 548,
      "ious": 549,
      "Ġafter": 550,
      "ady": 551,
      "king": 552,
      "Th": 553,
      "Ġdu": 554,
      "Ġthought": 555,
      "Ġits": 556,
      "Ġ'": 557,
      "ose": 558,
      "Ġhimself": 559,
      "Ġdown": 560,
      "Ġhas": 561,
      "Ġfir": 562,
      "rie": 563,
      "Ġeven": 564,
      "ather": 565,
      "co": 566,
      "Ġey": 567,
      "Ġob": 568,
      "ĠD": 569,
      "Ġoff": 570,
      "Ġmust": 571,
      "Ġsur": 572,
      "You": 573,
      "Ã©t": 574,
      "od": 575,
      "Ġthese": 576,
      "'t": 577,
      "Ġhow": 578,
      "Ġgood": 579,
      "Ġunder": 580,
      "les": 581,
      "Ġstr": 582,
      "Ġevery": 583,
      "Ġwithout": 584,
      "ary": 585,
      "ally": 586,
      "ars": 587,
      "ach": 588,
      "ount": 589,
      "Ġres": 590,
      "led": 591,
      "ise": 592,
      "uch": 593,
      "ward": 594,
      "ord": 595,
      "Ġap": 596,
      "wn": 597,
      "Ġpart": 598,
      "ings": 599,
      "ang": 600,
      "Ġ;": 601,
      "Ġwent": 602,
      "She": 603,
      "Ġpar": 604,
      "Ġfirst": 605,
      "ness": 606,
      "Ġcr": 607,
      "Ġil": 608,
      "Ġcame": 609,
      "Ġcont": 610,
      "Ġles": 611,
      "si": 612,
      "Ġback": 613,
      "Ġvo": 614,
      "Ġimp": 615,
      "ife": 616,
      "Ġqui": 617,
      "ux": 618,
      "ild": 619,
      "anc": 620,
      "Ġlet": 621,
      "int": 622,
      "ty": 623,
      "Ġsuch": 624,
      "Ġnever": 625,
      "Ġent": 626,
      "Ġspe": 627,
      "act": 628,
      "de": 629,
      "Ġthr": 630,
      "âĪ": 631,
      "âĪĴ": 632,
      "ened": 633,
      "ared": 634,
      "Ġmuch": 635,
      "Ġbet": 636,
      "Ġcome": 637,
      "ull": 638,
      "Ġexp": 639,
      "Ġbeg": 640,
      "Ġwell": 641,
      "ff": 642,
      "orn": 643,
      "Ã¨": 644,
      "ĠT": 645,
      "Ġwat": 646,
      "ath": 647,
      "iss": 648,
      "ink": 649,
      "Ġsc": 650,
      "Ġop": 651,
      "Ġser": 652,
      "ouse": 653,
      "Ġmar": 654,
      "ai": 655,
      "What": 656,
      "ful": 657,
      "Ġret": 658,
      "ied": 659,
      "ign": 660,
      "Ġbec": 661,
      "ves": 662,
      "ont": 663,
      "oment": 664,
      "Ġway": 665,
      "ien": 666,
      "Ġmight": 667,
      "Ġmoment": 668,
      "Ġlast": 669,
      "rt": 670,
      "Ġseem": 671,
      "ier": 672,
      "llow": 673,
      "Ġsm": 674,
      "Ġwhere": 675,
      "Ġje": 676,
      "ks": 677,
      "agn": 678,
      "Ġeyes": 679,
      "Ġacc": 680,
      "There": 681,
      "Ġnothing": 682,
      "aut": 683,
      "lied": 684,
      "Ġce": 685,
      "Ġhead": 686,
      "Ġcar": 687,
      "Ġstill": 688,
      "ix": 689,
      "Ġav": 690,
      "Ġho": 691,
      "air": 692,
      "Ġwom": 693,
      "This": 694,
      ",'": 695,
      "cl": 696,
      "lle": 697,
      "They": 698,
      "Ġturn": 699,
      "Ġfl": 700,
      "Ġmake": 701,
      "Ġyoung": 702,
      "Ġword": 703,
      "Ġfound": 704,
      "Ġjust": 705,
      "uli": 706,
      "ick": 707,
      "Ġbeing": 708,
      "Ġgl": 709,
      "Ġreplied": 710,
      "In": 711,
      "ince": 712,
      "riend": 713,
      "que": 714,
      "ĠMr": 715,
      "Ġaway": 716,
      "ip": 717,
      "Ġune": 718,
      "mb": 719,
      "ever": 720,
      "Ġfriend": 721,
      "land": 722,
      "Ġsaw": 723,
      "Ġshall": 724,
      "pect": 725,
      "Ġold": 726,
      "less": 727,
      "Ġthree": 728,
      "Then": 729,
      "ged": 730,
      "Ġ.": 731,
      "Ġleft": 732,
      "Ġappe": 733,
      "med": 734,
      "Ġson": 735,
      "Ġmon": 736,
      "Ġdist": 737,
      "Ġset": 738,
      "Ġend": 739,
      "lt": 740,
      "aking": 741,
      "We": 742,
      "ille": 743,
      "Ġke": 744,
      "ors": 745,
      "ond": 746,
      "Ġcons": 747,
      "ui": 748,
      "omet": 749,
      "ished": 750,
      "thing": 751,
      "ily": 752,
      "ĠÃ©t": 753,
      "Ġpres": 754,
      "Ġtook": 755,
      "At": 756,
      "Ġpos": 757,
      "Ġte": 758,
      "Ġput": 759,
      "iz": 760,
      "ertain": 761,
      "Ġapp": 762,
      "Ġthink": 763,
      "Ġye": 764,
      "Ġdans": 765,
      "ret": 766,
      ".'": 767,
      "ulien": 768,
      "Ġpour": 769,
      "per": 770,
      "Ġcour": 771,
      "Ġwind": 772,
      "der": 773,
      "Ġtake": 774,
      "enc": 775,
      "tre": 776,
      "Ġcap": 777,
      "Ġthose": 778,
      "ens": 779,
      "agnan": 780,
      "Art": 781,
      "Artagnan": 782,
      "Ġnight": 783,
      "Ġthrough": 784,
      "ted": 785,
      "Ġown": 786,
      "hen": 787,
      "Ġseemed": 788,
      "ction": 789,
      "une": 790,
      "Ġmen": 791,
      "ĠW": 792,
      "sel": 793,
      "ren": 794,
      "Ġau": 795,
      "Ġmay": 796,
      "Ġche": 797,
      "Ġhour": 798,
      "Ġkne": 799,
      "Ġhere": 800,
      "Ġsoon": 801,
      "Ġreturn": 802,
      "ting": 803,
      "Ġplace": 804,
      "leas": 805,
      "Ġmyself": 806,
      "ches": 807,
      "Ġonce": 808,
      "Ġget": 809,
      "Ġmost": 810,
      "und": 811,
      "be": 812,
      "ail": 813,
      "Ãª": 814,
      "lie": 815,
      "Ġwhile": 816,
      "Ġwoman": 817,
      "oub": 818,
      "Ġlife": 819,
      "Ġhouse": 820,
      "Ġdon": 821,
      "vent": 822,
      "Ġasked": 823,
      "ause": 824,
      "Ġtell": 825,
      "ĠV": 826,
      "Ġcall": 827,
      "Ġgoing": 828,
      "Ġdoor": 829,
      "Ġhar": 830,
      "Ġpas": 831,
      "iv": 832,
      "Ġface": 833,
      "Ġatt": 834,
      "Ġcried": 835,
      "Ġhapp": 836,
      "Ġlui": 837,
      "Ġinst": 838,
      "aster": 839,
      "vers": 840,
      "Ġbot": 841,
      "Ġheard": 842,
      "Ġhands": 843,
      "Ġsame": 844,
      "Ġlove": 845,
      "ci": 846,
      "Ġcomm": 847,
      "ner": 848,
      "Ġter": 849,
      "Ġlight": 850,
      "ling": 851,
      "Ġsil": 852,
      "Ġheart": 853,
      "No": 854,
      "Ġwant": 855,
      "man": 856,
      "Ġarm": 857,
      "ost": 858,
      "Ġroom": 859,
      "igh": 860,
      "ched": 861,
      "ways": 862,
      "orm": 863,
      "ced": 864,
      "Ġpoint": 865,
      "Ġhaving": 866,
      "Ġsupp": 867,
      "get": 868,
      "Ġsomet": 869,
      "Ġmin": 870,
      "ition": 871,
      "pr": 872,
      "Ã©e": 873,
      "ither": 874,
      "Yes": 875,
      "adame": 876,
      "ained": 877,
      "Ġreg": 878,
      "thos": 879,
      "Ġlooked": 880,
      "Ġagainst": 881,
      "ently": 882,
      "ru": 883,
      "elle": 884,
      "Ġyet": 885,
      "Ġans": 886,
      "Ġtold": 887,
      "rew": 888,
      "ult": 889,
      "ark": 890,
      "gg": 891,
      "wards": 892,
      "je": 893,
      "Ġbegan": 894,
      "Ġpleas": 895,
      "Ġanother": 896,
      "Ġcount": 897,
      "Ġcertain": 898,
      "Ġmat": 899,
      "urs": 900,
      "Ġfollow": 901,
      "Ġchild": 902,
      "ered": 903,
      "ĠJulien": 904,
      "ros": 905,
      "Ġwr": 906,
      "Ġtout": 907,
      "ween": 908,
      "Ġrest": 909,
      "sible": 910,
      "oy": 911,
      "Ġpers": 912,
      "Ġbre": 913,
      "Ġthough": 914,
      "Ġwater": 915,
      "Ġear": 916,
      "ined": 917,
      "Ġchan": 918,
      "âĢĶ": 919,
      "Ġchar": 920,
      "rice": 921,
      "Ġfind": 922,
      "pped": 923,
      "Ġac": 924,
      "Ġfelt": 925,
      "mer": 926,
      "Ġair": 927,
      "fect": 928,
      "Ġgive": 929,
      "ures": 930,
      "arr": 931,
      "Ġhor": 932,
      "Ġplus": 933,
      "As": 934,
      "Ġalways": 935,
      "Wh": 936,
      "Ġcontin": 937,
      "den": 938,
      "Ġfort": 939,
      "Ġbetween": 940,
      "ins": 941,
      "Ġdev": 942,
      "the": 943,
      "Ġever": 944,
      "Ġgi": 945,
      "ian": 946,
      "Ġdr": 947,
      "Ġwhom": 948,
      "Ġconf": 949,
      "Ġfa": 950,
      "ations": 951,
      "Ġhalf": 952,
      "Ã©s": 953,
      "abrice": 954,
      "up": 955,
      "On": 956,
      "ict": 957,
      "Ġherself": 958,
      "Ġfew": 959,
      "ows": 960,
      "ase": 961,
      "Ġinc": 962,
      "men": 963,
      "Ġgu": 964,
      "aken": 965,
      "Ġass": 966,
      "ory": 967,
      "Ġsent": 968,
      "Ġnear": 969,
      "Ġseen": 970,
      "Ġsea": 971,
      "Ġref": 972,
      "ating": 973,
      "Ġvous": 974,
      "Ġfar": 975,
      "entle": 976,
      "ene": 977,
      "Ġround": 978,
      "Ġes": 979,
      "That": 980,
      "Ġfour": 981,
      "Ġadd": 982,
      "Ġmorn": 983,
      "ette": 984,
      "ople": 985,
      "ieur": 986,
      "ement": 987,
      "Ġtal": 988,
      "Ġsw": 989,
      "Ġside": 990,
      "oud": 991,
      "My": 992,
      "Ġknew": 993,
      "Ġeach": 994,
      "light": 995,
      "Ġmorning": 996,
      "iness": 997,
      "onsieur": 998,
      "lock": 999,
      "Ġopen": 1000,
      "Ġright": 1001,
      "Ġocc": 1002,
      "Well": 1003,
      "Ġdoub": 1004,
      "Ġ!": 1005,
      "Ġsat": 1006,
      "Ġnew": 1007,
      "Ġtre": 1008,
      "Ġdays": 1009,
      "Ġgave": 1010,
      "Ã©c": 1011,
      "Ġwork": 1012,
      "haps": 1013,
      "Ġvoice": 1014,
      "When": 1015,
      "Ġmet": 1016,
      "ten": 1017,
      "Ġstre": 1018,
      "ured": 1019,
      "cei": 1020,
      "osed": 1021,
      "ĠPar": 1022,
      "ired": 1023,
      "Ġmany": 1024,
      "Ġevening": 1025,
      "lic": 1026,
      "Ġgentle": 1027,
      "Ġenough": 1028,
      "Ġfeel": 1029,
      "Ġquite": 1030,
      "owed": 1031,
      "Ġunc": 1032,
      "xt": 1033,
      "Ġpassed": 1034,
      "Ġem": 1035,
      "so": 1036,
      "Ġmind": 1037,
      "selves": 1038,
      "Ġbelie": 1039,
      "Ġdif": 1040,
      "Ġnat": 1041,
      "Ġcur": 1042,
      "Ġave": 1043,
      "ued": 1044,
      "Ġlook": 1045,
      "Ġnor": 1046,
      "ning": 1047,
      "Ġavait": 1048,
      "Oh": 1049,
      "Ġsub": 1050,
      "most": 1051,
      "Ġpeople": 1052,
      "ale": 1053,
      "uck": 1054,
      "ove": 1055,
      "ery": 1056,
      "Ġest": 1057,
      "ters": 1058,
      "ĠMar": 1059,
      "ool": 1060,
      "Ġlar": 1061,
      "ub": 1062,
      "vant": 1063,
      "Ġwal": 1064,
      "Ġwhole": 1065,
      "Ġdire": 1066,
      "Ġinf": 1067,
      "ison": 1068,
      "Ġeng": 1069,
      "Ġcle": 1070,
      "Ġ1": 1071,
      "Ġsl": 1072,
      "Ġdep": 1073,
      "ower": 1074,
      "Ġcompan": 1075,
      "Ġins": 1076,
      "har": 1077,
      "Ġthings": 1078,
      "Ġsince": 1079,
      "Ġarri": 1080,
      "hes": 1081,
      "Ġdone": 1082,
      "Ġmother": 1083,
      "Ġinter": 1084,
      "How": 1085,
      "ank": 1086,
      "az": 1087,
      "rent": 1088,
      "ross": 1089,
      "Ġname": 1090,
      "roft": 1091,
      "aient": 1092,
      "Ġ:": 1093,
      "ject": 1094,
      "cess": 1095,
      "tend": 1096,
      "âĢĵ": 1097,
      "Ġpoor": 1098,
      "irl": 1099,
      "ple": 1100,
      "ude": 1101,
      "Ġgot": 1102,
      "ĠGr": 1103,
      "Ġwait": 1104,
      "Ġind": 1105,
      "Ġfather": 1106,
      "Ġworld": 1107,
      "ised": 1108,
      "Ġwhose": 1109,
      "Ġdoubt": 1110,
      "Ġou": 1111,
      "ĠFabrice": 1112,
      "Ġcond": 1113,
      "ane": 1114,
      "If": 1115,
      "ute": 1116,
      "encroft": 1117,
      "Ġavec": 1118,
      "aring": 1119,
      "ular": 1120,
      "Ġwords": 1121,
      "ĠO": 1122,
      "ying": 1123,
      "Ġfam": 1124,
      "ook": 1125,
      "undred": 1126,
      "Ġsou": 1127,
      "Ġhundred": 1128,
      "uring": 1129,
      "aught": 1130,
      "Ġthing": 1131,
      "Ġbrought": 1132,
      "Ġlonger": 1133,
      "ĠÃ©tait": 1134,
      "here": 1135,
      "ents": 1136,
      "Ġturned": 1137,
      "Ġbro": 1138,
      "Ġunderst": 1139,
      "ides": 1140,
      "als": 1141,
      "Ġsomething": 1142,
      "Ġinde": 1143,
      "right": 1144,
      "Ġvis": 1145,
      "Ġmaster": 1146,
      "Ġfeet": 1147,
      "Ġalso": 1148,
      "Ġsk": 1149,
      "ĠHe": 1150,
      "Ġsix": 1151,
      "Ġread": 1152,
      "oke": 1153,
      "ready": 1154,
      "Ġfall": 1155,
      "ressed": 1156,
      "aint": 1157,
      "Ġbed": 1158,
      "its": 1159,
      "Ġrec": 1160,
      "Ġide": 1161,
      "Ġfull": 1162,
      "Ġgirl": 1163,
      "ately": 1164,
      "vered": 1165,
      "eth": 1166,
      "Ġjour": 1167,
      "omp": 1168,
      "Ġless": 1169,
      "ĠMadame": 1170,
      "Ġelle": 1171,
      "Ġyears": 1172,
      "Ġfire": 1173,
      "Ġtowards": 1174,
      "ser": 1175,
      "cept": 1176,
      "Ġsir": 1177,
      "ceived": 1178,
      "Ġsort": 1179,
      "Ġmid": 1180,
      "Ġgen": 1181,
      "Ġcol": 1182,
      "Ġbeh": 1183,
      "Ġtaken": 1184,
      "Ġfin": 1185,
      "Ġdark": 1186,
      "ason": 1187,
      "Ġste": 1188,
      "Ġalready": 1189,
      "oun": 1190,
      "Ġcare": 1191,
      "Ġleast": 1192,
      "Ġleave": 1193,
      "Ġcaptain": 1194,
      "raw": 1195,
      "Ġbetter": 1196,
      "orr": 1197,
      "Ġbecause": 1198,
      "Ġma": 1199,
      "use": 1200,
      "ger": 1201,
      "Ġalone": 1202,
      "enty": 1203,
      "Ġappeared": 1204,
      "ached": 1205,
      "Ġalmost": 1206,
      "His": 1207,
      "dden": 1208,
      "Ġblack": 1209,
      "Ġtrou": 1210,
      "Ġhard": 1211,
      "Ġlarge": 1212,
      "Ġboth": 1213,
      "mes": 1214,
      "ĠFr": 1215,
      "bert": 1216,
      "Ġperhaps": 1217,
      "outh": 1218,
      "Ġclo": 1219,
      "Ġkind": 1220,
      "Ã¨re": 1221,
      "ousand": 1222,
      "Ġdit": 1223,
      "Ġquest": 1224,
      "Ġspeak": 1225,
      "Ġplac": 1226,
      "Ġsle": 1227,
      "Ġsto": 1228,
      "Ġhum": 1229,
      "gu": 1230,
      "Ġbien": 1231,
      "Ġsudden": 1232,
      "ĠLa": 1233,
      "gether": 1234,
      "ys": 1235,
      "used": 1236,
      "amp": 1237,
      "Ġnext": 1238,
      "Ġcalled": 1239,
      "Ġthousand": 1240,
      "ster": 1241,
      "Ã©r": 1242,
      "ĠGod": 1243,
      "Ġreco": 1244,
      "Ġthemselves": 1245,
      "arding": 1246,
      "Ġten": 1247,
      "ater": 1248,
      "ange": 1249,
      "not": 1250,
      "Ã©p": 1251,
      "du": 1252,
      "Ġdear": 1253,
      "fort": 1254,
      "Ġir": 1255,
      "rest": 1256,
      "ime": 1257,
      "Ġanything": 1258,
      "ĠPencroft": 1259,
      "Ġperson": 1260,
      "'ll": 1261,
      "ces": 1262,
      "Ġlau": 1263,
      "Ġkeep": 1264,
      "Ġbehind": 1265,
      "oir": 1266,
      "Ġmis": 1267,
      "Ġwall": 1268,
      "tle": 1269,
      "Ġdre": 1270,
      "eb": 1271,
      "tered": 1272,
      "ient": 1273,
      "val": 1274,
      "ois": 1275,
      "Ġfive": 1276,
      "cy": 1277,
      "Ġhon": 1278,
      "Ġgone": 1279,
      "ets": 1280,
      "Ġisland": 1281,
      "day": 1282,
      "cted": 1283,
      "Ġindeed": 1284,
      "ention": 1285,
      "Ġeas": 1286,
      "Ġsec": 1287,
      "Ġdisc": 1288,
      "ided": 1289,
      "Ġmais": 1290,
      "Ġamong": 1291,
      "Ġve": 1292,
      "Ġsi": 1293,
      "Ġrather": 1294,
      "Ġsim": 1295,
      "Ġsure": 1296,
      "Ġeverything": 1297,
      "bit": 1298,
      "Ġlad": 1299,
      "Ġlay": 1300,
      "Ġuncle": 1301,
      "Ġsing": 1302,
      "ned": 1303,
      "Ġboat": 1304,
      "Ġobser": 1305,
      "Ġsail": 1306,
      "tem": 1307,
      "Ġaff": 1308,
      "Ġfriends": 1309,
      "Ġwife": 1310,
      "Ġrun": 1311,
      "owing": 1312,
      "Ġprof": 1313,
      "Ġhowever": 1314,
      "ĠAr": 1315,
      "ken": 1316,
      "Ġinte": 1317,
      "Ġfore": 1318,
      "Ġgrand": 1319,
      "anger": 1320,
      "ical": 1321,
      "So": 1322,
      "cond": 1323,
      "Ġ?": 1324,
      "omme": 1325,
      "Ġorder": 1326,
      "Ġalong": 1327,
      "Ġhear": 1328,
      "Ġsuff": 1329,
      "lp": 1330,
      "Ġwar": 1331,
      "Ġcountry": 1332,
      "Ġsurpr": 1333,
      "ĠParis": 1334,
      "Ġcette": 1335,
      "bed": 1336,
      "gr": 1337,
      "Ġtogether": 1338,
      "Ġsign": 1339,
      "Ġcal": 1340,
      "Ġfur": 1341,
      "Ġmist": 1342,
      "ense": 1343,
      "Ġfut": 1344,
      "Ġpri": 1345,
      "Ġletter": 1346,
      "Ã§": 1347,
      "Ġdet": 1348,
      "let": 1349,
      "Ġdoes": 1350,
      "ĠHarding": 1351,
      "Ġswe": 1352,
      "ible": 1353,
      "ister": 1354,
      "imes": 1355,
      "Ġsmall": 1356,
      "Ġcontinued": 1357,
      "Ġvie": 1358,
      "yr": 1359,
      "ĠÂ": 1360,
      "ages": 1361,
      "Ġtem": 1362,
      "Ġhus": 1363,
      "ual": 1364,
      "Ġpresent": 1365,
      "inal": 1366,
      "Ġfell": 1367,
      "Ġprom": 1368,
      "Ġabs": 1369,
      "Ġlost": 1370,
      "Ġfine": 1371,
      "Ġlist": 1372,
      "Ġremained": 1373,
      "irc": 1374,
      "Ġtill": 1375,
      "ĠAthos": 1376,
      "Ġstood": 1377,
      "aim": 1378,
      "Ġill": 1379,
      "Ġsecond": 1380,
      "Ġland": 1381,
      "Ġreturned": 1382,
      "Ġbelieve": 1383,
      "00": 1384,
      "ĠK": 1385,
      "Ġbeaut": 1386,
      "Ġabove": 1387,
      "Ġmil": 1388,
      "ceed": 1389,
      "ield": 1390,
      "ĠJe": 1391,
      "Ġfear": 1392,
      "lan": 1393,
      "Ġenc": 1394,
      "Ġ_": 1395,
      "Ġuse": 1396,
      "Ġexc": 1397,
      "aptain": 1398,
      "to": 1399,
      "ering": 1400,
      "Ġadm": 1401,
      "For": 1402,
      "Ġlow": 1403,
      "Ġtwenty": 1404,
      "fic": 1405,
      "room": 1406,
      "Ġable": 1407,
      "ĠSt": 1408,
      "To": 1409,
      "Ġhun": 1410,
      "Ġhome": 1411,
      "ards": 1412,
      "clock": 1413,
      "Ġtable": 1414,
      "Ġform": 1415,
      "Ġarms": 1416,
      "Ġsun": 1417,
      "Ġhours": 1418,
      "Ġcoming": 1419,
      "Ġengine": 1420,
      "!'": 1421,
      "uis": 1422,
      "ains": 1423,
      "Ġbene": 1424,
      "Ah": 1425,
      "All": 1426,
      "Ġbel": 1427,
      "oney": 1428,
      "Ġbar": 1429,
      "Ġneed": 1430,
      "Ġhigh": 1431,
      "Ġstand": 1432,
      "ĠEng": 1433,
      "for": 1434,
      "Ġthus": 1435,
      "Ġdeath": 1436,
      "Ġrais": 1437,
      "ĠMa": 1438,
      "Ġses": 1439,
      "utes": 1440,
      "bour": 1441,
      "Ã¢": 1442,
      "Ġel": 1443,
      "Ġ(": 1444,
      "eng": 1445,
      "Ġthir": 1446,
      "Ġdec": 1447,
      "Ġmot": 1448,
      "Ġbur": 1449,
      "Ã¨s": 1450,
      "ĠThe": 1451,
      "Ġtou": 1452,
      "Ġbest": 1453,
      "Ġhope": 1454,
      "Ġkept": 1455,
      "Ġcirc": 1456,
      "Ġcold": 1457,
      "Ġroad": 1458,
      "Ġdisp": 1459,
      "Ġwood": 1460,
      "Ġidea": 1461,
      "Ġaw": 1462,
      "cha": 1463,
      "Ġshort": 1464,
      "Ġgiven": 1465,
      "Ġking": 1466,
      "Why": 1467,
      "iver": 1468,
      "Ġfoot": 1469,
      "Ġmonth": 1470,
      "illed": 1471,
      "Ġinstant": 1472,
      "Ġsound": 1473,
      "Ġele": 1474,
      "Ġadv": 1475,
      "?'": 1476,
      "Ġwhite": 1477,
      "Ġexpect": 1478,
      "Ġjo": 1479,
      "band": 1480,
      "Ġ-": 1481,
      "Ġpol": 1482,
      "ances": 1483,
      "Le": 1484,
      "wer": 1485,
      "Ġred": 1486,
      "Ġdeep": 1487,
      "Ġdem": 1488,
      "ert": 1489,
      "ĠdÃ©": 1490,
      "ific": 1491,
      "but": 1492,
      "ole": 1493,
      "Ã´": 1494,
      "Ġfollowed": 1495,
      "Ġstep": 1496,
      "Ġwindow": 1497,
      "Ġbrother": 1498,
      "ats": 1499,
      "Ġsays": 1500,
      "Ġbecame": 1501,
      "Ġlooking": 1502,
      "Ġduches": 1503,
      "Ġquestion": 1504,
      "ety": 1505,
      "Ġvi": 1506,
      "that": 1507,
      "Ġact": 1508,
      "Ġpossible": 1509,
      "Ġshore": 1510,
      "Ġground": 1511,
      "Ġbus": 1512,
      "ĠChar": 1513,
      "Ġsilence": 1514,
      "ĠRo": 1515,
      "Ġothers": 1516,
      "Ġappro": 1517,
      "ĠSp": 1518,
      "mm": 1519,
      "Ġcou": 1520,
      "appe": 1521,
      "Ġpet": 1522,
      "wered": 1523,
      "Ġunderstand": 1524,
      "Ġsight": 1525,
      "Ġmoney": 1526,
      "Ġhusband": 1527,
      "gn": 1528,
      "Ġmur": 1529,
      "Ġanswered": 1530,
      "Ġcent": 1531,
      "ushed": 1532,
      "Ġterri": 1533,
      "ial": 1534,
      "Ġreason": 1535,
      "ilady": 1536,
      "Ġnecess": 1537,
      "ully": 1538,
      "ock": 1539,
      "erbert": 1540,
      "Now": 1541,
      "vid": 1542,
      "Ġcut": 1543,
      "Ġdraw": 1544,
      "Ġrepe": 1545,
      "ized": 1546,
      "liz": 1547,
      "Ġplay": 1548,
      "Ġcannot": 1549,
      "Ġhold": 1550,
      "Ġtimes": 1551,
      "Ġopened": 1552,
      "Ġesc": 1553,
      "ilus": 1554,
      "fter": 1555,
      "ia": 1556,
      "Ġmaking": 1557,
      "autilus": 1558,
      "Ġminutes": 1559,
      "Ġmatter": 1560,
      "ience": 1561,
      "Ġwish": 1562,
      "Ġca": 1563,
      "Ġduchesse": 1564,
      "Ġpie": 1565,
      "itude": 1566,
      "Ġoften": 1567,
      "Ġfellow": 1568,
      "Ġut": 1569,
      "ited": 1570,
      "Not": 1571,
      "Qu": 1572,
      "Ġhelp": 1573,
      "ville": 1574,
      "Ġfact": 1575,
      "ash": 1576,
      "Ġobli": 1577,
      "Ġopp": 1578,
      "esides": 1579,
      "ric": 1580,
      "Ġexcl": 1581,
      "âĪĴâĪĴ": 1582,
      "enal": 1583,
      "ments": 1584,
      "Ġgener": 1585,
      "inc": 1586,
      "Ġmer": 1587,
      "Ġcard": 1588,
      "dy": 1589,
      "Ġph": 1590,
      "onse": 1591,
      "ody": 1592,
      "Ġaut": 1593,
      "Ġdro": 1594,
      "Ġrel": 1595,
      "ER": 1596,
      "Ġunt": 1597,
      "Ġremem": 1598,
      "Ġtro": 1599,
      "Ġrose": 1600,
      "Ġengineer": 1601,
      "Ġclose": 1602,
      "Ġris": 1603,
      "ĠMonsieur": 1604,
      "Ġlive": 1605,
      "Ġbon": 1606,
      "ĠÂ»": 1607,
      "Ġsever": 1608,
      "riage": 1609,
      "Ġadded": 1610,
      "ho": 1611,
      "Ġpay": 1612,
      "Ġstrange": 1613,
      "Ġship": 1614,
      "Ġdiffic": 1615,
      "min": 1616,
      "Â«": 1617,
      "One": 1618,
      "Ġdead": 1619,
      "Ġquel": 1620,
      "Ġcomme": 1621,
      "Ġrock": 1622,
      "Ġappear": 1623,
      "Ġcourse": 1624,
      "Ġran": 1625,
      "fully": 1626,
      "Ġprop": 1627,
      "Ġtri": 1628,
      "ĠFo": 1629,
      "Ġcomple": 1630,
      "Ġfamily": 1631,
      "ts": 1632,
      "ton": 1633,
      "ham": 1634,
      "Ġanim": 1635,
      "ĠNautilus": 1636,
      "aves": 1637,
      "Ġtrue": 1638,
      "Ġpower": 1639,
      "Ġgre": 1640,
      "Ġcor": 1641,
      "aces": 1642,
      "Ġprison": 1643,
      "Ãł": 1644,
      "Il": 1645,
      "uit": 1646,
      "body": 1647,
      "ilet": 1648,
      "Ġreally": 1649,
      "ants": 1650,
      "Ġport": 1651,
      "ils": 1652,
      "abeth": 1653,
      "ĠRenal": 1654,
      "lizabeth": 1655,
      "Ġsuddenly": 1656,
      "Ġbeneath": 1657,
      "Ġbu": 1658,
      "Ġeight": 1659,
      "Ġext": 1660,
      "ates": 1661,
      "ote": 1662,
      "Ġsleep": 1663,
      "ider": 1664,
      "Ġmean": 1665,
      "nes": 1666,
      "Ġconst": 1667,
      "Ġduring": 1668,
      "Ġthin": 1669,
      "cer": 1670,
      "Ġemb": 1671,
      "Ġgall": 1672,
      "Ġprov": 1673,
      "Ġinv": 1674,
      "ĠMiss": 1675,
      "ably": 1676,
      "ĠÃ©": 1677,
      "ching": 1678,
      "Ġbring": 1679,
      "Ġpur": 1680,
      "Ġimag": 1681,
      "yrus": 1682,
      "Ġseveral": 1683,
      "Ġdin": 1684,
      "ually": 1685,
      "Ġquar": 1686,
      "Ġearth": 1687,
      "Do": 1688,
      "Ġcreat": 1689,
      "Ġdri": 1690,
      "Ġconv": 1691,
      "ĠFogg": 1692,
      "ib": 1693,
      "Ġuntil": 1694,
      "Ġlady": 1695,
      "ĠSir": 1696,
      "ror": 1697,
      "ĠCaptain": 1698,
      "ump": 1699,
      "ract": 1700,
      "Ġask": 1701,
      "ls": 1702,
      "Ġcarried": 1703,
      "Ġmanner": 1704,
      "rom": 1705,
      "Ġhur": 1706,
      "Ġeither": 1707,
      "aving": 1708,
      "iously": 1709,
      "Ġentered": 1710,
      "ienne": 1711,
      "After": 1712,
      "ec": 1713,
      "nded": 1714,
      "Ġready": 1715,
      "ieux": 1716,
      "Ġwomen": 1717,
      "oc": 1718,
      "medi": 1719,
      "Ġeff": 1720,
      "Ġru": 1721,
      "ler": 1722,
      "Ġbreat": 1723,
      "isf": 1724,
      "va": 1725,
      "Ġcross": 1726,
      "Ġconvers": 1727,
      "Ġexpress": 1728,
      "Ġmad": 1729,
      "Ġfait": 1730,
      "Ġcardinal": 1731,
      "oon": 1732,
      "Ġsn": 1733,
      "Ġeye": 1734,
      "Ġchildren": 1735,
      "Ġnous": 1736,
      "quis": 1737,
      "Ġanswer": 1738,
      "rit": 1739,
      "ĠIt": 1740,
      "Ġstart": 1741,
      "Ġwhether": 1742,
      "Ġspoke": 1743,
      "Ġclear": 1744,
      "app": 1745,
      "lish": 1746,
      "mber": 1747,
      "orthos": 1748,
      "ques": 1749,
      "La": 1750,
      "Ġexpl": 1751,
      "Ġviol": 1752,
      "Ġbecome": 1753,
      "ging": 1754,
      "ours": 1755,
      "..": 1756,
      "Ġsit": 1757,
      "ists": 1758,
      "Ġast": 1759,
      "Ġnature": 1760,
      "you": 1761,
      "gs": 1762,
      "Ġord": 1763,
      "Ġhorse": 1764,
      "Ġtaking": 1765,
      "Ġwithin": 1766,
      "Ġdisco": 1767,
      "Ġfif": 1768,
      "Ġgard": 1769,
      "Ġstrong": 1770,
      "Ġwhy": 1771,
      "Ġresol": 1772,
      "Ġstopped": 1773,
      "Ġreal": 1774,
      "Ġfaire": 1775,
      "sh": 1776,
      "oth": 1777,
      "Ġarr": 1778,
      "aimed": 1779,
      "Ġfright": 1780,
      "ĠHerbert": 1781,
      "Ġces": 1782,
      "Ġdesp": 1783,
      "Ġseeing": 1784,
      "Ġservant": 1785,
      "Ġcat": 1786,
      "orrow": 1787,
      "Ġmouth": 1788,
      "Ġcorn": 1789,
      "ounded": 1790,
      "ea": 1791,
      "ues": 1792,
      "Ġimpos": 1793,
      "Mr": 1794,
      "Ġrespect": 1795,
      "Ġsatisf": 1796,
      "Ġcast": 1797,
      "Ġmeans": 1798,
      "ĠMrs": 1799,
      "dle": 1800,
      "ouv": 1801,
      "atter": 1802,
      "Ġbegin": 1803,
      "Ġlaugh": 1804,
      "Ġcomte": 1805,
      "Ġprince": 1806,
      "Ġsaying": 1807,
      "Ġaccount": 1808,
      "Ġleng": 1809,
      "Ġexam": 1810,
      "Ġyourself": 1811,
      "Ġheld": 1812,
      "ĠCl": 1813,
      "Ġregard": 1814,
      "Ã»": 1815,
      "ots": 1816,
      "'ve": 1817,
      "Ã©n": 1818,
      "Ġyear": 1819,
      "Ġgentleman": 1820,
      "ilett": 1821,
      "urent": 1822,
      "Ġfront": 1823,
      "ĠCh": 1824,
      "emo": 1825,
      "Ġsus": 1826,
      "aw": 1827,
      "nde": 1828,
      "Ġcase": 1829,
      "ĠMilady": 1830,
      "Ġperfect": 1831,
      "ket": 1832,
      "Ġused": 1833,
      "Ġcry": 1834,
      "--\"": 1835,
      "ĠNemo": 1836,
      "Ġwee": 1837,
      "pl": 1838,
      "Ġmain": 1839,
      "Ġforg": 1840,
      "Ġmove": 1841,
      "Ġglass": 1842,
      "asse": 1843,
      "ution": 1844,
      "ney": 1845,
      "Ġimmedi": 1846,
      "Ġinterest": 1847,
      "cri": 1848,
      "Ġbreak": 1849,
      "With": 1850,
      "Ġpast": 1851,
      "Ġknown": 1852,
      "ape": 1853,
      "br": 1854,
      "Ġtrans": 1855,
      "Ġcertainly": 1856,
      "guer": 1857,
      "Ġsecret": 1858,
      "Ġed": 1859,
      "Ġpleasure": 1860,
      "Ġsister": 1861,
      "aged": 1862,
      "Ġwanted": 1863,
      "Ã®": 1864,
      "Ġpale": 1865,
      "Ġmal": 1866,
      "Ġitself": 1867,
      "Ġann": 1868,
      "Ġbit": 1869,
      "Ġdi": 1870,
      "ume": 1871,
      "Ġlength": 1872,
      "Ġheav": 1873,
      "cher": 1874,
      "iled": 1875,
      "end": 1876,
      "Ġspr": 1877,
      "Ġplaced": 1878,
      "Ġnum": 1879,
      "īt": 1880,
      "Ġpain": 1881,
      "iful": 1882,
      "Ġsold": 1883,
      "guerite": 1884,
      "amis": 1885,
      "Ġhair": 1886,
      "Ġscar": 1887,
      "Ġreceived": 1888,
      "Ġthoughts": 1889,
      "hile": 1890,
      "orter": 1891,
      "Ġmount": 1892,
      "rig": 1893,
      "CH": 1894,
      "Ġtown": 1895,
      "aded": 1896,
      "ancs": 1897,
      "ītienne": 1898,
      "Ġpal": 1899,
      "Ġquick": 1900,
      "resh": 1901,
      "Ġdream": 1902,
      "ley": 1903,
      "Ġtherefore": 1904,
      "Ġhappy": 1905,
      "Ġrap": 1906,
      "Ġpret": 1907,
      "airs": 1908,
      "ening": 1909,
      "Ã©tait": 1910,
      "Ġvoy": 1911,
      "Ġdanger": 1912,
      "Ġworth": 1913,
      "ility": 1914,
      "rupt": 1915,
      "ĠCharles": 1916,
      "Ġlips": 1917,
      "ĠJane": 1918,
      "iers": 1919,
      "Ġsch": 1920,
      "Ġjoy": 1921,
      "tempt": 1922,
      "Ġexclaimed": 1923,
      "Ġconversation": 1924,
      "bo": 1925,
      "par": 1926,
      "iment": 1927,
      "Ġtried": 1928,
      "Ġoffic": 1929,
      "Ġnatur": 1930,
      "ze": 1931,
      "ieu": 1932,
      "Ġsometimes": 1933,
      "Ġcompanions": 1934,
      "Ġreached": 1935,
      "Ġyes": 1936,
      "Ġlear": 1937,
      "Ġsett": 1938,
      "Ġtalk": 1939,
      "Ġaccomp": 1940,
      "Ġdistance": 1941,
      "Ġsal": 1942,
      "ĠPorthos": 1943,
      "Ġven": 1944,
      "Ġelse": 1945,
      "onder": 1946,
      "Ġfix": 1947,
      "Ġstay": 1948,
      "Ġfrancs": 1949,
      "An": 1950,
      "ĠIs": 1951,
      "Here": 1952,
      "ax": 1953,
      "Ġfat": 1954,
      "ony": 1955,
      "Ġvol": 1956,
      "Ġsucc": 1957,
      "oss": 1958,
      "Ġmiles": 1959,
      "Ġmine": 1960,
      "Ġoccas": 1961,
      "Ġanx": 1962,
      "Ġnecessary": 1963,
      "Ġflo": 1964,
      "onn": 1965,
      "ief": 1966,
      "anite": 1967,
      "Ġhast": 1968,
      "aux": 1969,
      "Ġarrived": 1970,
      "ges": 1971,
      "side": 1972,
      "umed": 1973,
      "Ġslow": 1974,
      "Ġfit": 1975,
      "Ġcrow": 1976,
      "onseil": 1977,
      "Ġmeet": 1978,
      "Ġpartic": 1979,
      "Ġbott": 1980,
      "aven": 1981,
      "ĠRoche": 1982,
      "Ġ2": 1983,
      "isted": 1984,
      "Ġdiffe": 1985,
      "Ġvisit": 1986,
      "ines": 1987,
      "akes": 1988,
      "Ġblood": 1989,
      "Ġemp": 1990,
      "read": 1991,
      "enn": 1992,
      "Ġextre": 1993,
      "Ġrefle": 1994,
      "oire": 1995,
      "ination": 1996,
      "Ġpat": 1997,
      "Ġwished": 1998,
      "Ġhat": 1999,
      "Ġsol": 2000,
      "ĠThere": 2001,
      "itÃ©": 2002,
      "lled": 2003,
      "Ġneither": 2004,
      "Ġstruck": 2005,
      "Ġterrible": 2006,
      "Ġstri": 2007,
      "Ġequ": 2008,
      "ident": 2009,
      "fered": 2010,
      "erm": 2011,
      "ased": 2012,
      "Ġquiet": 2013,
      "ming": 2014,
      "Ġdest": 2015,
      "Ġart": 2016,
      "els": 2017,
      "itted": 2018,
      "Ġpap": 2019,
      "ĠBon": 2020,
      "Ġcrowd": 2021,
      "ped": 2022,
      "Ġbody": 2023,
      "Ġtears": 2024,
      "Ġbusiness": 2025,
      "tended": 2026,
      "Ġcomplete": 2027,
      "Ġimpossible": 2028,
      "Ġimmediately": 2029,
      "Ġposs": 2030,
      "otre": 2031,
      "ĠLe": 2032,
      "ĠLord": 2033,
      "Ġought": 2034,
      "Ġdeg": 2035,
      "iff": 2036,
      "Ġdaught": 2037,
      "Ġdeux": 2038,
      "Ġshout": 2039,
      "Ġlived": 2040,
      "Ġdisappe": 2041,
      "Ġmus": 2042,
      "Ġtrees": 2043,
      "Ġaston": 2044,
      "Ġbad": 2045,
      "Ġpit": 2046,
      "Ġiron": 2047,
      "ern": 2048,
      "Ġfig": 2049,
      "urch": 2050,
      "uss": 2051,
      "Ġserv": 2052,
      "Ġconsider": 2053,
      "Ãªme": 2054,
      "Ġhuman": 2055,
      "Ġsad": 2056,
      "Ġgaz": 2057,
      "inter": 2058,
      "ities": 2059,
      "Ġboy": 2060,
      "ĠAramis": 2061,
      "Ġpassion": 2062,
      "ĠMarguerite": 2063,
      "Ġsqu": 2064,
      "Ġrequ": 2065,
      "Ġcarry": 2066,
      "ante": 2067,
      "ĠAl": 2068,
      "Ġsailor": 2069,
      "Ġaround": 2070,
      "ior": 2071,
      "Ġtone": 2072,
      "Ġhomme": 2073,
      "Ġglo": 2074,
      "retched": 2075,
      "part": 2076,
      "rait": 2077,
      "inary": 2078,
      "orte": 2079,
      "essor": 2080,
      "itting": 2081,
      "Ġrecogn": 2082,
      "ĠSpilett": 2083,
      "og": 2084,
      "Ġgentlemen": 2085,
      "Ġbeautiful": 2086,
      "Ġcircum": 2087,
      "Ġfast": 2088,
      "Ġneigh": 2089,
      "Ġarch": 2090,
      "ĠLond": 2091,
      "Ġshut": 2092,
      "Ġeasy": 2093,
      "Ġcalm": 2094,
      "Ġfortune": 2095,
      "ey": 2096,
      "ffect": 2097,
      "Ġwild": 2098,
      "Ġtor": 2099,
      "Ġacqu": 2100,
      "AP": 2101,
      "ex": 2102,
      "Ġfree": 2103,
      "ĠrÃ©p": 2104,
      "Julien": 2105,
      "oured": 2106,
      "Ġoccup": 2107,
      "aire": 2108,
      "Ġbig": 2109,
      "ĠElizabeth": 2110,
      "Al": 2111,
      "ĠrÃ©": 2112,
      "Ġstud": 2113,
      "Ġball": 2114,
      "teen": 2115,
      "Ġgold": 2116,
      "Ġbell": 2117,
      "Ġdirect": 2118,
      "Ġfresh": 2119,
      "Ġeat": 2120,
      "Ġconce": 2121,
      "Ġvill": 2122,
      "tern": 2123,
      "Ġlead": 2124,
      "Ġsoul": 2125,
      "Ġrepeated": 2126,
      "Ġpretty": 2127,
      "ms": 2128,
      "nding": 2129,
      "Ġspir": 2130,
      "ĠTre": 2131,
      "uc": 2132,
      "ush": 2133,
      "Ġobserved": 2134,
      "Ġdemand": 2135,
      "Ġsav": 2136,
      "tes": 2137,
      "ug": 2138,
      "Ġfre": 2139,
      "Ġled": 2140,
      "Ġobliged": 2141,
      "Ġrapid": 2142,
      "Ġfav": 2143,
      "Ã©es": 2144,
      "ĠCyrus": 2145,
      "ĠLondon": 2146,
      "where": 2147,
      "Ġreply": 2148,
      "From": 2149,
      "TER": 2150,
      "eor": 2151,
      "Ġbat": 2152,
      "ishing": 2153,
      "Ġwalked": 2154,
      "vous": 2155,
      "Ġshad": 2156,
      "Ġmonths": 2157,
      "Ġheavy": 2158,
      "Ġfair": 2159,
      "These": 2160,
      "Ġves": 2161,
      "rence": 2162,
      "Ġdou": 2163,
      "Ġdeal": 2164,
      "ager": 2165,
      "Ġthick": 2166,
      "Ġsuper": 2167,
      "Ġang": 2168,
      "Ġprodu": 2169,
      "Ġincre": 2170,
      "Ġhop": 2171,
      "Ġriver": 2172,
      "Ġliving": 2173,
      "Her": 2174,
      "Is": 2175,
      "Je": 2176,
      "Let": 2177,
      "Ġeffect": 2178,
      "Ġrev": 2179,
      "ĠPro": 2180,
      "By": 2181,
      "rer": 2182,
      "Ġdrew": 2183,
      "aced": 2184,
      "ĠHen": 2185,
      "raid": 2186,
      "Ġsmile": 2187,
      "CHAP": 2188,
      "Ġdelight": 2189,
      "Ġjud": 2190,
      "Ġimport": 2191,
      "Ġrid": 2192,
      "ĠHouse": 2193,
      "Ġshar": 2194,
      "ov": 2195,
      "arcy": 2196,
      "ĠBut": 2197,
      "Ġpost": 2198,
      "ĠEnglish": 2199,
      "Ã»t": 2200,
      "Ġmonsieur": 2201,
      "Ġfeeling": 2202,
      "Ġpossess": 2203,
      "form": 2204,
      "ĠConseil": 2205,
      "Ġchance": 2206,
      "Ġsimple": 2207,
      "Ġattention": 2208,
      "Ġwaiting": 2209,
      "Ġbelong": 2210,
      "ctor": 2211,
      "Ġcontr": 2212,
      "Ġhappened": 2213,
      "Ġmidst": 2214,
      "Ġvessel": 2215,
      "Ġdel": 2216,
      "Ġraised": 2217,
      "what": 2218,
      "Ġevid": 2219,
      "Ġplain": 2220,
      "Ġcovered": 2221,
      "Ġprec": 2222,
      "Ġposition": 2223,
      "ead": 2224,
      "night": 2225,
      "phe": 2226,
      "uge": 2227,
      "Ġmass": 2228,
      "Ġburn": 2229,
      "Ġnoise": 2230,
      "Ġobject": 2231,
      "Ġscarce": 2232,
      "inct": 2233,
      "Ġkiss": 2234,
      "Ġbread": 2235,
      "Ġcircumst": 2236,
      "pend": 2237,
      "ĠCo": 2238,
      "Ġafraid": 2239,
      "ails": 2240,
      "Ġsilent": 2241,
      "Ġsurf": 2242,
      "ugg": 2243,
      "assepart": 2244,
      "assepartout": 2245,
      "of": 2246,
      "Ġver": 2247,
      "Ġforward": 2248,
      "Ġvent": 2249,
      "Ġcoast": 2250,
      "ĠDarcy": 2251,
      "Ãªtre": 2252,
      "Ġbroken": 2253,
      "Ġtous": 2254,
      "Ġbir": 2255,
      "Ġinn": 2256,
      "iling": 2257,
      "Come": 2258,
      "bre": 2259,
      "Ġdress": 2260,
      "Ġhang": 2261,
      "Ġformed": 2262,
      "Ġremember": 2263,
      "'m": 2264,
      "Ġpa": 2265,
      "Ġnarr": 2266,
      "ames": 2267,
      "Ġmere": 2268,
      "uff": 2269,
      "Ġcompl": 2270,
      "Ġturning": 2271,
      "ĠShe": 2272,
      "igne": 2273,
      "Ġclosed": 2274,
      "Ġsans": 2275,
      "ury": 2276,
      "Ġforget": 2277,
      "Ġconse": 2278,
      "ĠNeb": 2279,
      "However": 2280,
      "Ġpriest": 2281,
      "Ġentire": 2282,
      "Ġbottom": 2283,
      "oh": 2284,
      "Ġfurn": 2285,
      "ici": 2286,
      "Ã´t": 2287,
      "oes": 2288,
      "uth": 2289,
      "Ġremain": 2290,
      "Ġmurm": 2291,
      "Ġpiece": 2292,
      ",âĪĴâĪĴ": 2293,
      "Ġlater": 2294,
      "Ġhors": 2295,
      "ounds": 2296,
      "Ġprob": 2297,
      "Ġboard": 2298,
      "Ġcharac": 2299,
      "Ġstanding": 2300,
      "Ġslight": 2301,
      "Ġdie": 2302,
      "ulnes": 2303,
      "unt": 2304,
      "Ġoccasion": 2305,
      "Ġchurch": 2306,
      "'re": 2307,
      "Be": 2308,
      "Ġview": 2309,
      "Ġpress": 2310,
      "ingly": 2311,
      "Ġinqu": 2312,
      "Ġleaving": 2313,
      "Ġtrave": 2314,
      "Ġprevent": 2315,
      "Ġloved": 2316,
      "tained": 2317,
      "ĠNed": 2318,
      "Ġstreng": 2319,
      "Ġmoi": 2320,
      "Ġpresence": 2321,
      "mma": 2322,
      "Ġsuccess": 2323,
      "Ġcab": 2324,
      "Ġcause": 2325,
      "ustom": 2326,
      "Ġcro": 2327,
      "vern": 2328,
      "ung": 2329,
      "ĠAnd": 2330,
      "ĠIsland": 2331,
      "Ġfight": 2332,
      "Ġpull": 2333,
      "Ġpub": 2334,
      "Ġcarriage": 2335,
      "Ġsubject": 2336,
      "Ġwalk": 2337,
      "Ġparticular": 2338,
      "Ġjam": 2339,
      "port": 2340,
      "ĠTh": 2341,
      "ining": 2342,
      "Ġcompany": 2343,
      "Ġsurprised": 2344,
      "Ġthinking": 2345,
      "Ġnatural": 2346,
      "ones": 2347,
      "Ġshop": 2348,
      "ĠSaint": 2349,
      "rench": 2350,
      "Ġgarden": 2351,
      "eaulnes": 2352,
      "ices": 2353,
      "cell": 2354,
      "ĠPr": 2355,
      "Ġwatch": 2356,
      "ceeded": 2357,
      "Ġdinner": 2358,
      "CHAPTER": 2359,
      "ries": 2360,
      "andide": 2361,
      "atherine": 2362,
      "Ġwonder": 2363,
      "aled": 2364,
      "Ġhappiness": 2365,
      "Ġwarm": 2366,
      "Ġfing": 2367,
      "Ġacross": 2368,
      "Ġsurface": 2369,
      "old": 2370,
      "acieux": 2371,
      "ague": 2372,
      "Ġprep": 2373,
      "ission": 2374,
      "Ġtrouble": 2375,
      "Ġsingle": 2376,
      "Ġcreature": 2377,
      "ĠYou": 2378,
      "Ġexcept": 2379,
      "Ġfem": 2380,
      "Ġspite": 2381,
      "Ġforgot": 2382,
      "Un": 2383,
      "âĢľ": 2384,
      "Ġstory": 2385,
      "Ġdepth": 2386,
      "Ġfixed": 2387,
      "Ġcaught": 2388,
      "âĢĿ": 2389,
      "Ġdoing": 2390,
      "Ġdesire": 2391,
      "Ġdaughter": 2392,
      "Ġstone": 2393,
      "Ġplan": 2394,
      "Ġclot": 2395,
      "oi": 2396,
      "ask": 2397,
      "Ġattempt": 2398,
      "inion": 2399,
      "Ġevent": 2400,
      "amed": 2401,
      "Ġsteps": 2402,
      "Ġtu": 2403,
      "Ġstate": 2404,
      "aped": 2405,
      "Ġsurprise": 2406,
      "HE": 2407,
      "Ġdiv": 2408,
      "Ġfanc": 2409,
      "though": 2410,
      "Ġspeaking": 2411,
      "Ġtremb": 2412,
      "Ġweek": 2413,
      "ĠRochester": 2414,
      "oul": 2415,
      "Ġbes": 2416,
      "any": 2417,
      "iced": 2418,
      "umb": 2419,
      "Never": 2420,
      "ph": 2421,
      "Ã¹": 2422,
      "Ġtop": 2423,
      "irt": 2424,
      "antly": 2425,
      "ively": 2426,
      "ilde": 2427,
      "Ġslowly": 2428,
      "oint": 2429,
      "Ġneck": 2430,
      "ĠRe": 2431,
      "Ġpeu": 2432,
      "Ġaccept": 2433,
      "ohn": 2434,
      "Ġstrength": 2435,
      "ds": 2436,
      "fin": 2437,
      "Ġgrew": 2438,
      "Ġtruth": 2439,
      "Ġtalking": 2440,
      "Ġsac": 2441,
      "Ġcourage": 2442,
      "Ġmiddle": 2443,
      "Ġlaid": 2444,
      "athilde": 2445,
      "ize": 2446,
      "Ġdifferent": 2447,
      "ule": 2448,
      "ented": 2449,
      "Ġrunning": 2450,
      "Ġextreme": 2451,
      "ĠY": 2452,
      "ceive": 2453,
      "rill": 2454,
      "Ġpassage": 2455,
      "ndre": 2456,
      "Ġmort": 2457,
      "ussi": 2458,
      "Ġshow": 2459,
      "Ġchair": 2460,
      "Ġsweet": 2461,
      "eorge": 2462,
      "Ġgun": 2463,
      "Ġshowed": 2464,
      "anced": 2465,
      "omm": 2466,
      "Ġreach": 2467,
      "Ġaccord": 2468,
      "Ġexact": 2469,
      "ĠLand": 2470,
      "lia": 2471,
      "Ġschool": 2472,
      "Ġfool": 2473,
      "ĠMole": 2474,
      "Ġexist": 2475,
      "ĠÃītienne": 2476,
      "Ġnearly": 2477,
      "Ġfilled": 2478,
      "ĠEngland": 2479,
      "ĠX": 2480,
      "Ġperm": 2481,
      "Ġdevil": 2482,
      "by": 2483,
      "Ġaux": 2484,
      "Ġsuc": 2485,
      "fection": 2486,
      "Ġseems": 2487,
      "ron": 2488,
      "Ġthrew": 2489,
      "ĠBonacieux": 2490,
      "vel": 2491,
      "Ġforce": 2492,
      "ctions": 2493,
      "oute": 2494,
      "Ġthirty": 2495,
      "Ġeffort": 2496,
      "Ġcharacter": 2497,
      "yond": 2498,
      "ĠMme": 2499,
      "ously": 2500,
      "Ġreporter": 2501,
      "Ġunderstood": 2502,
      "Ġjourney": 2503,
      "Ġage": 2504,
      "Ġhabit": 2505,
      "hant": 2506,
      "udence": 2507,
      "rton": 2508,
      "Ġconfess": 2509,
      "Ġarrang": 2510,
      "yrton": 2511,
      "oup": 2512,
      "Ġline": 2513,
      "Ġpi": 2514,
      "Ġbeyond": 2515,
      "usion": 2516,
      "Ġwindows": 2517,
      "Ġchange": 2518,
      "Ġcondu": 2519,
      "gy": 2520,
      "Ġwon": 2521,
      "Ġmagn": 2522,
      "Ġlim": 2523,
      "cially": 2524,
      "pter": 2525,
      "Ġsoft": 2526,
      "ĠGu": 2527,
      "Ġempt": 2528,
      "Ġeasily": 2529,
      "Ġfer": 2530,
      "Ġpen": 2531,
      "ĠFrench": 2532,
      "Ġgrave": 2533,
      "morrow": 2534,
      "ĠoÃ¹": 2535,
      "ature": 2536,
      "ortun": 2537,
      "Ġdesce": 2538,
      "ĠNe": 2539,
      "Ġheads": 2540,
      "Ġfollowing": 2541,
      "Ġscarcely": 2542,
      "ĠMus": 2543,
      "Ġshoulders": 2544,
      "Ġpassing": 2545,
      "Ġremar": 2546,
      "Ġgiving": 2547,
      "Ġwalls": 2548,
      "Ġdrawing": 2549,
      "Ġrocks": 2550,
      "Ġcorner": 2551,
      "Ġnumber": 2552,
      "Cha": 2553,
      "Ġformer": 2554,
      "Ġexper": 2555,
      "ĠTreville": 2556,
      "ingoire": 2557,
      "Ġsend": 2558,
      "Ġmem": 2559,
      "like": 2560,
      "Ġburst": 2561,
      "Ġbeginning": 2562,
      "ah": 2563,
      "Ġhot": 2564,
      "Ġafterwards": 2565,
      "Ġresumed": 2566,
      "Ġopinion": 2567,
      "ope": 2568,
      "lly": 2569,
      "ĠHarr": 2570,
      "Ġblue": 2571,
      "sib": 2572,
      "Ġbroke": 2573,
      "Ġdifficult": 2574,
      "Ġsy": 2575,
      "Ġsens": 2576,
      "loy": 2577,
      "Ġadvant": 2578,
      "Ġhardly": 2579,
      "Ġcand": 2580,
      "Ġsum": 2581,
      "esty": 2582,
      "ĠÃ©tÃ©": 2583,
      "Ġdarkness": 2584,
      "ĠTherese": 2585,
      "Ġtoward": 2586,
      "ĠJohn": 2587,
      "ĠKing": 2588,
      "Ġsitu": 2589,
      "bs": 2590,
      "Ġincl": 2591,
      "Ġrich": 2592,
      "Ġseven": 2593,
      "Ġsepar": 2594,
      "pecially": 2595,
      "Ġcomfort": 2596,
      "Ġpeut": 2597,
      "ĠGranite": 2598,
      "Ġcondition": 2599,
      "Ġfigure": 2600,
      "Ġcet": 2601,
      "Ġdecl": 2602,
      "Ġlean": 2603,
      "ailed": 2604,
      "Ġcommon": 2605,
      "Ġresolved": 2606,
      "St": 2607,
      "Ġund": 2608,
      "Ġseized": 2609,
      "Ġgetting": 2610,
      "Ġsuppose": 2611,
      "ennet": 2612,
      "Ġdisappeared": 2613,
      "Where": 2614,
      "Ġstra": 2615,
      "Ġwaters": 2616,
      "ply": 2617,
      "head": 2618,
      "Ġpock": 2619,
      "Ġladies": 2620,
      "ĠMahe": 2621,
      "Ġmotion": 2622,
      "Ġappearance": 2623,
      "ĠAlice": 2624,
      "Ġsense": 2625,
      "acon": 2626,
      "Ġnews": 2627,
      "kete": 2628,
      "ray": 2629,
      "Åĵ": 2630,
      "Ġfle": 2631,
      "Ġmistress": 2632,
      "Ġbreath": 2633,
      "Ġescape": 2634,
      "erable": 2635,
      "Ġmeant": 2636,
      "Ġperceived": 2637,
      "Ġletters": 2638,
      "Ġfaith": 2639,
      "Ġservice": 2640,
      "Ġjamais": 2641,
      "ĠMuskete": 2642,
      "af": 2643,
      "oly": 2644,
      "wo": 2645,
      "pping": 2646,
      "ĠJean": 2647,
      "Besides": 2648,
      "ĠQu": 2649,
      "Ġwaves": 2650,
      "itation": 2651,
      "ĠgÃ©n": 2652,
      "Ġdepart": 2653,
      "ardon": 2654,
      "Ġlaw": 2655,
      "Ġcru": 2656,
      "ĠLaurent": 2657,
      "Ġhorses": 2658,
      "alth": 2659,
      "Ġkill": 2660,
      "Ġdistur": 2661,
      "ires": 2662,
      "Ġlower": 2663,
      "Ġyell": 2664,
      "ĠBennet": 2665,
      "Ġprem": 2666,
      "Ġgeneral": 2667,
      "Ġquarter": 2668,
      "Ġexpression": 2669,
      "ique": 2670,
      "Ġspo": 2671,
      "Ġmarried": 2672,
      "oiselle": 2673,
      "Ġquickly": 2674,
      "Every": 2675,
      "Ġfro": 2676,
      "Ġspot": 2677,
      "Ġdirection": 2678,
      "Ġexpected": 2679,
      "Ġdespair": 2680,
      "Ġbook": 2681,
      "Ġdut": 2682,
      "Ġval": 2683,
      "oof": 2684,
      "ĠCatherine": 2685,
      "Ġspread": 2686,
      "dered": 2687,
      "ierre": 2688,
      "Ġfurther": 2689,
      "Ġdecided": 2690,
      "Ġpublic": 2691,
      "cean": 2692,
      "Ġbelow": 2693,
      "Ġneighbour": 2694,
      "lers": 2695,
      "Ġsli": 2696,
      "Ġhes": 2697,
      "otion": 2698,
      "aching": 2699,
      "ĠCan": 2700,
      "Who": 2701,
      "Ġquelque": 2702,
      "Ġrain": 2703,
      "Ġconcer": 2704,
      "aud": 2705,
      "Ġdidn": 2706,
      "Ġmoments": 2707,
      "Ġglad": 2708,
      "Ġterror": 2709,
      "Ġespecially": 2710,
      "ĠFrance": 2711,
      "Good": 2712,
      "Ġbesides": 2713,
      "ulty": 2714,
      "Ġhung": 2715,
      "Ġconsequ": 2716,
      "Ġbank": 2717,
      "asc": 2718,
      "ays": 2719,
      "arent": 2720,
      "Ġglance": 2721,
      "Ġoccur": 2722,
      "Ġstraight": 2723,
      "Ġcel": 2724,
      "Ġsear": 2725,
      "Ġsoci": 2726,
      "Ġhoriz": 2727,
      "Ġsword": 2728,
      "Ġfuture": 2729,
      "kn": 2730,
      "rist": 2731,
      "iter": 2732,
      "Ġdog": 2733,
      "Ġstrugg": 2734,
      "fast": 2735,
      "Ġpens": 2736,
      "ift": 2737,
      "olmes": 2738,
      "ument": 2739,
      "Ġhandsome": 2740,
      "Ġperfectly": 2741,
      "well": 2742,
      "Ġid": 2743,
      "Ġcorr": 2744,
      "Ġlie": 2745,
      "Ġvain": 2746,
      "ĠMeaulnes": 2747,
      "Ġknows": 2748,
      "Ġlistened": 2749,
      "Ġadmir": 2750,
      "Ġgreen": 2751,
      "Ġbas": 2752,
      "âĢ¦": 2753,
      "Ġseated": 2754,
      "Ġkilled": 2755,
      "Ġmoved": 2756,
      "Ġforest": 2757,
      "hor": 2758,
      "ob": 2759,
      "ingley": 2760,
      "Ġusual": 2761,
      "Ġstreet": 2762,
      "Ġcircumstances": 2763,
      "II": 2764,
      "can": 2765,
      "ĠâĢľ": 2766,
      "Ġpu": 2767,
      "Ã©lia": 2768,
      "Ġallow": 2769,
      "ables": 2770,
      "Ġ...": 2771,
      "ashion": 2772,
      "oe": 2773,
      "icked": 2774,
      "Ġsave": 2775,
      "Ġtry": 2776,
      "Ġspec": 2777,
      "Ã©cri": 2778,
      "oned": 2779,
      "Ġenj": 2780,
      "Ġsky": 2781,
      "bb": 2782,
      "rees": 2783,
      "habit": 2784,
      "Ġhill": 2785,
      "Ġnone": 2786,
      "adem": 2787,
      "ideon": 2788,
      "Ġrising": 2789,
      "Your": 2790,
      "ĠIn": 2791,
      "ips": 2792,
      "ouve": 2793,
      "Ġmention": 2794,
      "str": 2795,
      "Ã©g": 2796,
      "elve": 2797,
      "Ġencore": 2798,
      "Ġallowed": 2799,
      "elton": 2800,
      "Ġchamber": 2801,
      "Ġcloud": 2802,
      "rief": 2803,
      "fortun": 2804,
      "Ġvan": 2805,
      "Ġsole": 2806,
      "Ġmarry": 2807,
      "mense": 2808,
      "Ġcre": 2809,
      "Ġcher": 2810,
      "Ġweak": 2811,
      "Ġstop": 2812,
      "ilt": 2813,
      "Ġdrag": 2814,
      "Ġinterrupt": 2815,
      "Ġcost": 2816,
      "Ġaffection": 2817,
      "Ġwaited": 2818,
      "Ġdread": 2819,
      "Ġanimal": 2820,
      "Ġfloor": 2821,
      "Ġclothes": 2822,
      "),": 2823,
      "iting": 2824,
      "eness": 2825,
      "acle": 2826,
      "Ġcolon": 2827,
      "Ġfinished": 2828,
      "Ġdifficulty": 2829,
      "ative": 2830,
      "olog": 2831,
      "Ġwatched": 2832,
      "Ġcommand": 2833,
      "Ġemploy": 2834,
      "Ġbox": 2835,
      "Ġclim": 2836,
      "ĠDu": 2837,
      "Ġvillage": 2838,
      "hy": 2839,
      "Ġdeli": 2840,
      "Ġcomes": 2841,
      "Ġyeux": 2842,
      "iÃ¨re": 2843,
      "rÃ¨s": 2844,
      "Ġpict": 2845,
      "Ġpouv": 2846,
      "lling": 2847,
      "Ġren": 2848,
      "Ġproper": 2849,
      "action": 2850,
      "Ġplease": 2851,
      "Ġfifty": 2852,
      "Ġheight": 2853,
      "chet": 2854,
      "Ġserious": 2855,
      "ored": 2856,
      "rel": 2857,
      "Ġfish": 2858,
      "Ġpurs": 2859,
      "Ġhid": 2860,
      "Ġheaven": 2861,
      "Ġwhis": 2862,
      "ades": 2863,
      "Ġring": 2864,
      "lig": 2865,
      "Ġtwelve": 2866,
      "ĠÃª": 2867,
      "Ġbelieved": 2868,
      "Ġenjoy": 2869,
      "Ġbare": 2870,
      "Ġexec": 2871,
      "usted": 2872,
      "Ġenter": 2873,
      "Ġnorth": 2874,
      "Ġtrois": 2875,
      ",--": 2876,
      "ĠCandide": 2877,
      "ounced": 2878,
      "Ġvoyage": 2879,
      "fessor": 2880,
      "ouis": 2881,
      "Ġbeast": 2882,
      "Ġago": 2883,
      "Ġqueen": 2884,
      "Ġfois": 2885,
      "Ġtalked": 2886,
      "Ġpaper": 2887,
      "Ġpray": 2888,
      "Ġdescri": 2889,
      "Ġabsol": 2890,
      "sc": 2891,
      "Ġlate": 2892,
      "acked": 2893,
      "ĠMathilde": 2894,
      "ĠBar": 2895,
      "ĠBingley": 2896,
      "rawn": 2897,
      "Ne": 2898,
      "Ġpuis": 2899,
      "Ġteeth": 2900,
      "Ġsteam": 2901,
      "pic": 2902,
      "Ġdont": 2903,
      "etr": 2904,
      "Ġvar": 2905,
      "Ġspent": 2906,
      "Ġimmense": 2907,
      "Chapter": 2908,
      "Ġ3": 2909,
      "Ġoffer": 2910,
      "Ġcommun": 2911,
      "Ġcounten": 2912,
      "Ġopening": 2913,
      "wise": 2914,
      "Ġbright": 2915,
      "Ġdressed": 2916,
      "Ġfart": 2917,
      "Ġgest": 2918,
      "amille": 2919,
      "ishment": 2920,
      "Ġknees": 2921,
      "Ġfrequ": 2922,
      "Ġentirely": 2923,
      "Ġoffered": 2924,
      "Ġsand": 2925,
      "Ġspeed": 2926,
      "Ġjeune": 2927,
      "Ġwalking": 2928,
      "known": 2929,
      "hood": 2930,
      "ases": 2931,
      "Ġbear": 2932,
      "Ġconcl": 2933,
      "Ġnoble": 2934,
      "ĠJim": 2935,
      "Ġwrong": 2936,
      "Ġadvantage": 2937,
      "Ġcell": 2938,
      "Ġdom": 2939,
      "llig": 2940,
      "Ġvast": 2941,
      "ĠMont": 2942,
      "oles": 2943,
      "Ġabbe": 2944,
      "Ġstranger": 2945,
      "Ġdonn": 2946,
      "Ġinfl": 2947,
      "Ġutter": 2948,
      "Ġnarrow": 2949,
      "ĠmÃªme": 2950,
      "Ġlatter": 2951,
      "aste": 2952,
      "Ġweather": 2953,
      "ili": 2954,
      "auv": 2955,
      "ĠGeorge": 2956,
      "Ġpeace": 2957,
      "Ġpleased": 2958,
      "ĠMarquis": 2959,
      "Ġfallen": 2960,
      "Ġthird": 2961,
      "Ġoppos": 2962,
      "Ġdiscovered": 2963,
      "mp": 2964,
      "Ġbound": 2965,
      "Ġpun": 2966,
      "ically": 2967,
      "Ġobst": 2968,
      "Ã©ral": 2969,
      "Ġhonour": 2970,
      "Ġpurp": 2971,
      "lin": 2972,
      "Ġbeat": 2973,
      "semb": 2974,
      "Ġblow": 2975,
      "Ġmed": 2976,
      "Ġden": 2977,
      "Ġfais": 2978,
      "Ġenorm": 2979,
      "itten": 2980,
      "Ġmarriage": 2981,
      "Ġguard": 2982,
      "Madame": 2983,
      "ives": 2984,
      "while": 2985,
      "Ġfashion": 2986,
      "Ġroof": 2987,
      "odo": 2988,
      "Ġchest": 2989,
      "sed": 2990,
      "Ġwit": 2991,
      "Ġble": 2992,
      "atre": 2993,
      "Ġoutside": 2994,
      "ĠAyrton": 2995,
      "happ": 2996,
      "Ġfield": 2997,
      "anqu": 2998,
      "Ġapart": 2999,
      "ĠTHE": 3000,
      "Ġtoute": 3001,
      "Ġcharming": 3002,
      "Ġstream": 3003,
      "Per": 3004,
      "Ġer": 3005,
      "Ġod": 3006,
      "ories": 3007,
      "iday": 3008,
      "avait": 3009,
      "Ġspect": 3010,
      "Ġwrite": 3011,
      "Ġdegrees": 3012,
      "itated": 3013,
      "Ġnom": 3014,
      "antic": 3015,
      "arer": 3016,
      "Ġmes": 3017,
      "ality": 3018,
      "Ġproc": 3019,
      "Ġshoulder": 3020,
      "theless": 3021,
      "Ġpieces": 3022,
      "tis": 3023,
      "Ġtreat": 3024,
      "Ġself": 3025,
      "Ġsuis": 3026,
      "Ġimpat": 3027,
      "Ġsettle": 3028,
      "Ġpetit": 3029,
      "Ġmovement": 3030,
      "Ġhall": 3031,
      "ĠPassepartout": 3032,
      "ĠParme": 3033,
      "Ġhonest": 3034,
      "Ġlearned": 3035,
      "cellent": 3036,
      "Ġcolonists": 3037,
      "Fabrice": 3038,
      "pse": 3039,
      "zen": 3040,
      "Ġign": 3041,
      "Ġsouth": 3042,
      "Ġfles": 3043,
      "Ġev": 3044,
      "Ġforced": 3045,
      "Ġstorm": 3046,
      "ouses": 3047,
      "Ġshook": 3048,
      "ĠHolmes": 3049,
      "Ġdouble": 3050,
      "Ġhorizon": 3051,
      "Some": 3052,
      "ez": 3053,
      "Ġtall": 3054,
      "Ġmadame": 3055,
      "atitude": 3056,
      "Ġears": 3057,
      "Ġclass": 3058,
      "Ġthrown": 3059,
      "Ġregret": 3060,
      "Ġdrink": 3061,
      "Ġfarther": 3062,
      "alous": 3063,
      "Ġvict": 3064,
      "Ġdeser": 3065,
      "Very": 3066,
      "fied": 3067,
      "gar": 3068,
      "Ġocean": 3069,
      "Ġstro": 3070,
      "ested": 3071,
      "ĠLy": 3072,
      "ĠRue": 3073,
      "Ġjustice": 3074,
      "Ġintellig": 3075,
      "Ġbreakfast": 3076,
      "under": 3077,
      "Ġlang": 3078,
      "Ġplate": 3079,
      "Ġalthough": 3080,
      "Ġbuild": 3081,
      "Ġtour": 3082,
      "Ġpist": 3083,
      "Ġstir": 3084,
      "acy": 3085,
      "ified": 3086,
      "osing": 3087,
      "Ġenem": 3088,
      "aked": 3089,
      "ĠaprÃ¨s": 3090,
      "Ġcrime": 3091,
      "Ġtemper": 3092,
      "Ġpocket": 3093,
      "Ġpath": 3094,
      "Ġpride": 3095,
      "Ġcoal": 3096,
      "Ġknowing": 3097,
      "Ġtender": 3098,
      "ĠGringoire": 3099,
      "Nothing": 3100,
      "Ġorders": 3101,
      "ising": 3102,
      "Ġner": 3103,
      "Ġcountenance": 3104,
      "cent": 3105,
      "Ġwide": 3106,
      "Ġloud": 3107,
      "Ġnine": 3108,
      "Ġdelic": 3109,
      "Ġagree": 3110,
      "heur": 3111,
      "ina": 3112,
      "Ġband": 3113,
      "onne": 3114,
      "Ġpity": 3115,
      "Ġrelie": 3116,
      "Ġaband": 3117,
      "Ġbecom": 3118,
      "Ġearly": 3119,
      "Ġcompanion": 3120,
      "Ġlisten": 3121,
      "ĠClÃ©lia": 3122,
      "Ġpurpose": 3123,
      "Ġenormous": 3124,
      "Ġcoun": 3125,
      "asim": 3126,
      "vere": 3127,
      "Ġminute": 3128,
      "000": 3129,
      "Ġsquare": 3130,
      "Ġspirit": 3131,
      "Ġempty": 3132,
      "ademoiselle": 3133,
      "come": 3134,
      "ĠdÃ©s": 3135,
      "idence": 3136,
      "Ġforty": 3137,
      "Ġcolle": 3138,
      "Ġentr": 3139,
      "Ġinstead": 3140,
      "ĠMaj": 3141,
      "Ġapproached": 3142,
      "Ġstarted": 3143,
      "Ġofficer": 3144,
      "Ġexistence": 3145,
      "ĠCanad": 3146,
      "En": 3147,
      "iety": 3148,
      "uous": 3149,
      "Ġmor": 3150,
      "Ġtrain": 3151,
      "ression": 3152,
      "Ġtoutes": 3153,
      "Ġpriv": 3154,
      "Ġgloom": 3155,
      "Ġforgotten": 3156,
      "Ġduty": 3157,
      "Ġamid": 3158,
      "Ġcler": 3159,
      "Ġimpr": 3160,
      "Ġavo": 3161,
      "bered": 3162,
      "ĠVer": 3163,
      "Ġhorri": 3164,
      "Ġopportun": 3165,
      "Ġsettled": 3166,
      "Ġsharp": 3167,
      "asimodo": 3168,
      "Ġdrawn": 3169,
      "oman": 3170,
      "Ġbeauty": 3171,
      "Ġcoup": 3172,
      "Ġconvict": 3173,
      "with": 3174,
      "Ġsor": 3175,
      "Ġsitting": 3176,
      "Ġdied": 3177,
      "Ġrushed": 3178,
      "Ġrepro": 3179,
      "Ġflesh": 3180,
      "ral": 3181,
      "Ġaussi": 3182,
      "Ġsong": 3183,
      "Ġlac": 3184,
      "ator": 3185,
      "ĠInd": 3186,
      "Ġthreat": 3187,
      "Ġsumm": 3188,
      "ĠCamille": 3189,
      "Ġsupport": 3190,
      "Ġwritten": 3191,
      "racted": 3192,
      "ĠProfessor": 3193,
      "iant": 3194,
      "Ġmut": 3195,
      "Ġdim": 3196,
      "Ġlegs": 3197,
      "ĠEmma": 3198,
      "Ġvoir": 3199,
      "mbre": 3200,
      "Ġdisting": 3201,
      "Ġpreser": 3202,
      "venture": 3203,
      "Ġsous": 3204,
      "oln": 3205,
      "Ġagre": 3206,
      "ption": 3207,
      "Ġourselves": 3208,
      "incoln": 3209,
      "Ġviolent": 3210,
      "fer": 3211,
      "Ġwine": 3212,
      "Ġbent": 3213,
      "Ġfaut": 3214,
      "Ġvague": 3215,
      "ooks": 3216,
      "Ġfever": 3217,
      "Ġliked": 3218,
      "Ġscene": 3219,
      "ĠgÃ©nÃ©ral": 3220,
      "Ce": 3221,
      "heure": 3222,
      "Ġbill": 3223,
      "Ġdry": 3224,
      "ork": 3225,
      "Ġnoticed": 3226,
      "Ġshot": 3227,
      "oses": 3228,
      "ĠCha": 3229,
      "Ġlose": 3230,
      "Ġflow": 3231,
      "incip": 3232,
      "hold": 3233,
      "Ġanxious": 3234,
      "ĠCanadian": 3235,
      "Ġaim": 3236,
      "Ġyield": 3237,
      "ences": 3238,
      "meric": 3239,
      "Ġmurmured": 3240,
      "itions": 3241,
      "Ġlying": 3242,
      "ushing": 3243,
      "Ġtranqu": 3244,
      "ĠAt": 3245,
      "Ġcoll": 3246,
      "Ġcontrary": 3247,
      "Mais": 3248,
      "Ġfaces": 3249,
      "Ã©d": 3250,
      "Ġunknown": 3251,
      "Ġplant": 3252,
      "ĠGideon": 3253,
      "Ġuttered": 3254,
      "igneur": 3255,
      "Are": 3256,
      "jo": 3257,
      "my": 3258,
      "uf": 3259,
      "Ġfly": 3260,
      "leep": 3261,
      "Ġmeas": 3262,
      "ĠLincoln": 3263,
      "Ġmoon": 3264,
      "Ġflat": 3265,
      "Ġideas": 3266,
      "Ġsimply": 3267,
      "Ġincreased": 3268,
      "Ġpaid": 3269,
      ".,": 3270,
      "AR": 3271,
      "ics": 3272,
      "idered": 3273,
      "Ġlod": 3274,
      "psy": 3275,
      "Ġfalling": 3276,
      "Ġmemory": 3277,
      "Perhaps": 3278,
      "'d": 3279,
      "Just": 3280,
      "Ġgy": 3281,
      "ĠAmeric": 3282,
      "ĠRa": 3283,
      "Ġparl": 3284,
      "Ġchanged": 3285,
      "Ġaffair": 3286,
      "kes": 3287,
      "iture": 3288,
      "ledge": 3289,
      "Ġsmo": 3290,
      "Ġfavour": 3291,
      "oor": 3292,
      "Ġsom": 3293,
      "Ġmill": 3294,
      "Ġfet": 3295,
      "Ġlamp": 3296,
      "Ġpill": 3297,
      "Ġtroub": 3298,
      "Ġgrow": 3299,
      "Ġcho": 3300,
      "Ġparty": 3301,
      "Ġgirls": 3302,
      "Ġescaped": 3303,
      "Ġsatisfied": 3304,
      "Ġspring": 3305,
      "Did": 3306,
      "field": 3307,
      "isc": 3308,
      "vey": 3309,
      "hern": 3310,
      "Ġexcellent": 3311,
      "Ġpract": 3312,
      "Ġende": 3313,
      "Ġpointed": 3314,
      "Ġaddress": 3315,
      "cious": 3316,
      "ians": 3317,
      "Ġgame": 3318,
      "Ġwhatever": 3319,
      "Ġfond": 3320,
      "Ġsurr": 3321,
      "ald": 3322,
      "vÃ©": 3323,
      "Ġwinter": 3324,
      "Ġcous": 3325,
      "illy": 3326,
      "ference": 3327,
      "Ġshouted": 3328,
      "Ġshadow": 3329,
      "Ġmagnific": 3330,
      "Ġopportunity": 3331,
      "Ġmont": 3332,
      "itable": 3333,
      "Ġban": 3334,
      "Ġcity": 3335,
      "Ġdare": 3336,
      "Ġinhabit": 3337,
      "vering": 3338,
      "Ġshock": 3339,
      "ĠSe": 3340,
      "itty": 3341,
      "ĠFelton": 3342,
      "Ġaffect": 3343,
      "Ġlock": 3344,
      "ĠRass": 3345,
      "Ġpleasant": 3346,
      "Ġdeterm": 3347,
      "Ġanimals": 3348,
      "Ġoccurred": 3349,
      "cul": 3350,
      "Ġmakes": 3351,
      "Ġlit": 3352,
      "Ġhuge": 3353,
      "Ġeager": 3354,
      "Ġnotice": 3355,
      "Ġvotre": 3356,
      "Ġsoir": 3357,
      "Ġchee": 3358,
      "Ġ18": 3359,
      "Ġextra": 3360,
      "Ġcompletely": 3361,
      "Ġfemme": 3362,
      "Ġyellow": 3363,
      "Have": 3364,
      "Me": 3365,
      "jours": 3366,
      "Ġleur": 3367,
      "agues": 3368,
      "unk": 3369,
      "ĠPl": 3370,
      "Ġmoor": 3371,
      "Ġbran": 3372,
      "Ġfeelings": 3373,
      "Ġprofound": 3374,
      "Ġlaughing": 3375,
      "Ġmotionless": 3376,
      "Ġdistingu": 3377,
      "Ġendeav": 3378,
      "Ġsin": 3379,
      "Ġcart": 3380,
      "live": 3381,
      "Ġknock": 3382,
      "Ġhost": 3383,
      "Ġuneas": 3384,
      "Ġpolice": 3385,
      "ovary": 3386,
      "ital": 3387,
      "Ġtra": 3388,
      "Ġprincip": 3389,
      "Ġjours": 3390,
      "Ġdiscuss": 3391,
      "Ġpromised": 3392,
      "ta": 3393,
      "Ġlif": 3394,
      "Ġpardon": 3395,
      "Ġrend": 3396,
      "Ġresult": 3397,
      "Ġavoir": 3398,
      "Ġcheval": 3399,
      "Ġrecall": 3400,
      "hileas": 3401,
      "Ġburning": 3402,
      "ĠWhat": 3403,
      "arm": 3404,
      "Ġpron": 3405,
      "Ġblind": 3406,
      "Ġsmiled": 3407,
      "Ãªte": 3408,
      "Ġpromise": 3409,
      "Ġtoujours": 3410,
      "Ġtrop": 3411,
      "ĠÃªtre": 3412,
      "Ġaud": 3413,
      "Ġenv": 3414,
      "lanchet": 3415,
      "Ġpolit": 3416,
      "Ġquelques": 3417,
      "Ġabsolute": 3418,
      "ech": 3419,
      "ivers": 3420,
      "Ġcord": 3421,
      "ashed": 3422,
      "Ġbeha": 3423,
      "Ġdoctor": 3424,
      "Ġprote": 3425,
      "deacon": 3426,
      "Ġtouched": 3427,
      "Ġexactly": 3428,
      "Ġopposite": 3429,
      "RE": 3430,
      "bor": 3431,
      "ids": 3432,
      "Ġhist": 3433,
      "Ġforth": 3434,
      "osp": 3435,
      "Ġproud": 3436,
      "Only": 3437,
      "Ġbeside": 3438,
      "Ġsucceeded": 3439,
      "IN": 3440,
      "Ġheat": 3441,
      "Ġbeau": 3442,
      "Ġasleep": 3443,
      "Ġsafe": 3444,
      "ĠDe": 3445,
      "ebus": 3446,
      "Ġcrossed": 3447,
      "Ġsuspic": 3448,
      "Ġoccupied": 3449,
      "Ġsituation": 3450,
      "During": 3451,
      "ghed": 3452,
      "Ġpounds": 3453,
      "Ġrelig": 3454,
      "amb": 3455,
      "roy": 3456,
      "Ġvoul": 3457,
      "Ġbreast": 3458,
      "nest": 3459,
      "Ġsen": 3460,
      "esse": 3461,
      "Ġmelan": 3462,
      "chief": 3463,
      "osity": 3464,
      "ĠBovary": 3465,
      "Ġgreatly": 3466,
      "Ġcourt": 3467,
      "Ġguess": 3468,
      "hoebus": 3469,
      "Ġfifteen": 3470,
      "Ġbitter": 3471,
      "Ġsettlers": 3472,
      "vait": 3473,
      "ĠÃ©c": 3474,
      "oted": 3475,
      "sez": 3476,
      "aming": 3477,
      "Ġsaved": 3478,
      "owned": 3479,
      "Ġladder": 3480,
      "Ġsociety": 3481,
      "Ġlangu": 3482,
      "zy": 3483,
      "Ġlors": 3484,
      "iments": 3485,
      "choly": 3486,
      "oland": 3487,
      "lop": 3488,
      "angers": 3489,
      "Ġadvanced": 3490,
      "Ġholding": 3491,
      "Ġquietly": 3492,
      "Ġextraord": 3493,
      "ding": 3494,
      "mble": 3495,
      "Ġwretched": 3496,
      "ision": 3497,
      "Ġdam": 3498,
      "Ġheures": 3499,
      "icated": 3500,
      "Ġanger": 3501,
      "Ġworse": 3502,
      "Ġgreater": 3503,
      "Ġcaused": 3504,
      "Ġprepared": 3505,
      "Ġignor": 3506,
      "ker": 3507,
      "Ġgate": 3508,
      "Ġstup": 3509,
      "Ġstretched": 3510,
      "terday": 3511,
      "nel": 3512,
      "aiss": 3513,
      "Ġpetite": 3514,
      "Ġdepths": 3515,
      "Ġmelancholy": 3516,
      "chan": 3517,
      "ĠThey": 3518,
      "iner": 3519,
      "athe": 3520,
      "Ġfeared": 3521,
      "ĠprÃ©s": 3522,
      "Ġdisait": 3523,
      "Ġchose": 3524,
      "Ġfirm": 3525,
      "Ġsupper": 3526,
      "Ġcurrent": 3527,
      "Ġinform": 3528,
      "Ġembr": 3529,
      "Go": 3530,
      "Ġwa": 3531,
      "Ġtow": 3532,
      "Ġhouses": 3533,
      "Their": 3534,
      "Ġquand": 3535,
      "Ġnobody": 3536,
      "Ġdoors": 3537,
      "Monsieur": 3538,
      "lished": 3539,
      "Ġtree": 3540,
      "Ġbrill": 3541,
      "Ġdir": 3542,
      "Ġpow": 3543,
      "Ġhig": 3544,
      "Ġrise": 3545,
      "Ġstar": 3546,
      "Ġlikely": 3547,
      "Ġprev": 3548,
      "Ġserved": 3549,
      "Ġbroad": 3550,
      "Ġsuffer": 3551,
      "Ġarchdeacon": 3552,
      "ĠHarris": 3553,
      "how": 3554,
      "house": 3555,
      "tres": 3556,
      "Ġtong": 3557,
      "Ġresp": 3558,
      "Ġpossib": 3559,
      "Ġtemps": 3560,
      "Gr": 3561,
      "go": 3562,
      "hip": 3563,
      "Ġwounded": 3564,
      "Ġmiss": 3565,
      "Ġfun": 3566,
      "icient": 3567,
      "Ġstones": 3568,
      "Ġliber": 3569,
      "Ġmonde": 3570,
      "Ġquestions": 3571,
      "Ġgrande": 3572,
      "Ġfatig": 3573,
      "Ġfingers": 3574,
      "Ar": 3575,
      "Was": 3576,
      "bing": 3577,
      "vation": 3578,
      "esp": 3579,
      "ache": 3580,
      "ams": 3581,
      "ament": 3582,
      "Ġva": 3583,
      "Ġleagues": 3584,
      "Ġperi": 3585,
      "Ġregular": 3586,
      "Ġfinding": 3587,
      "Ġautre": 3588,
      "Ġworthy": 3589,
      "Ġastonished": 3590,
      "Of": 3591,
      "Two": 3592,
      "Ġsides": 3593,
      "Ġlines": 3594,
      "Ġdeb": 3595,
      "Ġweight": 3596,
      "Ġattend": 3597,
      "iles": 3598,
      "Ġseas": 3599,
      "ests": 3600,
      "Ġunhapp": 3601,
      "chen": 3602,
      "pected": 3603,
      "Ġdonner": 3604,
      "Ġattack": 3605,
      "Ġassist": 3606,
      "Ġphil": 3607,
      "Ġstrike": 3608,
      "Ġcorral": 3609,
      "Sir": 3610,
      "Ġsought": 3611,
      "Ġwis": 3612,
      "rodu": 3613,
      "Ġwrote": 3614,
      "Ġmeters": 3615,
      "Ġtouch": 3616,
      "Ġagreed": 3617,
      "Que": 3618,
      "cing": 3619,
      "ism": 3620,
      "urope": 3621,
      "Ġsuiv": 3622,
      "Ġcomb": 3623,
      "Ġnose": 3624,
      "Ġtrying": 3625,
      "ancing": 3626,
      "Ġplaces": 3627,
      "ĠNew": 3628,
      "Ġgypsy": 3629,
      "over": 3630,
      "Ġvers": 3631,
      "Ġwand": 3632,
      "Ġporte": 3633,
      "Ġthro": 3634,
      "uses": 3635,
      "ols": 3636,
      "Ġended": 3637,
      "Ġattent": 3638,
      "ĠFriday": 3639,
      "Ġhoped": 3640,
      "now": 3641,
      "rade": 3642,
      "Ġgrief": 3643,
      "quise": 3644,
      "Ġstation": 3645,
      "Ġunfortun": 3646,
      "ishop": 3647,
      "While": 3648,
      "ĠfaÃ§": 3649,
      "Ġvirt": 3650,
      "Ġpros": 3651,
      "Ġmod": 3652,
      "Ġmistaken": 3653,
      "Ġelect": 3654,
      "Ġinterrupted": 3655,
      "Our": 3656,
      "Ġbal": 3657,
      "ises": 3658,
      "Ġpressed": 3659,
      "icks": 3660,
      "quin": 3661,
      "Ġstair": 3662,
      "Ġseat": 3663,
      "Ġexha": 3664,
      "Ġtwice": 3665,
      "Ġchief": 3666,
      "Ġgreatest": 3667,
      "Ġtransport": 3668,
      "Ġpulled": 3669,
      "she": 3670,
      "Ġcit": 3671,
      "Ġcamp": 3672,
      "uted": 3673,
      "ĠMademoiselle": 3674,
      "ĠLouis": 3675,
      "ĠFer": 3676,
      "Ġputting": 3677,
      "Ġfault": 3678,
      "Ġgallery": 3679,
      "Ġdiam": 3680,
      "board": 3681,
      "ĠrÃ©pond": 3682,
      "ĠLyd": 3683,
      "Ġaction": 3684,
      "Ġfac": 3685,
      "atic": 3686,
      "leur": 3687,
      "Ġgle": 3688,
      "Ġur": 3689,
      "quet": 3690,
      "Ġkit": 3691,
      "Ġunable": 3692,
      "Ġplat": 3693,
      "Ġcoach": 3694,
      "Ġmoving": 3695,
      "Ġgrass": 3696,
      "Ġbrid": 3697,
      "Ġsilver": 3698,
      "Ġhorror": 3699,
      "Ġacquaint": 3700,
      "Ġangry": 3701,
      "Ġimportant": 3702,
      "Ġhorrible": 3703,
      "isters": 3704,
      "Ġda": 3705,
      "Ġgar": 3706,
      "Ġmyst": 3707,
      "Ġconn": 3708,
      "Ġdesign": 3709,
      "Ġsingular": 3710,
      "Ġgazed": 3711,
      "Ġsacri": 3712,
      "ĠMusketeers": 3713,
      "Ġciv": 3714,
      "Ġinj": 3715,
      "Ġsuf": 3716,
      "ĠAn": 3717,
      "Ġarg": 3718,
      "Ġthank": 3719,
      "Ġils": 3720,
      "Ġspeech": 3721,
      "Ġsmoke": 3722,
      "Ġhonor": 3723,
      "Ġexplain": 3724,
      "Ã®tre": 3725,
      "Ġaccompan": 3726,
      "Ġinflu": 3727,
      "aff": 3728,
      "vi": 3729,
      "Ġtired": 3730,
      "vet": 3731,
      "stairs": 3732,
      "osop": 3733,
      "ĠBr": 3734,
      "Ġintrodu": 3735,
      "ĠÃ©taient": 3736,
      "Ġfortun": 3737,
      "Ġcuri": 3738,
      "ĠMarch": 3739,
      "Ġdining": 3740,
      "Ġevidently": 3741,
      "Ġkitchen": 3742,
      "De": 3743,
      "Ġdying": 3744,
      "Ġrough": 3745,
      "Ġjus": 3746,
      "Ġedge": 3747,
      "Ġmountain": 3748,
      "Ġtrembling": 3749,
      "Ġsorry": 3750,
      "Ġmagnificent": 3751,
      "Ġhide": 3752,
      "Ġshud": 3753,
      "ĠHis": 3754,
      "Ġremark": 3755,
      "rieres": 3756,
      "ickham": 3757,
      "Ġarrival": 3758,
      "Ġskin": 3759,
      "Ġuseless": 3760,
      "Ġembarr": 3761,
      "Ġyesterday": 3762,
      "Ġextremely": 3763,
      "Ġsearch": 3764,
      "Elizabeth": 3765,
      "Ġmir": 3766,
      "Ġdared": 3767,
      "orous": 3768,
      "Ġrien": 3769,
      "Ġbless": 3770,
      "Ġchambre": 3771,
      "Ġaccording": 3772,
      "Ġconduct": 3773,
      "Ġwid": 3774,
      "Ġeld": 3775,
      "Ġreceive": 3776,
      "Ġsemb": 3777,
      "tering": 3778,
      "Ġgrowing": 3779,
      "uded": 3780,
      "ĠEurope": 3781,
      "Ġharm": 3782,
      "cient": 3783,
      "Ġsupposed": 3784,
      "Ġstreets": 3785,
      "ucking": 3786,
      "Ġreading": 3787,
      "Ġsatisfaction": 3788,
      "Ġbattle": 3789,
      "Ġavoid": 3790,
      "Ġdetermined": 3791,
      "ON": 3792,
      "aur": 3793,
      "do": 3794,
      "Ġalive": 3795,
      "Ġpied": 3796,
      "Ġnouve": 3797,
      "atures": 3798,
      "Ġleaves": 3799,
      "Ġconne": 3800,
      "uments": 3801,
      "onel": 3802,
      "Ġimm": 3803,
      "Ġavant": 3804,
      "Ġconsidered": 3805,
      "Ġsentence": 3806,
      "Ġlaughed": 3807,
      "Ġservants": 3808,
      "Ġphilosop": 3809,
      "iÃ©": 3810,
      "loo": 3811,
      "wed": 3812,
      "insi": 3813,
      "Ġrejo": 3814,
      "Ġdef": 3815,
      "using": 3816,
      "Ġplun": 3817,
      "Ġlover": 3818,
      "Ġjealous": 3819,
      "Ġreturning": 3820,
      "Ġdepuis": 3821,
      "Ġpresented": 3822,
      "Ġpropos": 3823,
      "ĠVerrieres": 3824,
      "Ġperiod": 3825,
      "fish": 3826,
      "wh": 3827,
      "Ġtaste": 3828,
      "Ġmess": 3829,
      "Ġeut": 3830,
      "ĠeÃ»t": 3831,
      "Ġasce": 3832,
      "Ġnotre": 3833,
      "Ġant": 3834,
      "Ġami": 3835,
      "Ġbrave": 3836,
      "Ġpersu": 3837,
      "Ġimagine": 3838,
      "Ġspoken": 3839,
      "Cyrus": 3840,
      "Will": 3841,
      "inces": 3842,
      "Ġfill": 3843,
      "Ġpier": 3844,
      "llins": 3845,
      "Ġhy": 3846,
      "Ġvig": 3847,
      "ĠSc": 3848,
      "Ġremembered": 3849,
      "Ġpowerful": 3850,
      "Ġfrightful": 3851,
      "Ġanxiety": 3852,
      "Ġproduced": 3853,
      "Ġpenetr": 3854,
      "Ġcela": 3855,
      "Ġcustom": 3856,
      "Ġyouth": 3857,
      "quer": 3858,
      "rier": 3859,
      "Ġresist": 3860,
      "Ġrefused": 3861,
      "Ġtriump": 3862,
      "Ġdegree": 3863,
      "Ġrapidly": 3864,
      "ĠCollins": 3865,
      "Ġdeparture": 3866,
      "Ġsuffered": 3867,
      "case": 3868,
      "Ġtide": 3869,
      "inet": 3870,
      "Ġpure": 3871,
      "Ġpushed": 3872,
      "Ġgro": 3873,
      "acc": 3874,
      "ĠMer": 3875,
      "ĠCom": 3876,
      "Ġintim": 3877,
      "Ġdistant": 3878,
      "Ġclean": 3879,
      "Ġirrit": 3880,
      "Ġcalcul": 3881,
      "Ġbonheur": 3882,
      "Ġastonishment": 3883,
      "Ġfancy": 3884,
      "ĠMajesty": 3885,
      "Don": 3886,
      "ES": 3887,
      "aille": 3888,
      "ma": 3889,
      "Ġbrig": 3890,
      "Ġchat": 3891,
      "Ġsugg": 3892,
      "Ġjump": 3893,
      "Ġprot": 3894,
      "Ġpeas": 3895,
      "Ġcarefully": 3896,
      "Ġconceal": 3897,
      "Ġconcealed": 3898,
      "Ġparticularly": 3899,
      "Pencroft": 3900,
      "ium": 3901,
      "Ġsont": 3902,
      "Ġfier": 3903,
      "asp": 3904,
      "ĠMaster": 3905,
      "Ġneg": 3906,
      "ĠFix": 3907,
      "Ġmoins": 3908,
      "Ġbrow": 3909,
      "Ġadvice": 3910,
      "Yet": 3911,
      "water": 3912,
      "Ġaunt": 3913,
      "inced": 3914,
      "Ġsang": 3915,
      "Ġtomb": 3916,
      "Ġcouldn": 3917,
      "Ġgrace": 3918,
      "Ġabsence": 3919,
      "ĠHenry": 3920,
      "ustomed": 3921,
      "Ġsembl": 3922,
      "Captain": 3923,
      "Ġ~": 3924,
      "Ġwha": 3925,
      "Ġwound": 3926,
      "ouver": 3927,
      "Ġtort": 3928,
      "Ġhearing": 3929,
      "Ġroute": 3930,
      "Ġasking": 3931,
      "Ġremo": 3932,
      "Ġthrust": 3933,
      "Ġscr": 3934,
      "Ġglim": 3935,
      "ĠWickham": 3936,
      "Ġinstr": 3937,
      "Ġmiserable": 3938,
      "Ġrequired": 3939,
      "Ġbirds": 3940,
      "Ġdreadful": 3941,
      "Ġunhappy": 3942,
      "AN": 3943,
      "ners": 3944,
      "Ġrub": 3945,
      "Ġmyster": 3946,
      "neys": 3947,
      "ĠChe": 3948,
      "Ġparts": 3949,
      "Ġpresently": 3950,
      "prit": 3951,
      "Ġsufficient": 3952,
      "Ġrecognized": 3953,
      "Ġgesture": 3954,
      "Ġelectric": 3955,
      "ring": 3956,
      "zz": 3957,
      "Ġwore": 3958,
      "Ġcin": 3959,
      "Ġdefe": 3960,
      "Ġra": 3961,
      "Ġshel": 3962,
      "Ġener": 3963,
      "ĠprÃ©": 3964,
      "Ġrob": 3965,
      "Ġchem": 3966,
      "Ġtemp": 3967,
      "Ġlistening": 3968,
      "Ġdriven": 3969,
      "Ġsnow": 3970,
      "Ġvolcan": 3971,
      "Ġrevol": 3972,
      "Ġcruel": 3973,
      "Ġembarrass": 3974,
      "**": 3975,
      "Ġwest": 3976,
      "iche": 3977,
      "ainted": 3978,
      "Ġleg": 3979,
      "uls": 3980,
      "ĠComp": 3981,
      "aude": 3982,
      "Ġthanks": 3983,
      "Ġfold": 3984,
      "Ġaftern": 3985,
      "Ġoper": 3986,
      "Ġarranged": 3987,
      "Ġextraordinary": 3988,
      "ĠWe": 3989,
      "held": 3990,
      "Ġheure": 3991,
      "att": 3992,
      "Ġease": 3993,
      "aches": 3994,
      "Ġliv": 3995,
      "Ġtrust": 3996,
      "Ġetc": 3997,
      "Ġduke": 3998,
      "Ġfrightened": 3999,
      "Ġweeks": 4000,
      "Ġjudge": 4001,
      "Ġprobably": 4002,
      "Ġcandle": 4003,
      "Ġbecoming": 4004,
      "Ġhistory": 4005,
      "uckingham": 4006,
      "Se": 4007,
      "Ġsick": 4008,
      "Ġbord": 4009,
      "Ġbooks": 4010,
      "ĠdÃ©c": 4011,
      "adually": 4012,
      "Ġproved": 4013,
      "Ġchim": 4014,
      "Ġbetray": 4015,
      "Ġappre": 4016,
      "ĠWinter": 4017,
      "Ġemotion": 4018,
      "Ġrecolle": 4019,
      "ndeed": 4020,
      "Åĵur": 4021,
      "Ġcousin": 4022,
      "Ġbow": 4023,
      "Ġpan": 4024,
      "Ġge": 4025,
      "set": 4026,
      "Ġones": 4027,
      "ourse": 4028,
      "Ġcoat": 4029,
      "Ġdesired": 4030,
      "udent": 4031,
      "ival": 4032,
      "Ġlighted": 4033,
      "Ġminist": 4034,
      "Ġcurious": 4035,
      "Ġauthor": 4036,
      "ĠQuasimodo": 4037,
      "Elle": 4038,
      "Ġice": 4039,
      "omais": 4040,
      "Ġsake": 4041,
      "Ġshell": 4042,
      "agement": 4043,
      "cture": 4044,
      "Ġordered": 4045,
      "Ġbrown": 4046,
      "Ġthrow": 4047,
      "Ġearnest": 4048,
      "Ġestab": 4049,
      "ĠRaquin": 4050,
      "Ġinfluence": 4051,
      "Ma": 4052,
      "pir": 4053,
      "erc": 4054,
      "Ġcow": 4055,
      "stand": 4056,
      "pered": 4057,
      "Ġgover": 4058,
      "Ġreport": 4059,
      "Ġshare": 4060,
      "Ã¨rent": 4061,
      "Ġretreat": 4062,
      "Ġconfidence": 4063,
      "Ġcurtain": 4064,
      "ĠKitty": 4065,
      "Ġdispos": 4066,
      "Ġconsiderable": 4067,
      "Ġevents": 4068,
      "Ġplatform": 4069,
      "Had": 4070,
      "aly": 4071,
      "mn": 4072,
      "ener": 4073,
      "anwhile": 4074,
      "Ġhealth": 4075,
      "acha": 4076,
      "Ġjet": 4077,
      "Ġfeatures": 4078,
      "Ġyours": 4079,
      "Ġlooks": 4080,
      "Thus": 4081,
      "Ġreser": 4082,
      "Ġcarp": 4083,
      "ceiving": 4084,
      "IS": 4085,
      "ias": 4086,
      "iny": 4087,
      "Ġsout": 4088,
      "Ġwret": 4089,
      "erville": 4090,
      "isions": 4091,
      "Ġstore": 4092,
      "Ġupper": 4093,
      "iece": 4094,
      "ĠPlanchet": 4095,
      "ĠPhoebus": 4096,
      "Ġamaz": 4097,
      "Ġafternoon": 4098,
      "Ãītienne": 4099,
      "Ġ4": 4100,
      "Ġfood": 4101,
      "Ġreven": 4102,
      "Ġnote": 4103,
      "this": 4104,
      "Ġlives": 4105,
      "Ġgoes": 4106,
      "Ġsomewhat": 4107,
      "ĠNap": 4108,
      "Ġbold": 4109,
      "Ġdistress": 4110,
      "Ġinstinct": 4111,
      "Ġcharge": 4112,
      "Ġslept": 4113,
      "Ġstock": 4114,
      "Ġobserve": 4115,
      "Ġgrey": 4116,
      "Ġhurried": 4117,
      "ĠChrist": 4118,
      "Ġpalais": 4119,
      "Ġdirectly": 4120,
      "five": 4121,
      "long": 4122,
      "Ġaur": 4123,
      "Ġmag": 4124,
      "Ġlun": 4125,
      "Ġpauv": 4126,
      "Ġrage": 4127,
      "rose": 4128,
      "never": 4129,
      "ongo": 4130,
      "Ġenfin": 4131,
      "Ġseek": 4132,
      "ĠTop": 4133,
      "igned": 4134,
      "Ġaccustomed": 4135,
      "Ġhollow": 4136,
      "Ġinside": 4137,
      "Ġindif": 4138,
      "Ġdiscover": 4139,
      "Ġartic": 4140,
      "Ġlanguage": 4141,
      "Somet": 4142,
      "Ġcas": 4143,
      "Ġcool": 4144,
      "atur": 4145,
      "Ġrare": 4146,
      "Ġviv": 4147,
      "ĠLady": 4148,
      "ĠNor": 4149,
      "Ġundert": 4150,
      "Ġentend": 4151,
      "Ġtelling": 4152,
      "Ġassured": 4153,
      "Ġswear": 4154,
      "Ġsummer": 4155,
      "Ġapartment": 4156,
      "Meanwhile": 4157,
      "Bec": 4158,
      "Indeed": 4159,
      "sou": 4160,
      "ĠQue": 4161,
      "Ġbag": 4162,
      "urst": 4163,
      "Ġrate": 4164,
      "Ġrepres": 4165,
      "Ġpop": 4166,
      "Ġmarquis": 4167,
      "aily": 4168,
      "Ġcloak": 4169,
      "Ġexplained": 4170,
      "Ġcatch": 4171,
      "exp": 4172,
      "more": 4173,
      "Ġcrew": 4174,
      "ĠcÃ´t": 4175,
      "enth": 4176,
      "Ġreck": 4177,
      "umn": 4178,
      "Ġdism": 4179,
      "ĠRod": 4180,
      "Ġanyone": 4181,
      "Ġmarked": 4182,
      "Ġmarquise": 4183,
      "cial": 4184,
      "Ġassure": 4185,
      "Ġsuffering": 4186,
      "Ġmeeting": 4187,
      "Ġdelay": 4188,
      "Ġdisturbed": 4189,
      "Ġintelligence": 4190,
      "kerchief": 4191,
      "fl": 4192,
      "Ġlevel": 4193,
      "Ġunless": 4194,
      "reek": 4195,
      "Ġcontent": 4196,
      "Ġchez": 4197,
      "Ġimagination": 4198,
      "Ġconvinced": 4199,
      "Ġstupid": 4200,
      "Ġtongue": 4201,
      "OR": 4202,
      "dom": 4203,
      "rÃ©": 4204,
      "Ġsigh": 4205,
      "Ġming": 4206,
      "Ġcries": 4207,
      "Ġdust": 4208,
      "Ġfail": 4209,
      "anÃ§": 4210,
      "Ġresemb": 4211,
      "ghter": 4212,
      "Ġexplan": 4213,
      "Ġsmiling": 4214,
      "Ġengaged": 4215,
      "Ġlaughter": 4216,
      "Ġdispl": 4217,
      "Ġequal": 4218,
      "Ġmerely": 4219,
      "Up": 4220,
      "gent": 4221,
      "ĠZ": 4222,
      "Ġton": 4223,
      "Ġmour": 4224,
      "Ġmile": 4225,
      "Ġmud": 4226,
      "itary": 4227,
      "Ġgens": 4228,
      "Ġwithd": 4229,
      "Ġassez": 4230,
      "Ġwear": 4231,
      "Ã©rie": 4232,
      "aine": 4233,
      "ĠMay": 4234,
      "ĠMart": 4235,
      "Ġsoil": 4236,
      "ulous": 4237,
      "ĠPierre": 4238,
      "acks": 4239,
      "aise": 4240,
      "Ġdisapp": 4241,
      "Ġshame": 4242,
      "beau": 4243,
      "Ġfinally": 4244,
      "Ġeleven": 4245,
      "Ġrisk": 4246,
      "Ġdestroy": 4247,
      "Ġfinger": 4248,
      "Ġleaning": 4249,
      "Ġjusqu": 4250,
      "bl": 4251,
      "eau": 4252,
      "io": 4253,
      "ann": 4254,
      "Ġancient": 4255,
      "Ġaccident": 4256,
      "Ġceased": 4257,
      "Ġcharm": 4258,
      "Ġcreatures": 4259,
      "Ġviolence": 4260,
      "Ġexamined": 4261,
      "Ġstayed": 4262,
      "Ġridic": 4263,
      "Ġpouvait": 4264,
      "Ġliberty": 4265,
      "ĠCompany": 4266,
      "Because": 4267,
      "gin": 4268,
      "Ġz": 4269,
      "Ġsisters": 4270,
      "Ġwond": 4271,
      "rem": 4272,
      "Ġbree": 4273,
      "Ġcred": 4274,
      "Ġwhist": 4275,
      "Ġlake": 4276,
      "Ġcompre": 4277,
      "ĠVal": 4278,
      "ruction": 4279,
      "Ġguide": 4280,
      "ĠOF": 4281,
      "Ġkeeping": 4282,
      "Ġmisery": 4283,
      "ĠSpan": 4284,
      "Ġhurry": 4285,
      "Ġcarrying": 4286,
      "ĠMontsou": 4287,
      "Ġentrance": 4288,
      "Am": 4289,
      "gund": 4290,
      "ĠdÃ©p": 4291,
      "Ġfal": 4292,
      "Ġluck": 4293,
      "rai": 4294,
      "Ġsupply": 4295,
      "formed": 4296,
      "Ġburied": 4297,
      "Ġsoldiers": 4298,
      "Ġdangerous": 4299,
      "Ġspecies": 4300,
      "Ġcommunic": 4301,
      "Ġunfortunate": 4302,
      "Look": 4303,
      "gl": 4304,
      "gment": 4305,
      "ĠThen": 4306,
      "Ġdwell": 4307,
      "Ġreve": 4308,
      "Ġmois": 4309,
      "Ġcalling": 4310,
      "Ġsubm": 4311,
      "Ġinquir": 4312,
      "Ġremarked": 4313,
      "Ġexperien": 4314,
      "ĠMaheu": 4315,
      "Ġexecution": 4316,
      "Ġacquaintance": 4317,
      "Ġcuriosity": 4318,
      "ris": 4319,
      "Ġtant": 4320,
      "Ġbou": 4321,
      "Ġcav": 4322,
      "arse": 4323,
      "Ġeast": 4324,
      "lend": 4325,
      "Ġbeheld": 4326,
      "ĠrÃ©s": 4327,
      "agger": 4328,
      "Ġaloud": 4329,
      "Ġarrest": 4330,
      "Ġproject": 4331,
      "ĠGer": 4332,
      "Ġgranite": 4333,
      "Ġpend": 4334,
      "Ġdonc": 4335,
      "Ġfurious": 4336,
      "Ġphr": 4337,
      "Ġbelonged": 4338,
      "Ġstruggle": 4339,
      "Ġaccompanied": 4340,
      "will": 4341,
      "Ġdue": 4342,
      "Ġlin": 4343,
      "Ġpot": 4344,
      "Ġpair": 4345,
      "Ġhom": 4346,
      "Ġdeaf": 4347,
      "acher": 4348,
      "Ġhandkerchief": 4349,
      "Ġserait": 4350,
      "Ġconsent": 4351,
      "Ġappar": 4352,
      "ency": 4353,
      "Ġsooner": 4354,
      "ĠÂ«": 4355,
      "Ġpays": 4356,
      "Ġventured": 4357,
      "Ġevil": 4358,
      "Ġtravers": 4359,
      "Milady": 4360,
      "ĠUn": 4361,
      "Ġhed": 4362,
      "ĠCar": 4363,
      "ĠBuckingham": 4364,
      "Ġproceed": 4365,
      "eping": 4366,
      "Ġprefer": 4367,
      "Ġvoices": 4368,
      "Ġimpression": 4369,
      "Ġwatching": 4370,
      "Ġterms": 4371,
      "Ġrooms": 4372,
      "Ġswift": 4373,
      "Ġinterv": 4374,
      "Ġmaj": 4375,
      "Ġphys": 4376,
      "minence": 4377,
      "Ġfrequently": 4378,
      "Ġstaircase": 4379,
      "com": 4380,
      "Ġblock": 4381,
      "lles": 4382,
      "Ġsevere": 4383,
      "Ġvit": 4384,
      "key": 4385,
      "Ġshoes": 4386,
      "Ġlabour": 4387,
      "Ġamb": 4388,
      "Ġknowledge": 4389,
      "Ġobey": 4390,
      "Ġkey": 4391,
      "Ġbottle": 4392,
      "Ġwriting": 4393,
      "Ġbreaking": 4394,
      "Ġinfin": 4395,
      "Ġcentre": 4396,
      "Ġdropped": 4397,
      "Ġhopes": 4398,
      "Ġhanging": 4399,
      "Ġseparated": 4400,
      "la": 4401,
      "uly": 4402,
      "reck": 4403,
      "Ġbore": 4404,
      "Ġborn": 4405,
      "Ġfille": 4406,
      "Ġbeach": 4407,
      "ĠMy": 4408,
      "essie": 4409,
      "lies": 4410,
      "ĠHow": 4411,
      "Ġspace": 4412,
      "Ġsplend": 4413,
      "Ġfury": 4414,
      "Ġplaying": 4415,
      "Ġfavor": 4416,
      "Ġgoverness": 4417,
      "Ex": 4418,
      "bar": 4419,
      "hand": 4420,
      "Ġdamp": 4421,
      "Ġfu": 4422,
      "atin": 4423,
      "ims": 4424,
      "alais": 4425,
      "Ġsau": 4426,
      "lier": 4427,
      "Ġcontain": 4428,
      "pper": 4429,
      "arted": 4430,
      "Ġworked": 4431,
      "Ġgoat": 4432,
      "Ġblows": 4433,
      "ĠEminence": 4434,
      "Ġoffice": 4435,
      "Ġparler": 4436,
      "Ġenth": 4437,
      "Ġscre": 4438,
      "Ġdistinct": 4439,
      "Ġcontinu": 4440,
      "Ġconfused": 4441,
      "Ġsignal": 4442,
      "Ġinnoc": 4443,
      "Nevertheless": 4444,
      "Ġclouds": 4445,
      "Ġfaisait": 4446,
      "Ġagreeable": 4447,
      "Would": 4448,
      "ffe": 4449,
      "oot": 4450,
      "Ġtur": 4451,
      "rect": 4452,
      "Ġorig": 4453,
      "Ġcra": 4454,
      "arily": 4455,
      "Ġintended": 4456,
      "Ġgently": 4457,
      "ĠMary": 4458,
      "Ġabrupt": 4459,
      "geon": 4460,
      "ĠFair": 4461,
      "Ġcondem": 4462,
      "Ġmaid": 4463,
      "Ġtrouver": 4464,
      "Ġhunger": 4465,
      "Ġcouple": 4466,
      "Ġconstantly": 4467,
      "Ġdrive": 4468,
      "Ġsprang": 4469,
      "Ġimportance": 4470,
      "Ġpossessed": 4471,
      "Ã©cria": 4472,
      "Ġpicture": 4473,
      "Ġsurrounded": 4474,
      "Ġabsolutely": 4475,
      "Athos": 4476,
      "een": 4477,
      "nce": 4478,
      "whe": 4479,
      "Ġaj": 4480,
      "inking": 4481,
      "Ġple": 4482,
      "Ġpave": 4483,
      "llen": 4484,
      "Ġnames": 4485,
      "Ġham": 4486,
      "Ġisn": 4487,
      "Ġlend": 4488,
      "Ġsubst": 4489,
      "Ġinterior": 4490,
      "Ġencour": 4491,
      "chair": 4492,
      "Mrs": 4493,
      "Ġsuperior": 4494,
      "Char": 4495,
      "Ġainsi": 4496,
      "Ġemer": 4497,
      "acious": 4498,
      "Ġquatre": 4499,
      "Ġlaiss": 4500,
      "ĠPac": 4501,
      "Ġarmed": 4502,
      "Ġwilling": 4503,
      "Ġproceeded": 4504,
      "Ġhole": 4505,
      "Ã¢te": 4506,
      "Ġdeeply": 4507,
      "Ġsolid": 4508,
      "Ġfastened": 4509,
      "Ġspirits": 4510,
      "phew": 4511,
      "Ġenemy": 4512,
      "Ġmysterious": 4513,
      "OU": 4514,
      "nal": 4515,
      "Ġcoo": 4516,
      "ading": 4517,
      "ĠPhileas": 4518,
      "Ġmatters": 4519,
      "Ġexchan": 4520,
      "Ġjoined": 4521,
      "Ġgenerally": 4522,
      "iliar": 4523,
      "Ġfields": 4524,
      "con": 4525,
      "omb": 4526,
      "irst": 4527,
      "Ġaside": 4528,
      "Ġving": 4529,
      "Ġnearer": 4530,
      "Ġnephew": 4531,
      "Ġcontem": 4532,
      "astic": 4533,
      "Ġencl": 4534,
      "cknow": 4535,
      "Ġgradually": 4536,
      "Ġadventure": 4537,
      "Ġaddressed": 4538,
      "Ġabsor": 4539,
      "Ġaware": 4540,
      "Ġplayed": 4541,
      "Ġimagined": 4542,
      "ĠClaude": 4543,
      "Ġdelighted": 4544,
      "ĠDuke": 4545,
      "Ġwaist": 4546,
      "Ġpowder": 4547,
      "Ġdiamond": 4548,
      "ĠLydia": 4549,
      "AT": 4550,
      "Ġacknow": 4551,
      "Ġsank": 4552,
      "ites": 4553,
      "Ġeu": 4554,
      "ott": 4555,
      "Ġdeck": 4556,
      "Ġrang": 4557,
      "Ġstern": 4558,
      "Ġimpro": 4559,
      "Ġseriously": 4560,
      "Ġways": 4561,
      "fortune": 4562,
      "Ġordinary": 4563,
      "ship": 4564,
      "Ġsavage": 4565,
      "Ġevident": 4566,
      "Ġprobable": 4567,
      "Ġdeclared": 4568,
      "Ġmentioned": 4569,
      "Ġsettlement": 4570,
      "Ġflowers": 4571,
      "ĠPlace": 4572,
      "athered": 4573,
      "Since": 4574,
      "ca": 4575,
      "itive": 4576,
      "Ġclock": 4577,
      "ĠcÅĵur": 4578,
      "Ġfailed": 4579,
      "Ġthunder": 4580,
      "quette": 4581,
      "Ġstick": 4582,
      "Ġseule": 4583,
      "ulated": 4584,
      "Ġlog": 4585,
      "ĠNo": 4586,
      "Ġpec": 4587,
      "izing": 4588,
      "ĠWest": 4589,
      "Ġfortnight": 4590,
      "Ġreader": 4591,
      "Ġinstantly": 4592,
      "Ġcentury": 4593,
      "Ġbringing": 4594,
      "Ġhaste": 4595,
      "Ġgaze": 4596,
      "Ġpressure": 4597,
      "Ab": 4598,
      "ashing": 4599,
      "ĠIce": 4600,
      "Ġstairs": 4601,
      "ria": 4602,
      "road": 4603,
      "Ġshru": 4604,
      "ĠCol": 4605,
      "aper": 4606,
      "Ġworking": 4607,
      "ĠHomais": 4608,
      "Ġmoder": 4609,
      "Ġgrown": 4610,
      "Ġdull": 4611,
      "Ġcontre": 4612,
      "Ġentertain": 4613,
      "iens": 4614,
      "Ġawait": 4615,
      "Ġapproaching": 4616,
      "Ġdrove": 4617,
      "tesse": 4618,
      "ugust": 4619,
      "ĠHenne": 4620,
      "Ġpremier": 4621,
      "Ġfatigue": 4622,
      "Passepartout": 4623,
      "ius": 4624,
      "Ġcure": 4625,
      "orse": 4626,
      "Ġrays": 4627,
      "Ġseason": 4628,
      "Ġconven": 4629,
      "ĠFor": 4630,
      "Ġrolled": 4631,
      "Ġpoet": 4632,
      "ĠNotre": 4633,
      "Ġperform": 4634,
      "Ġappears": 4635,
      "Ġhappen": 4636,
      "iana": 4637,
      "Ġswall": 4638,
      "Ġfamiliar": 4639,
      "Ġeleg": 4640,
      "Ġbuilt": 4641,
      "place": 4642,
      "Ġpossession": 4643,
      "Ġguns": 4644,
      "ĠMercy": 4645,
      "bly": 4646,
      "Ġbour": 4647,
      "ormed": 4648,
      "Ġstat": 4649,
      "Ġatm": 4650,
      "nem": 4651,
      "Ġliqu": 4652,
      "ĠAlt": 4653,
      "Ġpoison": 4654,
      "ĠEt": 4655,
      "Ġcrown": 4656,
      "Ġcontri": 4657,
      "Ġkeen": 4658,
      "Ġcheer": 4659,
      "Ġdevant": 4660,
      "Ġdrowned": 4661,
      "Ġdoubtless": 4662,
      "Ġmisfortune": 4663,
      "Ġfatal": 4664,
      "Ġconsequence": 4665,
      "Ġfetch": 4666,
      "Ġbranches": 4667,
      "ĠfaÃ§on": 4668,
      "Les": 4669,
      "coup": 4670,
      "fice": 4671,
      "fax": 4672,
      "Ġ5": 4673,
      "edy": 4674,
      "Ġfaint": 4675,
      "Ġpick": 4676,
      "Ġrent": 4677,
      "Ġweary": 4678,
      "Ġquoi": 4679,
      "Ġunf": 4680,
      "ĠEd": 4681,
      "Ġentre": 4682,
      "Ġincident": 4683,
      "Ġclever": 4684,
      "Ġvisible": 4685,
      "Ġprofess": 4686,
      "ĠJehan": 4687,
      "Ġruin": 4688,
      "Ġarchite": 4689,
      "Ġflew": 4690,
      "Ġhidden": 4691,
      "Ġdisappoint": 4692,
      "rane": 4693,
      "aries": 4694,
      "ĠIl": 4695,
      "Ġrig": 4696,
      "pel": 4697,
      "Ġcontempt": 4698,
      "ĠSan": 4699,
      "Ġworks": 4700,
      "ĠBer": 4701,
      "ĠBel": 4702,
      "Ġgroup": 4703,
      "Ġbod": 4704,
      "there": 4705,
      "Ġesp": 4706,
      "Ġfamous": 4707,
      "Ġelb": 4708,
      "Ġclearly": 4709,
      "Ġlearn": 4710,
      "Ġreflected": 4711,
      "Ġconcern": 4712,
      "Ġprivate": 4713,
      "Ġcheeks": 4714,
      "ffee": 4715,
      "vÃª": 4716,
      "Ġmix": 4717,
      "Ġfate": 4718,
      "Ġdepend": 4719,
      "Ġstam": 4720,
      "Ġprinces": 4721,
      "Ġdisg": 4722,
      "Ġcompass": 4723,
      "Ġprendre": 4724,
      "Ġobtain": 4725,
      "Ġavaient": 4726,
      "Ãªt": 4727,
      "ouda": 4728,
      "Ġaffairs": 4729,
      "vaque": 4730,
      "Ġannoy": 4731,
      "ĠFairfax": 4732,
      "Ġdaz": 4733,
      "quel": 4734,
      "keep": 4735,
      "osure": 4736,
      "emain": 4737,
      "olphe": 4738,
      "Ġplais": 4739,
      "Ġshape": 4740,
      "ĠDongo": 4741,
      "Ġeverybody": 4742,
      "Ġarrive": 4743,
      "Ġapproach": 4744,
      "Ġpainful": 4745,
      "ĠRassi": 4746,
      "Ġvirtue": 4747,
      "Ġvingt": 4748,
      "Certain": 4749,
      "Et": 4750,
      "Emma": 4751,
      "ford": 4752,
      "work": 4753,
      "Ġtent": 4754,
      "Ġloss": 4755,
      "Ġfears": 4756,
      "ighed": 4757,
      "Ġwhence": 4758,
      "Ġcoffee": 4759,
      "Ġeverywhere": 4760,
      "Ġspend": 4761,
      "dele": 4762,
      "Ġretired": 4763,
      "uliar": 4764,
      "Ġsoup": 4765,
      "Ġdete": 4766,
      "Ġdoesn": 4767,
      "Ġgallant": 4768,
      "Laurent": 4769,
      "Ġsoldier": 4770,
      "Ġdisplay": 4771,
      "Ġlinen": 4772,
      "ĠHennebeau": 4773,
      "Herbert": 4774,
      "Ġta": 4775,
      "Ġwet": 4776,
      "Ġdaily": 4777,
      "ĠlÃł": 4778,
      "Ġetern": 4779,
      "Ġgathered": 4780,
      "ĠÃ¢": 4781,
      "Ġknife": 4782,
      "Ġotherwise": 4783,
      "Ġpeine": 4784,
      "Ġtea": 4785,
      "Ġcapable": 4786,
      "Ġinformed": 4787,
      "Ġexcuse": 4788,
      "Ġrepeat": 4789,
      "Ġtrembled": 4790,
      "Ġnervous": 4791,
      "Ġbeaucoup": 4792,
      "Ġignorant": 4793,
      "Sometimes": 4794,
      "Ġpeculiar": 4795,
      "EN": 4796,
      "eur": 4797,
      "gain": 4798,
      "mand": 4799,
      "su": 4800,
      "ĠU": 4801,
      "ĠmÃ©": 4802,
      "Ġbowed": 4803,
      "Ġlest": 4804,
      "Ġhither": 4805,
      "acles": 4806,
      "resp": 4807,
      "ulted": 4808,
      "Ġdozen": 4809,
      "Ġlibr": 4810,
      "Ġorg": 4811,
      "geance": 4812,
      "Ġcover": 4813,
      "ĠRoland": 4814,
      "sip": 4815,
      "Ġexcited": 4816,
      "Ġlowered": 4817,
      "Ġdrop": 4818,
      "ĠGuards": 4819,
      "ĠMaheude": 4820,
      "Ġfaithful": 4821,
      "Ġdeserted": 4822,
      "ĠMartin": 4823,
      "Ġcredit": 4824,
      "Ġexperienced": 4825,
      "Miss": 4826,
      "hod": 4827,
      "sha": 4828,
      "ĠThis": 4829,
      "era": 4830,
      "Ġgained": 4831,
      "iding": 4832,
      "Ġsevent": 4833,
      "agne": 4834,
      "Ġframe": 4835,
      "ĠPort": 4836,
      "aps": 4837,
      "Ġproof": 4838,
      "Ġgratitude": 4839,
      "Ġboys": 4840,
      "Ġserve": 4841,
      "Ġrecomme": 4842,
      "Ġjoin": 4843,
      "Ġslightly": 4844,
      "ĠPrince": 4845,
      "Ġdelicate": 4846,
      "Ġconvicts": 4847,
      "ĠChaval": 4848,
      "Ġplunged": 4849,
      "Ġremoved": 4850,
      "Ġpavement": 4851,
      "Can": 4852,
      "Even": 4853,
      "Such": 4854,
      "gress": 4855,
      "mÃªme": 4856,
      "pre": 4857,
      "itement": 4858,
      "Ġbull": 4859,
      "Ġgend": 4860,
      "utation": 4861,
      "Ġstif": 4862,
      "Ġstiff": 4863,
      "rock": 4864,
      "ify": 4865,
      "Ġquit": 4866,
      "ĠAd": 4867,
      "Ġremains": 4868,
      "Ġscience": 4869,
      "Ġappoint": 4870,
      "Ġapparent": 4871,
      "jection": 4872,
      "Ġsincere": 4873,
      "Ġcolour": 4874,
      "Ġforehead": 4875,
      "Ġmurder": 4876,
      "Ġportrait": 4877,
      "Ġtorn": 4878,
      "Ġadmiration": 4879,
      "Ġplateau": 4880,
      "Ġgloomy": 4881,
      "heureux": 4882,
      "Ġlifted": 4883,
      "Ġwishes": 4884,
      "More": 4885,
      "_,": 4886,
      "rain": 4887,
      "was": 4888,
      "ench": 4889,
      "Ġfen": 4890,
      "Ġislet": 4891,
      "ĠMais": 4892,
      "ieurs": 4893,
      "umin": 4894,
      "ĠAugust": 4895,
      "Ġintense": 4896,
      "ĠLong": 4897,
      "ĠGard": 4898,
      "Ġpasser": 4899,
      "Ġremind": 4900,
      "Ġflood": 4901,
      "Ġrefuge": 4902,
      "Ġkindness": 4903,
      "Ġrecovered": 4904,
      "Ġmistake": 4905,
      "Ġprisoner": 4906,
      "Ġmusic": 4907,
      "Ġstudy": 4908,
      "Ġsolemn": 4909,
      "Ġdragged": 4910,
      "Ġabandoned": 4911,
      "Ġcitad": 4912,
      "nds": 4913,
      "itate": 4914,
      "Ġlan": 4915,
      "asing": 4916,
      "acity": 4917,
      "amour": 4918,
      "Ġquant": 4919,
      "Ġexceed": 4920,
      "Ġprove": 4921,
      "Ġbrain": 4922,
      "ĠRou": 4923,
      "ĠDieu": 4924,
      "Ġbegun": 4925,
      "Ġpersons": 4926,
      "tenant": 4927,
      "Ġneeded": 4928,
      "Ġrelations": 4929,
      "Ġproposed": 4930,
      "Ġhastened": 4931,
      "Ġsucceed": 4932,
      "Ġimpatience": 4933,
      "Ġwidow": 4934,
      "ĠcÃ´tÃ©": 4935,
      "Ġenthus": 4936,
      "ĠPacific": 4937,
      "Dame": 4938,
      "occ": 4939,
      "Ġwed": 4940,
      "hal": 4941,
      "isp": 4942,
      "Ġgig": 4943,
      "Ġredu": 4944,
      "Ġseam": 4945,
      "Ġvale": 4946,
      "oose": 4947,
      "Ġleurs": 4948,
      "oused": 4949,
      "Ġships": 4950,
      "ĠCape": 4951,
      "Ġworst": 4952,
      "Ġexped": 4953,
      "Ġexpressed": 4954,
      "Ġunex": 4955,
      "Ġdirected": 4956,
      "Ġtrouva": 4957,
      "Ġpersonne": 4958,
      "Ġamongst": 4959,
      "Ġveget": 4960,
      "Ġprofond": 4961,
      "Ġrelated": 4962,
      "Ġvengeance": 4963,
      "Ġplainly": 4964,
      "ĠReed": 4965,
      "Ġarrangement": 4966,
      "Ġdescended": 4967,
      "Ġemployed": 4968,
      "Ġvarious": 4969,
      "Ġclerk": 4970,
      "Ġthroat": 4971,
      "Ġgendar": 4972,
      "ef": 4973,
      "ipped": 4974,
      "vol": 4975,
      "Ġarose": 4976,
      "oring": 4977,
      "omin": 4978,
      "otte": 4979,
      "Ġseul": 4980,
      "aging": 4981,
      "asted": 4982,
      "emple": 4983,
      "ĠSund": 4984,
      "ĠprÃ©c": 4985,
      "Ġmonster": 4986,
      "enced": 4987,
      "Ġmethod": 4988,
      "Ġdetails": 4989,
      "Ġsleeping": 4990,
      "Ġconstant": 4991,
      "Ġviolently": 4992,
      "Ġannounced": 4993,
      "Ġnaturally": 4994,
      "Ġsacrifice": 4995,
      "which": 4996,
      "Ġhyp": 4997,
      "Ġpauvre": 4998,
      "fall": 4999,
      "Ġsize": 5000,
      "Ġfol": 5001,
      "Ġfired": 5002,
      "Ġlam": 5003,
      "ira": 5004,
      "irgin": 5005,
      "Ġstuff": 5006,
      "Ġsais": 5007,
      "ĠMos": 5008,
      "Ġshed": 5009,
      "Ġshone": 5010,
      "ĠBishop": 5011,
      "Ġshade": 5012,
      "Ġobtained": 5013,
      "Ġcrushed": 5014,
      "Ġlettre": 5015,
      "Ġpresque": 5016,
      "unegund": 5017,
      "Ġcontinue": 5018,
      "Ġsentiment": 5019,
      "Ġfully": 5020,
      "ground": 5021,
      "grap": 5022,
      "Ġlandl": 5023,
      "engers": 5024,
      "aws": 5025,
      "Ġfurnished": 5026,
      "Ġlimbs": 5027,
      "Ġexperience": 5028,
      "ĠMusketeer": 5029,
      "Ġwitness": 5030,
      "Ġtroubled": 5031,
      "Ġfalse": 5032,
      "Tis": 5033,
      "len": 5034,
      "mon": 5035,
      "off": 5036,
      "pes": 5037,
      "erous": 5038,
      "Ġcup": 5039,
      "ĠpÃ¨re": 5040,
      "oration": 5041,
      "ller": 5042,
      "Ġbearing": 5043,
      "sters": 5044,
      "urd": 5045,
      "Ġange": 5046,
      "ource": 5047,
      "Ġextended": 5048,
      "Ġlava": 5049,
      "Ġalors": 5050,
      "ĠPier": 5051,
      "ĠStre": 5052,
      "ĠJac": 5053,
      "Ġentering": 5054,
      "Ġauc": 5055,
      "Ġhearts": 5056,
      "Ġruined": 5057,
      "Alas": 5058,
      "Ġhotel": 5059,
      "Ġvalue": 5060,
      "Ġcivil": 5061,
      "Ġcinq": 5062,
      "Certainly": 5063,
      "Ġlibrary": 5064,
      "aÃ®tre": 5065,
      "fait": 5066,
      "woman": 5067,
      "rez": 5068,
      "reur": 5069,
      "Ġdix": 5070,
      "Ġfled": 5071,
      "Ġpicked": 5072,
      "asons": 5073,
      "asped": 5074,
      "Ġrene": 5075,
      "irard": 5076,
      "Ġaspect": 5077,
      "Ġweap": 5078,
      "Ġmeat": 5079,
      "Ġmanaged": 5080,
      "mered": 5081,
      "resses": 5082,
      "aires": 5083,
      "Ġflung": 5084,
      "Ġsetting": 5085,
      "Ġcapital": 5086,
      "Ġcutting": 5087,
      "Ġmeaning": 5088,
      "Ġprovisions": 5089,
      "Ġcrying": 5090,
      "Ġmountains": 5091,
      "Ġofficers": 5092,
      "Ġkissed": 5093,
      "Ġspectacle": 5094,
      "Ġsensible": 5095,
      "Ġmystery": 5096,
      "Ġlivres": 5097,
      "bon": 5098,
      "iet": 5099,
      "iam": 5100,
      "iest": 5101,
      "esc": 5102,
      "Ġhab": 5103,
      "Ġyards": 5104,
      "Ġrail": 5105,
      "Ġsty": 5106,
      "acing": 5107,
      "ĠMil": 5108,
      "Ġsuit": 5109,
      "Ġplans": 5110,
      "Ġprocess": 5111,
      "ĠHall": 5112,
      "Ġcompar": 5113,
      "Ġclaim": 5114,
      "Ġknee": 5115,
      "Ġ15": 5116,
      "Ġsorts": 5117,
      "Ġadmit": 5118,
      "Ġbaron": 5119,
      "atson": 5120,
      "Ġnecessity": 5121,
      "Ġhatred": 5122,
      "ĠAmerica": 5123,
      "ING": 5124,
      "ĠprÃ©sent": 5125,
      "Mahe": 5126,
      "fois": 5127,
      "gÃ©": 5128,
      "ky": 5129,
      "no": 5130,
      "Ġ#": 5131,
      "eds": 5132,
      "ĠdÃ©t": 5133,
      "Ġtools": 5134,
      "ese": 5135,
      "Ġnon": 5136,
      "Ġhalt": 5137,
      "ĠIf": 5138,
      "ilar": 5139,
      "ĠMou": 5140,
      "geois": 5141,
      "ĠJup": 5142,
      "lope": 5143,
      "Ġchas": 5144,
      "Ġobsc": 5145,
      "Ġreconn": 5146,
      "ounce": 5147,
      "Ġwoods": 5148,
      "Ġbird": 5149,
      "Ġprevented": 5150,
      "Ġfoolish": 5151,
      "Ġefforts": 5152,
      "Ġslipped": 5153,
      "Ġsombre": 5154,
      "Ġministre": 5155,
      "wing": 5156,
      "Ġ6": 5157,
      "Ġtask": 5158,
      "Ġcave": 5159,
      "Ġpaces": 5160,
      "imneys": 5161,
      "Ġcomtesse": 5162,
      "Ġunp": 5163,
      "ĠBask": 5164,
      "ĠLatin": 5165,
      "Ġgovern": 5166,
      "pted": 5167,
      "Ġmatch": 5168,
      "Ġgives": 5169,
      "Ġswell": 5170,
      "Ġencoun": 5171,
      "Ġfellows": 5172,
      "Ġmounted": 5173,
      "ĠLevaque": 5174,
      "ĠPrudence": 5175,
      "ĠHarrison": 5176,
      "Ġobstin": 5177,
      "Ġblew": 5178,
      "Ġpronounced": 5179,
      "Ġprospect": 5180,
      "standing": 5181,
      "Ġexplanation": 5182,
      "ranean": 5183,
      "Ġcitadelle": 5184,
      "homme": 5185,
      "uary": 5186,
      "yre": 5187,
      "hest": 5188,
      "Ġmast": 5189,
      "onst": 5190,
      "Ġtower": 5191,
      "Ġtoler": 5192,
      "inging": 5193,
      "Ġinvent": 5194,
      "imaud": 5195,
      "Ġrou": 5196,
      "Ġstret": 5197,
      "Ġfrag": 5198,
      "Ġshowing": 5199,
      "----": 5200,
      "Ġspark": 5201,
      "Ġthrowing": 5202,
      "aution": 5203,
      "cience": 5204,
      "Ġpoints": 5205,
      "Ġprofessor": 5206,
      "ĠdÃ©j": 5207,
      "Ġmerc": 5208,
      "Ġpurcha": 5209,
      "Ġexample": 5210,
      "ĠChimneys": 5211,
      "Ġreflection": 5212,
      "Jean": 5213,
      "Ġcabin": 5214,
      "Ġfancied": 5215,
      "Ġaccepted": 5216,
      "Ġformerly": 5217,
      "Ġdisturb": 5218,
      "Ġbuilding": 5219,
      "Ġraft": 5220,
      "Ġcontempl": 5221,
      "ĠMosca": 5222,
      "IT": 5223,
      "Mar": 5224,
      "Than": 5225,
      "cle": 5226,
      "hi": 5227,
      "Ġess": 5228,
      "Ġtum": 5229,
      "Ġflight": 5230,
      "Ġpant": 5231,
      "esprit": 5232,
      "Ġnamed": 5233,
      "Ġgain": 5234,
      "icy": 5235,
      "iller": 5236,
      "liv": 5237,
      "Ġcontained": 5238,
      "ulate": 5239,
      "iere": 5240,
      "Ġtrade": 5241,
      "umes": 5242,
      "Ġard": 5243,
      "Ġamuse": 5244,
      "Ġtimid": 5245,
      "Ġanybody": 5246,
      "Ġremorse": 5247,
      "ĠDr": 5248,
      "isely": 5249,
      "Ġmasters": 5250,
      "Ġventure": 5251,
      "Ġpursued": 5252,
      "Ġdomest": 5253,
      "Ġexhausted": 5254,
      "Ġpeasant": 5255,
      "nier": 5256,
      "Ġing": 5257,
      "Ġici": 5258,
      "Ġwicked": 5259,
      "Ġhit": 5260,
      "Ġnaked": 5261,
      "Ġville": 5262,
      "Ġexcess": 5263,
      "Ġtrace": 5264,
      "Ġintention": 5265,
      "Ġgrim": 5266,
      "Ġdesper": 5267,
      "udov": 5268,
      "chevÃª": 5269,
      "Ġmari": 5270,
      "Ġconsol": 5271,
      "hens": 5272,
      "Ġdrunk": 5273,
      "Ġgallop": 5274,
      "Ġmadam": 5275,
      "Without": 5276,
      "Ġdressing": 5277,
      "Ġrelief": 5278,
      "Ġuneasy": 5279,
      "Ġelder": 5280,
      "looking": 5281,
      "Ġpendant": 5282,
      "line": 5283,
      "upe": 5284,
      "Ġtit": 5285,
      "hem": 5286,
      "reg": 5287,
      "Ġder": 5288,
      "orough": 5289,
      "Ġnort": 5290,
      "imer": 5291,
      "Ġreb": 5292,
      "irm": 5293,
      "Ġrace": 5294,
      "Ġanch": 5295,
      "resse": 5296,
      "Ġcomment": 5297,
      "ules": 5298,
      "Ġworn": 5299,
      "ĠprÃ¨s": 5300,
      "Ġsomeone": 5301,
      "ĠTur": 5302,
      "Ġattached": 5303,
      "Ġattract": 5304,
      "Ġwants": 5305,
      "Ġminers": 5306,
      "Ġdevoted": 5307,
      "Ġschol": 5308,
      "Ġpressing": 5309,
      "Ġatmosp": 5310,
      "udovic": 5311,
      "Jane": 5312,
      "Take": 5313,
      "cont": 5314,
      "lÃ©": 5315,
      "ram": 5316,
      "Ġmit": 5317,
      "Ġfrig": 5318,
      "attered": 5319,
      "Ġrum": 5320,
      "Ġrib": 5321,
      "Ġwealth": 5322,
      "cting": 5323,
      "ctive": 5324,
      "Ġexerc": 5325,
      "Ġunif": 5326,
      "aping": 5327,
      "Its": 5328,
      "Ġspare": 5329,
      "Ġusually": 5330,
      "udden": 5331,
      "Ġgoods": 5332,
      "Ġparce": 5333,
      "Therese": 5334,
      "Ġ..": 5335,
      "ĠWatson": 5336,
      "Ġadvance": 5337,
      "Ġterrified": 5338,
      "Ġhurt": 5339,
      "Ġinquired": 5340,
      "Ġdescend": 5341,
      "Ġprocur": 5342,
      "Ġvictim": 5343,
      "Ġsummit": 5344,
      "Ġchemist": 5345,
      "Ġajout": 5346,
      "hum": 5347,
      "Ġtail": 5348,
      "Ġtakes": 5349,
      "Ġwreck": 5350,
      "Ġmach": 5351,
      "Ġdern": 5352,
      "armed": 5353,
      "ainte": 5354,
      "pended": 5355,
      "istr": 5356,
      "Ġmanners": 5357,
      "Ġtrait": 5358,
      "Ġshaking": 5359,
      "Ġado": 5360,
      "Ġbegged": 5361,
      "ĠThat": 5362,
      "Ġmatin": 5363,
      "Ġindign": 5364,
      "ĠFranc": 5365,
      "Ġshadows": 5366,
      "Ġknocked": 5367,
      "Ġpossibly": 5368,
      "ĠrÃ©pondit": 5369,
      "Ġphilosopher": 5370,
      "uddenly": 5371,
      "cut": 5372,
      "Ġloun": 5373,
      "Ġparent": 5374,
      "Ġgal": 5375,
      "ĠIN": 5376,
      "Ġreasons": 5377,
      "Ġate": 5378,
      "ĠMort": 5379,
      "ĠCunegund": 5380,
      "ĠAs": 5381,
      "Ġloft": 5382,
      "Ġshaft": 5383,
      "Ġpear": 5384,
      "Ġinsp": 5385,
      "Ġcircle": 5386,
      "Ġfurniture": 5387,
      "ĠXI": 5388,
      "Ġdeliver": 5389,
      "Ġdirty": 5390,
      "ĠQueen": 5391,
      "Ġlounge": 5392,
      ".âĢĿ": 5393,
      "LE": 5394,
      "lÃł": 5395,
      "inte": 5396,
      "Ġsire": 5397,
      "itating": 5398,
      "enod": 5399,
      "Ġep": 5400,
      "Ġhadn": 5401,
      "Ġwel": 5402,
      "rois": 5403,
      "Ġsheet": 5404,
      "Ġdoc": 5405,
      "isten": 5406,
      "ĠPh": 5407,
      "Ġabund": 5408,
      "venir": 5409,
      "Ġbrut": 5410,
      "Ġboots": 5411,
      "Ġimper": 5412,
      "Ġflag": 5413,
      "Ġwanting": 5414,
      "leton": 5415,
      "Ġabsurd": 5416,
      "Ġmilieu": 5417,
      "vidence": 5418,
      "Ġcorpse": 5419,
      "Ġreflections": 5420,
      "Ġfreed": 5421,
      "Ġconcerned": 5422,
      "Ġflying": 5423,
      "Ġrecalled": 5424,
      "Ġhigher": 5425,
      "Ġpieds": 5426,
      "Ġmingled": 5427,
      "Upon": 5428,
      "Ġcaval": 5429,
      "Suddenly": 5430,
      "ault": 5431,
      "bles": 5432,
      "dig": 5433,
      "four": 5434,
      "iqu": 5435,
      "Ġpack": 5436,
      "Ġnav": 5437,
      "ata": 5438,
      "keys": 5439,
      "Ġwholly": 5440,
      "Ġwhenever": 5441,
      "ĠAb": 5442,
      "Ġperceive": 5443,
      "Ġsera": 5444,
      "autre": 5445,
      "Ġharp": 5446,
      "Ġmates": 5447,
      "eneur": 5448,
      "Ġcleared": 5449,
      "Ġfinish": 5450,
      "Ġexcitement": 5451,
      "Ġshouting": 5452,
      "Ġleading": 5453,
      "Ġclimbed": 5454,
      "Ġbeasts": 5455,
      "Ġpreserved": 5456,
      "Ġrendered": 5457,
      "Ġbrilliant": 5458,
      "acharie": 5459,
      "Ġsplendid": 5460,
      "Ġlendemain": 5461,
      "Ġabsorbed": 5462,
      "Ġprincesse": 5463,
      "_.": 5464,
      "mir": 5465,
      "reux": 5466,
      "ĠhÃ©": 5467,
      "Ġni": 5468,
      "Ġstared": 5469,
      "Ġmeme": 5470,
      "Ġvap": 5471,
      "ĠPirard": 5472,
      "aker": 5473,
      "Ġovercome": 5474,
      "Ġcomposed": 5475,
      "Ġmark": 5476,
      "Ġmonse": 5477,
      "Ġconscience": 5478,
      "ursed": 5479,
      "Ġfarm": 5480,
      "Ġestate": 5481,
      "Ġuseful": 5482,
      "Ġmercy": 5483,
      "ĠLeon": 5484,
      "Before": 5485,
      "Ġwonderful": 5486,
      "Ġmeantime": 5487,
      "Everything": 5488,
      "Ġpictures": 5489,
      "Ġwhispered": 5490,
      "Ġsteamer": 5491,
      "Ġinformation": 5492,
      "Ġbridge": 5493,
      "Ġdwelling": 5494,
      "Bon": 5495,
      "Ġfou": 5496,
      "Ġthorough": 5497,
      "Ġmechan": 5498,
      "Ġfruit": 5499,
      "Ġgrou": 5500,
      "Ġbrand": 5501,
      "Ġrepent": 5502,
      "Ġpassengers": 5503,
      "Ġpointing": 5504,
      "Ġforgive": 5505,
      "Ġbarely": 5506,
      "Ġcoward": 5507,
      "Ġbourgeois": 5508,
      "Ġmonseigneur": 5509,
      "!--": 5510,
      "Poor": 5511,
      "gged": 5512,
      "pent": 5513,
      "Ġsed": 5514,
      "Ġporter": 5515,
      "Ġrav": 5516,
      "illes": 5517,
      "ĠvÃ©r": 5518,
      "Ġiss": 5519,
      "ulation": 5520,
      "ĠCont": 5521,
      "Ġwheel": 5522,
      "Ġwouldn": 5523,
      "Ġcop": 5524,
      "Ġdaylight": 5525,
      "Ġlikewise": 5526,
      "Ġchoses": 5527,
      "Ġbored": 5528,
      "Ġvois": 5529,
      "Ġflame": 5530,
      "Ġtend": 5531,
      "Ġguests": 5532,
      "guish": 5533,
      "Ġsecure": 5534,
      "Ġglobe": 5535,
      "ĠComte": 5536,
      "Ġsouthern": 5537,
      "Ġcomprehe": 5538,
      "ĠValenod": 5539,
      "Ġhommes": 5540,
      "Ġlantern": 5541,
      "Ġunexpected": 5542,
      "Cl": 5543,
      "rades": 5544,
      "ture": 5545,
      "uv": 5546,
      "Ġaid": 5547,
      "Ġsorrow": 5548,
      "Ġfis": 5549,
      "Ġpace": 5550,
      "omen": 5551,
      "urse": 5552,
      "Ġrasc": 5553,
      "ilst": 5554,
      "illa": 5555,
      "rol": 5556,
      "loped": 5557,
      "ints": 5558,
      "Ġhousehold": 5559,
      "Ġdevoured": 5560,
      "Ġassass": 5561,
      "Ġrefuse": 5562,
      "Ġsteep": 5563,
      "Ġunderstanding": 5564,
      "Ġresolution": 5565,
      "Ġoccasions": 5566,
      "Ġextrem": 5567,
      "Ġpatience": 5568,
      "Ġrequest": 5569,
      "Ġhedge": 5570,
      "ĠIceland": 5571,
      "Ġliquid": 5572,
      "ĠBaskerville": 5573,
      "AS": 5574,
      "Cette": 5575,
      "Re": 5576,
      "uce": 5577,
      "Ġmute": 5578,
      "iste": 5579,
      "Ġtot": 5580,
      "Ġhero": 5581,
      "ilty": 5582,
      "Ġconc": 5583,
      "Ġshown": 5584,
      "ĠAouda": 5585,
      "ĠBour": 5586,
      "Ġprudence": 5587,
      "ĠFather": 5588,
      "Ġoverwhe": 5589,
      "Ġpretended": 5590,
      "Ġunderwater": 5591,
      "Ġconscious": 5592,
      "Ġindicated": 5593,
      "Ġconditions": 5594,
      "Ġskill": 5595,
      "Ġvex": 5596,
      "Ġinvited": 5597,
      "Ġacquainted": 5598,
      "iciently": 5599,
      "Ġtriumph": 5600,
      "Charles": 5601,
      "respond": 5602,
      "Ġoverwhel": 5603,
      ",âĢĿ": 5604,
      "tic": 5605,
      "ĠÃ©p": 5606,
      "ĠtÃªte": 5607,
      "Ġaven": 5608,
      "Ġnation": 5609,
      "Ġeating": 5610,
      "imp": 5611,
      "Ġthither": 5612,
      "Ġyonder": 5613,
      "Ġstupe": 5614,
      "ĠAdele": 5615,
      "ĠBe": 5616,
      "ĠBessie": 5617,
      "ĠLuc": 5618,
      "Ġspl": 5619,
      "Ġloc": 5620,
      "Ġtear": 5621,
      "izzy": 5622,
      "ursday": 5623,
      "Ã¢t": 5624,
      "ĠÂ»,": 5625,
      "Ġdiscovery": 5626,
      "Ġeduc": 5627,
      "Ġgazing": 5628,
      "Ġsavages": 5629,
      "Ġdivided": 5630,
      "Ġenemies": 5631,
      "Or": 5632,
      "Pierre": 5633,
      "law": 5634,
      "Ġlord": 5635,
      "oms": 5636,
      "uten": 5637,
      "eter": 5638,
      "Ġrow": 5639,
      "Ġanguish": 5640,
      "Ġvic": 5641,
      "Ġjou": 5642,
      "teem": 5643,
      "Ġenf": 5644,
      "Ġprit": 5645,
      "Ġnevertheless": 5646,
      "ĠTr": 5647,
      "Ġyounger": 5648,
      "Ġattach": 5649,
      "prÃ¨s": 5650,
      "Ġcharged": 5651,
      "Ġguilty": 5652,
      "Ġ17": 5653,
      "Ġhighly": 5654,
      "Ġbonne": 5655,
      "Ġcorrespond": 5656,
      "Ġprovided": 5657,
      "Ġinvol": 5658,
      "Ġbreathing": 5659,
      "Ġdisappear": 5660,
      "Ġhanged": 5661,
      "Ġpermission": 5662,
      "Ġconsequently": 5663,
      "Ġcelui": 5664,
      "Ġconcluded": 5665,
      "Ġaffected": 5666,
      "Ġreligion": 5667,
      "Ġlorsque": 5668,
      "Ġtowers": 5669,
      "Ġenergy": 5670,
      "Ġinnocent": 5671,
      "keeper": 5672,
      "ĠMilan": 5673,
      "God": 5674,
      "ares": 5675,
      "ere": 5676,
      "Ġ7": 5677,
      "onc": 5678,
      "Ġrender": 5679,
      "Ġyard": 5680,
      "elles": 5681,
      "ĠAust": 5682,
      "Ġdesert": 5683,
      "Ġseeking": 5684,
      "ĠEs": 5685,
      "Ġinstru": 5686,
      "Ġtreas": 5687,
      "Ġ16": 5688,
      "Ġstead": 5689,
      "Ġsurely": 5690,
      "Ġraising": 5691,
      "Ġdifference": 5692,
      "Ġcounter": 5693,
      "Ġtranquil": 5694,
      "Ġdistinguish": 5695,
      "Ġsuspicion": 5696,
      "Ġbodies": 5697,
      "Ġstyle": 5698,
      "Ġatmosphere": 5699,
      "ĠFrancis": 5700,
      "loss": 5701,
      "oning": 5702,
      "Ġpor": 5703,
      "Ġpup": 5704,
      "Ġine": 5705,
      "Ġecc": 5706,
      "Ġbelle": 5707,
      "ĠMed": 5708,
      "Ġqual": 5709,
      "Ġconvey": 5710,
      "Ġkil": 5711,
      "Ġorn": 5712,
      "ĠSore": 5713,
      "Ġprudent": 5714,
      "Ġprogress": 5715,
      "Ġloaded": 5716,
      "ĠJan": 5717,
      "Ġsomewhere": 5718,
      "Ġpreced": 5719,
      "ĠEx": 5720,
      "Ġeveryone": 5721,
      "lessly": 5722,
      "Ġconsid": 5723,
      "Ġassumed": 5724,
      "Ġsufficiently": 5725,
      "Ġwooden": 5726,
      "Ġmercer": 5727,
      "Ġsolitude": 5728,
      "Ġinclined": 5729,
      "Ġstammered": 5730,
      "Ġorgan": 5731,
      "ĠStreet": 5732,
      "Ġuniform": 5733,
      "Lord": 5734,
      "inally": 5735,
      "Ġbay": 5736,
      "Ġcage": 5737,
      "Ġdign": 5738,
      "Ġdancing": 5739,
      "Ġlieu": 5740,
      "Ġrad": 5741,
      "Ġrust": 5742,
      "Ġvu": 5743,
      "ember": 5744,
      "Ġplants": 5745,
      "Ġalarm": 5746,
      "ĠBes": 5747,
      "Ġprolong": 5748,
      "ĠJes": 5749,
      "ĠRed": 5750,
      "they": 5751,
      "Once": 5752,
      "iction": 5753,
      "Ġavez": 5754,
      "Ġtrouvait": 5755,
      "Ġhumble": 5756,
      "ification": 5757,
      "Ġpurse": 5758,
      "Ġneighbor": 5759,
      "Ġcircumstance": 5760,
      "ĠThursday": 5761,
      "bye": 5762,
      "Ġdelivered": 5763,
      "Ġstirred": 5764,
      "Ġsupported": 5765,
      "Ġbetrayed": 5766,
      "Ġbreeze": 5767,
      "ĠGerman": 5768,
      "Ġinfinite": 5769,
      "Ġarchitecture": 5770,
      "ĠSunday": 5771,
      "ipp": 5772,
      "when": 5773,
      "wenty": 5774,
      "hall": 5775,
      "oncer": 5776,
      "Ġlack": 5777,
      "Ġlatitude": 5778,
      "Ġhate": 5779,
      "Ġgai": 5780,
      "ĠComm": 5781,
      "orted": 5782,
      "ĠHans": 5783,
      "Ġrope": 5784,
      "Ġdish": 5785,
      "Ġrepl": 5786,
      "Ġsurt": 5787,
      "bec": 5788,
      "Ġpasse": 5789,
      "Ġterre": 5790,
      "licity": 5791,
      "Ġcolumn": 5792,
      "Ġsigns": 5793,
      "ĠStap": 5794,
      "Ġsuspect": 5795,
      "Ġangle": 5796,
      "Ġmurmur": 5797,
      "Ġhesitated": 5798,
      "viour": 5799,
      "Ġshudder": 5800,
      "Ġjealousy": 5801,
      "Ġwretch": 5802,
      "Ġharpoon": 5803,
      "cast": 5804,
      "Ġty": 5805,
      "Ġmieux": 5806,
      "Ġpou": 5807,
      "Ġnuit": 5808,
      "Ġray": 5809,
      "amm": 5810,
      "oreux": 5811,
      "Ġupstairs": 5812,
      "iel": 5813,
      "Ġpris": 5814,
      "ĠFl": 5815,
      "abbit": 5816,
      "Ġcliff": 5817,
      "Ġcrack": 5818,
      "ancon": 5819,
      "ornfield": 5820,
      "Ġmarve": 5821,
      "Ġceiling": 5822,
      "ĠVoreux": 5823,
      "Ġtroop": 5824,
      "Ġextent": 5825,
      "Ġmaintenant": 5826,
      "Ġtorrent": 5827,
      "umbled": 5828,
      "Ġsensation": 5829,
      "III": 5830,
      "ufact": 5831,
      "Ġbehaviour": 5832,
      "Ġjumped": 5833,
      "Ġcondemned": 5834,
      "Ġgigantic": 5835,
      "ĠSorel": 5836,
      "jet": 5837,
      "nÃ©": 5838,
      "sm": 5839,
      "time": 5840,
      "oux": 5841,
      "oral": 5842,
      "Ġgri": 5843,
      "qua": 5844,
      "Ġconvent": 5845,
      "Ġlaqu": 5846,
      "emp": 5847,
      "Ġmanufact": 5848,
      "ĠGo": 5849,
      "ĠGalais": 5850,
      "abor": 5851,
      "Ġcloth": 5852,
      "Ġcheck": 5853,
      "Ġminer": 5854,
      "Ġmater": 5855,
      "Ġmaison": 5856,
      "Ġswept": 5857,
      "Ġexpecting": 5858,
      "Ġportion": 5859,
      "Ġbuy": 5860,
      "cript": 5861,
      "Ġhastily": 5862,
      "Ġdemanded": 5863,
      "rers": 5864,
      "Ġcroy": 5865,
      "Still": 5866,
      "Ġcorrid": 5867,
      "Ġdistinguished": 5868,
      "ĠColonel": 5869,
      "Ġdazz": 5870,
      "chevÃªque": 5871,
      "ded": 5872,
      "iÃ¨": 5873,
      "lotte": 5874,
      "then": 5875,
      "ĠâĢĻ": 5876,
      "Ġtel": 5877,
      "Ġbought": 5878,
      "eding": 5879,
      "Ġegg": 5880,
      "Ġgather": 5881,
      "Ġrever": 5882,
      "Ġdeceived": 5883,
      "Ġstories": 5884,
      "Ã©qu": 5885,
      "Ġsem": 5886,
      "Ġmeal": 5887,
      "rog": 5888,
      "Ġshining": 5889,
      "indre": 5890,
      "ability": 5891,
      "Ġloose": 5892,
      "Ġvoiture": 5893,
      "ancy": 5894,
      "Ġentreat": 5895,
      "Ã¨ve": 5896,
      "ĠWill": 5897,
      "ivid": 5898,
      "Ġconfusion": 5899,
      "Ġassur": 5900,
      "Ġsixty": 5901,
      "Ġforms": 5902,
      "Ġutmost": 5903,
      "Ġmovements": 5904,
      "Ġnumerous": 5905,
      "Ġdreams": 5906,
      "Ġfloating": 5907,
      "Ġeaten": 5908,
      "Ġpistoles": 5909,
      "Ġtemperature": 5910,
      "Ġeagerly": 5911,
      "Ġprincipal": 5912,
      "Ġsuggest": 5913,
      "Ġglimpse": 5914,
      "Ã¢teau": 5915,
      "Ġvalet": 5916,
      "Ġfolk": 5917,
      "Harr": 5918,
      "Tout": 5919,
      "cade": 5920,
      "gly": 5921,
      "kward": 5922,
      "past": 5923,
      "rat": 5924,
      "yer": 5925,
      "Ġoffe": 5926,
      "Ġinexp": 5927,
      "ators": 5928,
      "icking": 5929,
      "ĠIng": 5930,
      "ĠreÃ§": 5931,
      "quÃ©": 5932,
      "Ġhers": 5933,
      "usse": 5934,
      "Ġfrank": 5935,
      "Ġlab": 5936,
      "ĠAll": 5937,
      "Ġprice": 5938,
      "Ġgray": 5939,
      "Ġgrant": 5940,
      "Ġrolling": 5941,
      "avoir": 5942,
      "Ġcann": 5943,
      "coat": 5944,
      "Ġvision": 5945,
      "ientÃ´t": 5946,
      "Ġdiscourse": 5947,
      "Ġhunting": 5948,
      "Ġrepeating": 5949,
      "Ġquarters": 5950,
      "Ġpapers": 5951,
      "Ġdaughters": 5952,
      "Ġgolden": 5953,
      "Ġweakness": 5954,
      "Ġtreated": 5955,
      "Ġthreatened": 5956,
      "Ġinhabitants": 5957,
      "Ġfierce": 5958,
      "Ġvolcano": 5959,
      "Ġabruptly": 5960,
      "Ġprocurator": 5961,
      "ĠBesancon": 5962,
      "Ġsurtout": 5963,
      "his": 5964,
      "lis": 5965,
      "na": 5966,
      "net": 5967,
      "yard": 5968,
      "Ġmille": 5969,
      "Ġbid": 5970,
      "Ġfils": 5971,
      "urity": 5972,
      "adventure": 5973,
      "Ġstraw": 5974,
      "acam": 5975,
      "Ġsell": 5976,
      "Ġsaf": 5977,
      "Ġvag": 5978,
      "Ġnoon": 5979,
      "olate": 5980,
      "Ġtimber": 5981,
      "Ġdisord": 5982,
      "Ġreputation": 5983,
      "Ġadvent": 5984,
      "angloss": 5985,
      "Ġmarble": 5986,
      "Ġcerem": 5987,
      "Ġdevour": 5988,
      "Ġsubl": 5989,
      "Ġ14": 5990,
      "ĠArmand": 5991,
      "Ġbenef": 5992,
      "Ġsounded": 5993,
      "Ġproport": 5994,
      "Ġinteresting": 5995,
      "Ġproduce": 5996,
      "Ġjudgment": 5997,
      "Ġfighting": 5998,
      "withstanding": 5999,
      "ĠIndian": 6000,
      "Ġbanks": 6001,
      "Ġdisgust": 6002,
      "Ġlofty": 6003,
      "\"'": 6004,
      "Neb": 6005,
      "dess": 6006,
      "Ġfil": 6007,
      "Ġlot": 6008,
      "Ġhell": 6009,
      "Ġbeating": 6010,
      "Ġrag": 6011,
      "Ġstars": 6012,
      "Ġcomrades": 6013,
      "ights": 6014,
      "eless": 6015,
      "Ġprodig": 6016,
      "Ġloin": 6017,
      "Ġchin": 6018,
      "Ġfolly": 6019,
      "ĠEyre": 6020,
      "Ġparfait": 6021,
      "Ġscru": 6022,
      "Ġscattered": 6023,
      "Ġretour": 6024,
      "Ġlasted": 6025,
      "Ġtermin": 6026,
      "pril": 6027,
      "Ġstopping": 6028,
      "together": 6029,
      "Ġroads": 6030,
      "Ġawkward": 6031,
      "Ġpolite": 6032,
      "Ġdemon": 6033,
      "Ġcoral": 6034,
      "Ġeighty": 6035,
      "Ġbadly": 6036,
      "Ġrecognised": 6037,
      "ĠAtl": 6038,
      "Ġhighest": 6039,
      "espoir": 6040,
      "Ġdawn": 6041,
      "Ġchimney": 6042,
      "ĠGardiner": 6043,
      "Ġdesperate": 6044,
      "';": 6045,
      "Acc": 6046,
      "bid": 6047,
      "car": 6048,
      "Ġowe": 6049,
      "arn": 6050,
      "Ġnice": 6051,
      "Ġbew": 6052,
      "icha": 6053,
      "Ġdeve": 6054,
      "Ġrank": 6055,
      "Ġvall": 6056,
      "Ġallait": 6057,
      "Ġjack": 6058,
      "oser": 6059,
      "osen": 6060,
      "ulse": 6061,
      "ĠHer": 6062,
      "Ġgrav": 6063,
      "arest": 6064,
      "Ġcrim": 6065,
      "Ġexpense": 6066,
      "Ġsmell": 6067,
      "Ġsilk": 6068,
      "âĢĶ\"": 6069,
      "Ġvel": 6070,
      "Ġhelped": 6071,
      "Ġextr": 6072,
      "ĠThornfield": 6073,
      "ĠJeanlin": 6074,
      "Ġvanished": 6075,
      "Ġrelieved": 6076,
      "Ġsmooth": 6077,
      "Ġinhabited": 6078,
      "Ġoperation": 6079,
      "Ġwondered": 6080,
      "Each": 6081,
      "May": 6082,
      "Spe": 6083,
      "Tell": 6084,
      "iently": 6085,
      "ses": 6086,
      "Ġtaught": 6087,
      "Ġwin": 6088,
      "Ġwise": 6089,
      "Ġmult": 6090,
      "Ġbrief": 6091,
      "Ġfishing": 6092,
      "Ġtoday": 6093,
      "Ġlou": 6094,
      "Ġpin": 6095,
      "Ġpil": 6096,
      "Ġhence": 6097,
      "Ġgay": 6098,
      "sever": 6099,
      "Ġvais": 6100,
      "ander": 6101,
      "cto": 6102,
      "iez": 6103,
      "Ġmanage": 6104,
      "Ġtruly": 6105,
      "umber": 6106,
      "Ġpole": 6107,
      "Ġchaque": 6108,
      "Ġcrater": 6109,
      "Ġexposed": 6110,
      "Ġdistr": 6111,
      "ĠVirgin": 6112,
      "Ġcommitted": 6113,
      "Ġlarmes": 6114,
      "Ġinsol": 6115,
      "Ġindic": 6116,
      "Ġfinal": 6117,
      "Ġcareful": 6118,
      "Ġafford": 6119,
      "Ġprisonnier": 6120,
      "Ġquarrel": 6121,
      "Ġaccomplished": 6122,
      "Ġvenait": 6123,
      "Ġequally": 6124,
      "Ġbirth": 6125,
      "Ġsoftly": 6126,
      "Ġneighbourhood": 6127,
      "Ġdescribe": 6128,
      "ĠAmerican": 6129,
      "Ġuneasiness": 6130,
      "Ġeternal": 6131,
      "Ġquantity": 6132,
      "First": 6133,
      "Pro": 6134,
      "bber": 6135,
      "iard": 6136,
      "rais": 6137,
      "wor": 6138,
      "Ġtap": 6139,
      "Ġwings": 6140,
      "itution": 6141,
      "Ġbos": 6142,
      "Ġtomorrow": 6143,
      "Ġhull": 6144,
      "anks": 6145,
      "Ġnurse": 6146,
      "ads": 6147,
      "Ġwept": 6148,
      "agon": 6149,
      "arde": 6150,
      "Ġunus": 6151,
      "ĠPi": 6152,
      "Ġabomin": 6153,
      "ĠAN": 6154,
      "ĠLudovic": 6155,
      "Ġamused": 6156,
      "abs": 6157,
      "Ġpretend": 6158,
      "ĠDo": 6159,
      "inted": 6160,
      "ensity": 6161,
      "Ġattitude": 6162,
      "Ġlightning": 6163,
      "Ġplusieurs": 6164,
      "Ġaddition": 6165,
      "Ġbehold": 6166,
      "lets": 6167,
      "Ã¢ce": 6168,
      "Ġsounds": 6169,
      "Ġbusy": 6170,
      "Ġtrif": 6171,
      "Ġprisoners": 6172,
      "Ġstriking": 6173,
      "Ġvert": 6174,
      "gypt": 6175,
      "bbing": 6176,
      "Ġmuttered": 6177,
      "Ġguessed": 6178,
      "Ġlorsqu": 6179,
      "Ġwhale": 6180,
      "ĠAltesse": 6181,
      "Ġreduced": 6182,
      "Ġgroups": 6183,
      "Candide": 6184,
      "certain": 6185,
      "uable": 6186,
      "uits": 6187,
      "voir": 6188,
      "orne": 6189,
      "Ġwhilst": 6190,
      "Ġrush": 6191,
      "Ġassemb": 6192,
      "Ġstage": 6193,
      "Ġquart": 6194,
      "Ġsoit": 6195,
      "chÃ©": 6196,
      "tement": 6197,
      "Ġaltogether": 6198,
      "ĠAh": 6199,
      "Ġagitated": 6200,
      "Ġchoose": 6201,
      "angled": 6202,
      "fulness": 6203,
      "Ġrested": 6204,
      "ĠHeaven": 6205,
      "Ġislands": 6206,
      "temps": 6207,
      "Ġcavern": 6208,
      "Ġclosely": 6209,
      "Ġrisen": 6210,
      "Ġconvuls": 6211,
      "Ã®t": 6212,
      "Ġprecious": 6213,
      "Ġkisses": 6214,
      "Ġinclination": 6215,
      "Ġhills": 6216,
      "Ġchoice": 6217,
      "Ġvoulait": 6218,
      "Ġassistance": 6219,
      "Ġremarkable": 6220,
      "iasm": 6221,
      "Ġacknowled": 6222,
      "Ġparents": 6223,
      "Ġsafety": 6224,
      "Par": 6225,
      "ye": 6226,
      "Ġcelle": 6227,
      "Ġdance": 6228,
      "Ġfant": 6229,
      "Ġpir": 6230,
      "atch": 6231,
      "omach": 6232,
      "otted": 6233,
      "Ġreceiving": 6234,
      "Ġthou": 6235,
      "Ġrival": 6236,
      "Ã©ment": 6237,
      "Ġvac": 6238,
      "Ġbutter": 6239,
      "Ġlaun": 6240,
      "Ġabroad": 6241,
      "Ġtraces": 6242,
      "ĠBou": 6243,
      "Ġsport": 6244,
      "arecha": 6245,
      "Ġchosen": 6246,
      "ĠEgypt": 6247,
      "Ġparti": 6248,
      "Ġarmy": 6249,
      "Ġdrinking": 6250,
      "Ġsentiments": 6251,
      "Ġmettre": 6252,
      "Ġsinging": 6253,
      "Ġlanded": 6254,
      "Ġraise": 6255,
      "Ġactually": 6256,
      "Ġreality": 6257,
      "Ġregarded": 6258,
      "Ġsituated": 6259,
      "Ġhesitation": 6260,
      "Ġspecim": 6261,
      "Ġvanity": 6262,
      "Ġfeverish": 6263,
      "ĠRasseneur": 6264,
      "Ġinstruments": 6265,
      "Ġarrested": 6266,
      "Ġtumult": 6267,
      "jour": 6268,
      "just": 6269,
      "xel": 6270,
      "rels": 6271,
      "hamed": 6272,
      "Ġfus": 6273,
      "Ġnet": 6274,
      "Ġreappe": 6275,
      "idents": 6276,
      "cember": 6277,
      "Ġvou": 6278,
      "Ġsheep": 6279,
      "Ġshr": 6280,
      "teenth": 6281,
      "Ġtrick": 6282,
      "ĠApril": 6283,
      "udes": 6284,
      "Ġovert": 6285,
      "Three": 6286,
      "Ġvoix": 6287,
      "ĠVous": 6288,
      "Ġlovely": 6289,
      "Ġansw": 6290,
      "Ġreste": 6291,
      "Ġresting": 6292,
      "Ġdrank": 6293,
      "ĠGrÃ©g": 6294,
      "Ġsimilar": 6295,
      "Ġboats": 6296,
      "Ġfriendship": 6297,
      "Ġseconds": 6298,
      "Ġadmire": 6299,
      "onseigneur": 6300,
      "Ġfigures": 6301,
      "Ġballoon": 6302,
      "Ġpermit": 6303,
      "Ġcandles": 6304,
      "Ġdescribed": 6305,
      "ĠBaron": 6306,
      "Ġstroke": 6307,
      "Ġfortunate": 6308,
      "Ġsemblait": 6309,
      "Ġinstrument": 6310,
      "Ġcarpet": 6311,
      "Ġwedding": 6312,
      "Ġexpedition": 6313,
      "Ġhabits": 6314,
      "Bonadventure": 6315,
      "ĠConti": 6316,
      "ĠIngram": 6317,
      "AL": 6318,
      "Au": 6319,
      "Mme": 6320,
      "eu": 6321,
      "hic": 6322,
      "west": 6323,
      "Ġtied": 6324,
      "Ġwra": 6325,
      "eries": 6326,
      "itiÃ©": 6327,
      "Ġcri": 6328,
      "Ġfought": 6329,
      "Ġfires": 6330,
      "Ġlux": 6331,
      "arine": 6332,
      "argent": 6333,
      "Ġhaut": 6334,
      "Ġrecl": 6335,
      "Ġreaching": 6336,
      "Ġthres": 6337,
      "Ġstamp": 6338,
      "Ã©m": 6339,
      "Ã©v": 6340,
      "Ġisol": 6341,
      "pelled": 6342,
      "Ġexagger": 6343,
      "ĠCour": 6344,
      "ounding": 6345,
      "Ġtrack": 6346,
      "ĠSi": 6347,
      "Ġcoarse": 6348,
      "ĠHot": 6349,
      "abb": 6350,
      "Ġperd": 6351,
      "Ġblame": 6352,
      "Ġscand": 6353,
      "Ġturns": 6354,
      "Ġattacked": 6355,
      "Ġcommission": 6356,
      "Ġuncons": 6357,
      "Ġindivid": 6358,
      "ception": 6359,
      "Ġexcurs": 6360,
      "Ġkingdom": 6361,
      "Ġcorps": 6362,
      "raction": 6363,
      "Ġsuspected": 6364,
      "Ġincrease": 6365,
      "ĠHenri": 6366,
      "Ġwhisper": 6367,
      "Ġfrequent": 6368,
      "Ġapprehens": 6369,
      "ĠZacharie": 6370,
      "Ġpreferred": 6371,
      "Ġintervals": 6372,
      "ĠMortimer": 6373,
      "Ġnavig": 6374,
      "Ġlaquelle": 6375,
      "ctober": 6376,
      ":--": 6377,
      "Listen": 6378,
      "Si": 6379,
      "iques": 6380,
      "Ġbase": 6381,
      "ician": 6382,
      "Ġashamed": 6383,
      "aks": 6384,
      "hedral": 6385,
      "Ġmoy": 6386,
      "Ġbras": 6387,
      "Ġlonged": 6388,
      "Ġblowing": 6389,
      "Those": 6390,
      "ode": 6391,
      "Ġcontented": 6392,
      "Ġincess": 6393,
      "Ġobservation": 6394,
      "Ġadmitted": 6395,
      "Ġjoie": 6396,
      "Ġdemi": 6397,
      "Ġgenerous": 6398,
      "Ġexplos": 6399,
      "ouvre": 6400,
      "Ġdestruction": 6401,
      "pendant": 6402,
      "Ġadmirable": 6403,
      "Ġtenderness": 6404,
      "Ġdiscussion": 6405,
      "Ġreligious": 6406,
      "Ġintroduced": 6407,
      "Ġresistance": 6408,
      "Ġfolded": 6409,
      "ĠSpanish": 6410,
      "About": 6411,
      "Ġelegant": 6412,
      "Ġanchor": 6413,
      "acambo": 6414,
      "Ġthreshold": 6415,
      "Eh": 6416,
      "Finally": 6417,
      "Master": 6418,
      "Ned": 6419,
      "fr": 6420,
      "ny": 6421,
      "vis": 6422,
      "vÃ©e": 6423,
      "wood": 6424,
      "Ġslope": 6425,
      "Ġmou": 6426,
      "Ġmission": 6427,
      "Ġhuit": 6428,
      "Ġech": 6429,
      "Ġgown": 6430,
      "Ġwhit": 6431,
      "iring": 6432,
      "Ġrappe": 6433,
      "Ġascertain": 6434,
      "Ġstaring": 6435,
      "Ġstomach": 6436,
      "ĠMount": 6437,
      "neur": 6438,
      "Ġloves": 6439,
      "ferent": 6440,
      "Ġparted": 6441,
      "Ġletting": 6442,
      "Ġaccused": 6443,
      "Ġ.'": 6444,
      "ĠVotre": 6445,
      "entlemen": 6446,
      "ĠOctober": 6447,
      "Ġmidnight": 6448,
      "ĠAronn": 6449,
      "Soon": 6450,
      "bourn": 6451,
      "Ġshores": 6452,
      "ĠCharlotte": 6453,
      "ĠRob": 6454,
      "Ġautres": 6455,
      "Ġcrossing": 6456,
      "Any": 6457,
      "Ġdelightful": 6458,
      "Ġbelonging": 6459,
      "Ġmasses": 6460,
      "ortunately": 6461,
      "Ġforests": 6462,
      "Ġpouvoir": 6463,
      "Ġnerves": 6464,
      "ĠRodolphe": 6465,
      "Ġdestroyed": 6466,
      "Ġcommunication": 6467,
      "Ġobeyed": 6468,
      "ĠLongbourn": 6469,
      "Ġgendarmes": 6470,
      "Ġfreedom": 6471,
      "ĠAronnax": 6472,
      "Having": 6473,
      "iance": 6474,
      "Ġ----": 6475,
      "ino": 6476,
      "Ġwake": 6477,
      "Ġwishing": 6478,
      "ouque": 6479,
      "Ġheels": 6480,
      "Ġgent": 6481,
      "Ġthread": 6482,
      "stem": 6483,
      "ales": 6484,
      "ulgar": 6485,
      "Ġfeather": 6486,
      "Ġnod": 6487,
      "akened": 6488,
      "Ġgrat": 6489,
      "Ġspur": 6490,
      "Ġlongtemps": 6491,
      "Ġboot": 6492,
      "Ġprey": 6493,
      "Ġaccent": 6494,
      "Ġcounted": 6495,
      "Ġbedroom": 6496,
      "Ġawoke": 6497,
      "Ã´te": 6498,
      "Ġmerry": 6499,
      "Ġvoyait": 6500,
      "Ġincreasing": 6501,
      "Ġslightest": 6502,
      "umbling": 6503,
      "Ġleaned": 6504,
      "Ġcheek": 6505,
      "ĠDecember": 6506,
      "aissance": 6507,
      "Ġhideous": 6508,
      "Ġnegle": 6509,
      "Ġtorture": 6510,
      "***": 6511,
      "Ġshells": 6512,
      "Ġfrigate": 6513,
      "Ġwelcome": 6514,
      "Ġvelvet": 6515,
      "Com": 6516,
      "George": 6517,
      "iot": 6518,
      "rid": 6519,
      "rir": 6520,
      "uine": 6521,
      "yal": 6522,
      "ĠÃ©cri": 6523,
      "Ġoath": 6524,
      "Ġdoute": 6525,
      "Ġhosp": 6526,
      "Ġgau": 6527,
      "Ġgouver": 6528,
      "see": 6529,
      "seen": 6530,
      "Ġmelt": 6531,
      "herlock": 6532,
      "oop": 6533,
      "Ġfeu": 6534,
      "Ġnois": 6535,
      "unes": 6536,
      "ĠPangloss": 6537,
      "ĠSo": 6538,
      "cks": 6539,
      "Ġgrate": 6540,
      "Ġlovers": 6541,
      "Ġdisgr": 6542,
      "uding": 6543,
      "Ġpeur": 6544,
      "Ġsurvey": 6545,
      "Ġmonstr": 6546,
      "ĠFrank": 6547,
      "Ġfearful": 6548,
      "Ġpaying": 6549,
      "ilson": 6550,
      "Ġexamine": 6551,
      "Ġbottles": 6552,
      "Ġfrozen": 6553,
      "ĠidÃ©e": 6554,
      "Ġyielded": 6555,
      "Ġmeasure": 6556,
      "atural": 6557,
      "Ġsubstance": 6558,
      "Harris": 6559,
      "bac": 6560,
      "col": 6561,
      "gue": 6562,
      "Ġtight": 6563,
      "inent": 6564,
      "Ġmant": 6565,
      "Ġcases": 6566,
      "ĠfÃ»t": 6567,
      "asion": 6568,
      "Ġhaven": 6569,
      "Ġgros": 6570,
      "Ġnotwithstanding": 6571,
      "ĠMarecha": 6572,
      "ifice": 6573,
      "Ġsuite": 6574,
      "outs": 6575,
      "Ġju": 6576,
      "Ġexting": 6577,
      "ĠCham": 6578,
      "iew": 6579,
      "Ġlies": 6580,
      "Ġpassions": 6581,
      "Ġexplo": 6582,
      "Ġincred": 6583,
      "Ġtremble": 6584,
      "Ġmetres": 6585,
      "Ġinsult": 6586,
      "ĠGrimaud": 6587,
      "Ġslee": 6588,
      "Ġmurde": 6589,
      "Ġdreamed": 6590,
      "Ġconsideration": 6591,
      "Ġfreely": 6592,
      "Ġcomfortable": 6593,
      "Ġpuzz": 6594,
      "Ġconclusion": 6595,
      "Ġurged": 6596,
      "Ġshuddered": 6597,
      "Ġascended": 6598,
      "Ġindifference": 6599,
      "Ġprofession": 6600,
      "Ġexceedingly": 6601,
      "Ġenthusiasm": 6602,
      "livier": 6603,
      "Ġajouta": 6604,
      "Ġdocument": 6605,
      "Ġextremity": 6606,
      "ĠHotel": 6607,
      "Fortunately": 6608,
      "hire": 6609,
      "rained": 6610,
      "vit": 6611,
      "Ġtables": 6612,
      "Ġdru": 6613,
      "Ġdiver": 6614,
      "Ġfain": 6615,
      "arch": 6616,
      "atched": 6617,
      "idable": 6618,
      "stead": 6619,
      "uries": 6620,
      "Ã©ri": 6621,
      "Ġabys": 6622,
      "ĠSainte": 6623,
      "Ġamount": 6624,
      "Ġroll": 6625,
      "Ġprepar": 6626,
      "Ġdownstairs": 6627,
      "ĠTemple": 6628,
      "Ġflash": 6629,
      "mbers": 6630,
      "Ġheartily": 6631,
      "rospect": 6632,
      "Ġcontinually": 6633,
      "Ġrefus": 6634,
      "Ġesteem": 6635,
      "Ġdischar": 6636,
      "Ġmots": 6637,
      "Ġbones": 6638,
      "Ġdriving": 6639,
      "Ġexamining": 6640,
      "iletti": 6641,
      "Ġsacred": 6642,
      "Ã©grel": 6643,
      "Ġrencont": 6644,
      "Ġmillions": 6645,
      "Ġpractice": 6646,
      "Gringoire": 6647,
      "Ġconnection": 6648,
      "Ġshelter": 6649,
      "Ġestablish": 6650,
      "Ġestablished": 6651,
      "Ġdisposition": 6652,
      "Ġindifferent": 6653,
      "Ġwithdrew": 6654,
      "Ġlamps": 6655,
      "Ġthoroughly": 6656,
      "Ġcorridor": 6657,
      "Ġmonstrous": 6658,
      "Ad": 6659,
      "Porthos": 6660,
      "back": 6661,
      "jud": 6662,
      "oil": 6663,
      "pers": 6664,
      "zed": 6665,
      "Ġcig": 6666,
      "Ġdig": 6667,
      "Ġdaring": 6668,
      "Ġpages": 6669,
      "Ġec": 6670,
      "Ġbeard": 6671,
      "step": 6672,
      "Ġugly": 6673,
      "Ġnotion": 6674,
      "Ġlace": 6675,
      "Ġfee": 6676,
      "Ġdogs": 6677,
      "Ġplenty": 6678,
      "Ġmoreover": 6679,
      "ĠGri": 6680,
      "abond": 6681,
      "Ġsomebody": 6682,
      "Ġperformed": 6683,
      "Ġremove": 6684,
      "Ġdug": 6685,
      "six": 6686,
      "ometer": 6687,
      "Ġchev": 6688,
      "Ġchannel": 6689,
      "Ġminds": 6690,
      "Ġkindly": 6691,
      "Ġreasonable": 6692,
      "Ġcomplex": 6693,
      "Ġcasta": 6694,
      "Ġpalace": 6695,
      "Another": 6696,
      "Ġbelly": 6697,
      "Ġpreparing": 6698,
      "Ġpipe": 6699,
      "Ġsystem": 6700,
      "Ġseparate": 6701,
      "ĠdonnÃ©": 6702,
      "Ġimpatient": 6703,
      "Ġmoral": 6704,
      "Ġreproach": 6705,
      "Ġendeavour": 6706,
      "Ġaudience": 6707,
      "ĠScot": 6708,
      "Ġtempest": 6709,
      "ĠChristian": 6710,
      "Ġridicule": 6711,
      "Ġambition": 6712,
      "Ġhammer": 6713,
      "Ġswallowed": 6714,
      "ĠGovern": 6715,
      "Ġunusual": 6716,
      "HI": 6717,
      "gen": 6718,
      "kin": 6719,
      "kers": 6720,
      "mar": 6721,
      "ught": 6722,
      "ĠOh": 6723,
      "Ġment": 6724,
      "enois": 6725,
      "Ġlosing": 6726,
      "Ġpause": 6727,
      "lem": 6728,
      "Ġwearing": 6729,
      "Ġstol": 6730,
      "Ġatro": 6731,
      "Ġleather": 6732,
      "Ġupright": 6733,
      "Ġexisted": 6734,
      "ĠCrois": 6735,
      "Ġuns": 6736,
      "ums": 6737,
      "ĠLouvre": 6738,
      "rymore": 6739,
      "Ġblaz": 6740,
      "ĠEst": 6741,
      "aired": 6742,
      "Ġends": 6743,
      "Ġtellement": 6744,
      "Ġinstance": 6745,
      "Ġregions": 6746,
      "Ġskiff": 6747,
      "Ġcolor": 6748,
      "Ġfacts": 6749,
      "Ġgreet": 6750,
      "Ġinterested": 6751,
      "Ġrequire": 6752,
      "ĠProvidence": 6753,
      "Ġpriests": 6754,
      "finite": 6755,
      "Ġsymp": 6756,
      "Ġsenses": 6757,
      "Ġenjoyed": 6758,
      "Ġerr": 6759,
      "Ġtranquill": 6760,
      "Ġembraced": 6761,
      "Ġpersuaded": 6762,
      "Ġdefend": 6763,
      "Ġembarrassed": 6764,
      "Ġcurtains": 6765,
      "Ġrepresent": 6766,
      "Moreover": 6767,
      "miral": 6768,
      "Ġvagabond": 6769,
      "Ġsublime": 6770,
      "ĠCroisenois": 6771,
      "ED": 6772,
      "Mathilde": 6773,
      "Tr": 6774,
      "Vous": 6775,
      "nÃ©e": 6776,
      "ok": 6777,
      "oin": 6778,
      "piece": 6779,
      "rim": 6780,
      "two": 6781,
      "who": 6782,
      "reuse": 6783,
      "Ġbars": 6784,
      "Ġbund": 6785,
      "isis": 6786,
      "enger": 6787,
      "Ġdil": 6788,
      "Ġdine": 6789,
      "Ġgrie": 6790,
      "Ġrese": 6791,
      "Ġreass": 6792,
      "Ġstout": 6793,
      "roll": 6794,
      "Ġshirt": 6795,
      "Ġshoot": 6796,
      "olt": 6797,
      "Ġenve": 6798,
      "ĠSea": 6799,
      "eling": 6800,
      "ĠLizzy": 6801,
      "ĠGasc": 6802,
      "abord": 6803,
      "Ġobjection": 6804,
      "Ġfriendly": 6805,
      "Ġconsult": 6806,
      "Ġsupplied": 6807,
      "Ġswim": 6808,
      "Ġ10": 6809,
      "Ġindul": 6810,
      "Ġsixteen": 6811,
      "Ġstepped": 6812,
      "ebru": 6813,
      "Ġobserv": 6814,
      "Ġprize": 6815,
      "Ġformidable": 6816,
      "Ġsunk": 6817,
      "Ġdispleas": 6818,
      "Ġcentral": 6819,
      "Ġcorrect": 6820,
      "Ġbreathe": 6821,
      "ĠItal": 6822,
      "Ġcorners": 6823,
      "Ġglasses": 6824,
      "Ġdivers": 6825,
      "Ġeffects": 6826,
      "Ġcompliment": 6827,
      "Ġwarmth": 6828,
      "ĠpremiÃ¨re": 6829,
      "Ġslip": 6830,
      "Ġeru": 6831,
      "ĠIndia": 6832,
      "Ġthreatening": 6833,
      "Ġvault": 6834,
      "ailleurs": 6835,
      "Ġprotest": 6836,
      "Ġphrases": 6837,
      "Ġswiftly": 6838,
      "Ġdisappointment": 6839,
      "ĠSansever": 6840,
      "ĠBelcher": 6841,
      "ĠÃ¢me": 6842,
      "Ġapparently": 6843,
      "ĠPierron": 6844,
      "ĠhÃ©ros": 6845,
      "Ġoverwhelmed": 6846,
      "Ġproportion": 6847,
      "Ġbosom": 6848,
      "Ġabominable": 6849,
      "Ġextingu": 6850,
      "ĠSanseverina": 6851,
      "ders": 6852,
      "Ġwounds": 6853,
      "Ġphen": 6854,
      "asper": 6855,
      "Ġheap": 6856,
      "Ġhaute": 6857,
      "ete": 6858,
      "Ġrue": 6859,
      "Ġvos": 6860,
      "text": 6861,
      "astro": 6862,
      "urel": 6863,
      "umps": 6864,
      "ĠSem": 6865,
      "ĠLoth": 6866,
      "ĠGre": 6867,
      "Ġdisd": 6868,
      "ĠRoman": 6869,
      "Ġcomprom": 6870,
      "Ġspecial": 6871,
      "ĠTour": 6872,
      "issait": 6873,
      "Ġmarch": 6874,
      "Ġretire": 6875,
      "Ġlights": 6876,
      "merald": 6877,
      "Ġgulf": 6878,
      "Ġsinguli": 6879,
      "lph": 6880,
      "Ġlanding": 6881,
      "Ġlively": 6882,
      "Ġcompleted": 6883,
      "Ġprovost": 6884,
      "Ġcastle": 6885,
      "Ġsolitary": 6886,
      "Ġsuperb": 6887,
      "Ġvessels": 6888,
      "Ġvaluable": 6889,
      "Ġdomin": 6890,
      "Ġodour": 6891,
      "Ġabandon": 6892,
      "Ġaddressing": 6893,
      "Ġirritated": 6894,
      "Ġmixed": 6895,
      "Ġlandlord": 6896,
      "ĠJacques": 6897,
      "Ġeducation": 6898,
      "ĠStapleton": 6899,
      "Accord": 6900,
      "bacco": 6901,
      "ebruary": 6902,
      "ĠLothian": 6903,
      "?--": 6904,
      "Could": 6905,
      "heart": 6906,
      "Ġacted": 6907,
      "Ġfi": 6908,
      "Ġhut": 6909,
      "Ġwhither": 6910,
      "Ġmead": 6911,
      "ores": 6912,
      "resc": 6913,
      "thy": 6914,
      "ossip": 6915,
      "Ġalarmed": 6916,
      "ĠPe": 6917,
      "urely": 6918,
      "ĠLet": 6919,
      "Ġetre": 6920,
      "ĠJust": 6921,
      "Ġdisaster": 6922,
      "Ġdescent": 6923,
      "avais": 6924,
      "Ġshaken": 6925,
      "Ġadvers": 6926,
      "Ġcanv": 6927,
      "Ġcompagn": 6928,
      "Ġstrangers": 6929,
      "Ġresign": 6930,
      "Ġglit": 6931,
      "ĠWilson": 6932,
      "Ġsilently": 6933,
      "Ġrestored": 6934,
      "Ġfourth": 6935,
      "Ġmetal": 6936,
      "Ġsubs": 6937,
      "ĠHeights": 6938,
      "Ġbeds": 6939,
      "Ġsecured": 6940,
      "Ġsails": 6941,
      "Ġdisposed": 6942,
      "Ġactive": 6943,
      "Ġactions": 6944,
      "Ġdrift": 6945,
      "Ġstarting": 6946,
      "Ġsalt": 6947,
      "Ġhumanity": 6948,
      "Ġinquire": 6949,
      "Ġchairs": 6950,
      "Ġneighbours": 6951,
      "Ġbasket": 6952,
      "Near": 6953,
      "Next": 6954,
      "Ġodd": 6955,
      "Among": 6956,
      "Ġseulement": 6957,
      "Ġdetective": 6958,
      "Ġnorthern": 6959,
      "Ġcomprehend": 6960,
      "ĠJanuary": 6961,
      "Ġchevaux": 6962,
      "meralda": 6963,
      "Ayrton": 6964,
      "Phileas": 6965,
      "Tow": 6966,
      "Ġ8": 6967,
      "Ġmild": 6968,
      "enz": 6969,
      "Ġfan": 6970,
      "Ġtos": 6971,
      "Ġtobacco": 6972,
      "Ġpred": 6973,
      "Ġpall": 6974,
      "orious": 6975,
      "lez": 6976,
      "Ġweighed": 6977,
      "Ġsupre": 6978,
      "cts": 6979,
      "Ġupset": 6980,
      "ula": 6981,
      "olÃ©": 6982,
      "ĠProspect": 6983,
      "Ġhanded": 6984,
      "Ġbois": 6985,
      "Ã©taient": 6986,
      "Ġscorn": 6987,
      "Ġregiment": 6988,
      "Ġlarger": 6989,
      "Ġouv": 6990,
      "Ġsouvent": 6991,
      "Ġsteel": 6992,
      "Ġpersonal": 6993,
      "grÃ©": 6994,
      "Ġconstru": 6995,
      "Ġbreathed": 6996,
      "Ġsatisfy": 6997,
      "Ġsharply": 6998,
      "Ġburned": 6999,
      "Ġobstacle": 7000,
      "Ġbeaten": 7001,
      "Ġnouveau": 7002,
      "asping": 7003,
      "ĠMayor": 7004,
      "Ġhitherto": 7005,
      "Ġsupreme": 7006,
      ".)": 7007,
      "Pe": 7008,
      "ived": 7009,
      "oll": 7010,
      "Ġsink": 7011,
      "rep": 7012,
      "ĠmÃ¨re": 7013,
      "Ġcu": 7014,
      "Ġdict": 7015,
      "Ġfow": 7016,
      "Ġfare": 7017,
      "Ġflock": 7018,
      "Ġlone": 7019,
      "llis": 7020,
      "Ġhel": 7021,
      "Ġhaz": 7022,
      "atory": 7023,
      "omfort": 7024,
      "ldom": 7025,
      "verse": 7026,
      "Ġweigh": 7027,
      "Ġvue": 7028,
      "antes": 7029,
      "alled": 7030,
      "Ġjoke": 7031,
      "Ġtrous": 7032,
      "elly": 7033,
      "Ġagitation": 7034,
      "Ġbruit": 7035,
      "Ġdiss": 7036,
      "udge": 7037,
      "ĠNove": 7038,
      "Ġobv": 7039,
      "Ġresc": 7040,
      "Ġbacks": 7041,
      "Ġlettres": 7042,
      "ĠTabor": 7043,
      "Ġwinds": 7044,
      "Ġnights": 7045,
      "Ġconfined": 7046,
      "Ġincon": 7047,
      "Ġdepri": 7048,
      "ĠGrand": 7049,
      "Ġeffet": 7050,
      "Ġrespectable": 7051,
      "Ġvolume": 7052,
      "Ġhungry": 7053,
      "Ġlackeys": 7054,
      "Ġpreserve": 7055,
      "Ġamiable": 7056,
      "Ġreserved": 7057,
      "Ġrepresented": 7058,
      "Ġcraft": 7059,
      "Ġhypoc": 7060,
      "Ġangel": 7061,
      "Maheu": 7062,
      "Ġscholar": 7063,
      "Ġexercise": 7064,
      "utenant": 7065,
      "Ġadventures": 7066,
      "ĠAtlantic": 7067,
      "Ġphenomen": 7068,
      "ĠNovember": 7069,
      "Again": 7070,
      "Conseil": 7071,
      "ET": 7072,
      "Im": 7073,
      "Meaulnes": 7074,
      "bers": 7075,
      "ials": 7076,
      "kind": 7077,
      "rs": 7078,
      "sing": 7079,
      "wel": 7080,
      "yl": 7081,
      "your": 7082,
      "ĠOn": 7083,
      "Ġicy": 7084,
      "Ġax": 7085,
      "inst": 7086,
      "Ġtheatre": 7087,
      "Ġoil": 7088,
      "ĠbientÃ´t": 7089,
      "enÃ§": 7090,
      "Ġdur": 7091,
      "Ġdate": 7092,
      "Ġpush": 7093,
      "ashes": 7094,
      "llers": 7095,
      "Ġholes": 7096,
      "Ġhaught": 7097,
      "Ġbending": 7098,
      "Ġwasn": 7099,
      "Ġram": 7100,
      "Ġnotes": 7101,
      "Ġseldom": 7102,
      "Ġsugar": 7103,
      "Ġshiver": 7104,
      "Ġexasper": 7105,
      "osition": 7106,
      "ulations": 7107,
      "Ġfeast": 7108,
      "ustri": 7109,
      "Ġtrunk": 7110,
      "ĠAxel": 7111,
      "Ġshake": 7112,
      "Ġimpert": 7113,
      "Ġscen": 7114,
      "Ġteach": 7115,
      "Ġharsh": 7116,
      "Ġinfam": 7117,
      "Ġreadily": 7118,
      "Ġgenius": 7119,
      "Ġthousands": 7120,
      "Ġirres": 7121,
      "Ġpromen": 7122,
      "Ġburnt": 7123,
      "Quasimodo": 7124,
      "Ġaccompany": 7125,
      "Ġstudied": 7126,
      "Ġcomplaint": 7127,
      "Ġremaining": 7128,
      "Ġviews": 7129,
      "ĠYork": 7130,
      "Ġaccordingly": 7131,
      "Ġdescription": 7132,
      "Ġbecomes": 7133,
      "Ġamidst": 7134,
      "Ġdimin": 7135,
      "ĠSeine": 7136,
      "Ġwandering": 7137,
      "See": 7138,
      "Ġphrase": 7139,
      "Ġelbow": 7140,
      "Ġseventy": 7141,
      "Ġrecommend": 7142,
      "Ġstifled": 7143,
      "ĠfenÃªtre": 7144,
      "Ġreminded": 7145,
      "occup": 7146,
      "Ġfeeble": 7147,
      "Ġsympath": 7148,
      "ĠSeminary": 7149,
      "fell": 7150,
      "father": 7151,
      "ograp": 7152,
      "ras": 7153,
      "Ġcook": 7154,
      "Ġfins": 7155,
      "Ġbelt": 7156,
      "Ġforbid": 7157,
      "ĠMicha": 7158,
      "alls": 7159,
      "ational": 7160,
      "ĠAm": 7161,
      "ĠLi": 7162,
      "ĠGiletti": 7163,
      "Ġdisag": 7164,
      "ĠRoy": 7165,
      "aret": 7166,
      "ĠchÃ¢teau": 7167,
      "Ġpassait": 7168,
      "Ġpassages": 7169,
      "angle": 7170,
      "Ġcrou": 7171,
      "Ġimpl": 7172,
      "iennes": 7173,
      "ĠcommenÃ§": 7174,
      "ggist": 7175,
      "Which": 7176,
      "Ġinsisted": 7177,
      "Ġcolony": 7178,
      "Ġprompt": 7179,
      "Ã¢me": 7180,
      "Ġthirst": 7181,
      "chait": 7182,
      "Ġredoub": 7183,
      "Ġembro": 7184,
      "appro": 7185,
      "Ġobjects": 7186,
      "Ġimprison": 7187,
      "Ġlackey": 7188,
      "Ġmissed": 7189,
      "Ġattentively": 7190,
      "Ġsuggested": 7191,
      "Ġamazement": 7192,
      "Ġprocession": 7193,
      "Ġmachine": 7194,
      "ĠEsmeralda": 7195,
      "ĠExcell": 7196,
      "Ġdisorder": 7197,
      "Ġceremony": 7198,
      "Ġwrapped": 7199,
      "Shall": 7200,
      "THE": 7201,
      "rant": 7202,
      "Ġtiny": 7203,
      "Ġai": 7204,
      "itor": 7205,
      "Ġblo": 7206,
      "Ġlane": 7207,
      "Ġhorn": 7208,
      "anche": 7209,
      "Ġere": 7210,
      "Ġgates": 7211,
      "ether": 7212,
      "Ġrud": 7213,
      "Ġanc": 7214,
      "Ġwheels": 7215,
      "ĠBay": 7216,
      "Ġadress": 7217,
      "Ġpretext": 7218,
      "Thr": 7219,
      "Ġcontact": 7220,
      "Ġscient": 7221,
      "everal": 7222,
      "ensive": 7223,
      "Ġharness": 7224,
      "Ġarmchair": 7225,
      "Ġcontinent": 7226,
      "Ġgentlewoman": 7227,
      "Ġestim": 7228,
      "Ġveil": 7229,
      "Ġforever": 7230,
      "Ġhearth": 7231,
      "Ġtempt": 7232,
      "rooms": 7233,
      "Ġawake": 7234,
      "Ġtrial": 7235,
      "Ġeighteen": 7236,
      "Ġrule": 7237,
      "Ġcatastro": 7238,
      "Ġedifice": 7239,
      "Ġpainted": 7240,
      "Ġvenir": 7241,
      "Ġpassionate": 7242,
      "Ġtorment": 7243,
      "Ġballs": 7244,
      "Ġfairly": 7245,
      "Ġcomplain": 7246,
      "Ġfemmes": 7247,
      "Ġattempted": 7248,
      "Ġheavens": 7249,
      "Ġcellar": 7250,
      "Ġlodging": 7251,
      "Ġbranch": 7252,
      "Ġwandered": 7253,
      "Ġvigorous": 7254,
      "eneral": 7255,
      "Ġaurait": 7256,
      "Ġorigin": 7257,
      "ĠEdie": 7258,
      "Ġplaisir": 7259,
      "ĠPhil": 7260,
      "Ġpasseport": 7261,
      "Ġdruggist": 7262,
      ").": 7263,
      "leness": 7264,
      "Ġ9": 7265,
      "ĠâĢĶ": 7266,
      "Ġtale": 7267,
      "Ġsche": 7268,
      "Ġsilly": 7269,
      "enb": 7270,
      "Ġfasc": 7271,
      "Ġpits": 7272,
      "aning": 7273,
      "irts": 7274,
      "vert": 7275,
      "ilight": 7276,
      "ilies": 7277,
      "ulating": 7278,
      "ĠCacambo": 7279,
      "ĠCresc": 7280,
      "ĠLow": 7281,
      "ĠFebruary": 7282,
      "Ġcrust": 7283,
      "Ġconsul": 7284,
      "Ġappl": 7285,
      "Ġincome": 7286,
      "Ã©cile": 7287,
      "Ġgenus": 7288,
      "Ġgenuine": 7289,
      "Ġhumour": 7290,
      "Ġpersonage": 7291,
      "Ġraison": 7292,
      "Ġremembr": 7293,
      "Ġsoldats": 7294,
      "Ġpatron": 7295,
      "Alice": 7296,
      "ĠEnglishman": 7297,
      "Ġprecaution": 7298,
      "Ġpaused": 7299,
      "Ġtravel": 7300,
      "iterranean": 7301,
      "Ġcostume": 7302,
      "Neither": 7303,
      "Ġuttering": 7304,
      "Ġdeny": 7305,
      "Ġcounsel": 7306,
      "Ġsinking": 7307,
      "Ġembrace": 7308,
      "Ġdebt": 7309,
      "Ġintimate": 7310,
      "Ġmagistr": 7311,
      "Ġdistinctly": 7312,
      "Ġcheerful": 7313,
      "ĠdÃ©jÃł": 7314,
      "hibit": 7315,
      "Ġstupefied": 7316,
      "Ġconsidering": 7317,
      "ĠWilliam": 7318,
      "Ġbundle": 7319,
      "enzi": 7320,
      "ĠCrescenzi": 7321,
      "Bet": 7322,
      "iving": 7323,
      "pool": 7324,
      "Ġtard": 7325,
      "Ġsie": 7326,
      "onville": 7327,
      "Ġlust": 7328,
      "Ġpian": 7329,
      "alt": 7330,
      "Ġstuck": 7331,
      "Ġsees": 7332,
      "Ġvrai": 7333,
      "Ġquitted": 7334,
      "usions": 7335,
      "Ġcomrade": 7336,
      "ĠCross": 7337,
      "Ġmans": 7338,
      "ĠPont": 7339,
      "irent": 7340,
      "ĠNether": 7341,
      "Ġcanoe": 7342,
      "Ġfog": 7343,
      "Ġserge": 7344,
      "Ġcarri": 7345,
      "Ġattracted": 7346,
      "Ġcommence": 7347,
      "Ġworkers": 7348,
      "Ġveux": 7349,
      "Ġwarn": 7350,
      "grat": 7351,
      "Ġdecide": 7352,
      "buted": 7353,
      "Ġmeanwhile": 7354,
      "Ġinvitation": 7355,
      "ibly": 7356,
      "Ġsalon": 7357,
      "Ġrecognize": 7358,
      "Ġprecisely": 7359,
      "Ġforgetting": 7360,
      "Ġsuccession": 7361,
      "ĠXX": 7362,
      "Ġconfessed": 7363,
      "Ġpockets": 7364,
      "ology": 7365,
      "Ġcommander": 7366,
      "Ġgestures": 7367,
      "ĠdÃ©sespoir": 7368,
      "Ġfirmly": 7369,
      "Ġrespond": 7370,
      "Ġpossibility": 7371,
      "Ġproposal": 7372,
      "Ġinquiry": 7373,
      "Ġoriginal": 7374,
      "ĠRouen": 7375,
      "Ġingen": 7376,
      "ĠMediterranean": 7377,
      "Ġeggs": 7378,
      "Towards": 7379,
      "ĠNetherfield": 7380,
      "Fix": 7381,
      "Several": 7382,
      "Une": 7383,
      "honne": 7384,
      "ipe": 7385,
      "met": 7386,
      "moi": 7387,
      "von": 7388,
      "Ã¦": 7389,
      "Ġsource": 7390,
      "Ġcared": 7391,
      "Ġtore": 7392,
      "Ġpage": 7393,
      "Ġnails": 7394,
      "Ġniece": 7395,
      "atured": 7396,
      "utions": 7397,
      "Ġstove": 7398,
      "Ġattended": 7399,
      "ama": 7400,
      "Ġleis": 7401,
      "Ġlequel": 7402,
      "isting": 7403,
      "unted": 7404,
      "inder": 7405,
      "apan": 7406,
      "ĠSherlock": 7407,
      "Ġprim": 7408,
      "ĠFa": 7409,
      "Ġtwilight": 7410,
      "ĠgrÃ¢ce": 7411,
      "Ġthence": 7412,
      "Ġqueer": 7413,
      "Ġbeforehand": 7414,
      "ords": 7415,
      "Ġseries": 7416,
      "Ġmarks": 7417,
      "ĠmarÃ©c": 7418,
      "Ġflowing": 7419,
      "Ġglanced": 7420,
      "Ġcapit": 7421,
      "enses": 7422,
      "Ġinfer": 7423,
      "Ġsouver": 7424,
      "Ġsteal": 7425,
      "Ġlaying": 7426,
      "Ġsigned": 7427,
      "Ġabsent": 7428,
      "Ġmilk": 7429,
      "Ġadmired": 7430,
      "Ġawakened": 7431,
      "Ġstrongly": 7432,
      "shire": 7433,
      "Ġevidence": 7434,
      "Ġconducted": 7435,
      "Ġintelligent": 7436,
      "Ġpoliteness": 7437,
      "Ġignorance": 7438,
      "Ġtraversed": 7439,
      "Ġexchange": 7440,
      "Ġfisher": 7441,
      "Ġassassin": 7442,
      "Ġprolonged": 7443,
      "Ġcanvas": 7444,
      "Ġlonely": 7445,
      "Both": 7446,
      "Dans": 7447,
      "Felton": 7448,
      "ike": 7449,
      "rated": 7450,
      "Ã¯": 7451,
      "Ġtin": 7452,
      "Ġtut": 7453,
      "headed": 7454,
      "rebber": 7455,
      "ouche": 7456,
      "Ġbail": 7457,
      "Ġdense": 7458,
      "atives": 7459,
      "Ġonto": 7460,
      "etre": 7461,
      "Ġrude": 7462,
      "Ġrushing": 7463,
      "Ġquelle": 7464,
      "ardinal": 7465,
      "Ġshrie": 7466,
      "ĠBrit": 7467,
      "--'": 7468,
      "ĠLied": 7469,
      "Ġbrist": 7470,
      "Ġanywhere": 7471,
      "Ġaper": 7472,
      "Ġparish": 7473,
      "ĠÃ©tr": 7474,
      "Ġpourrait": 7475,
      "Ġthroughout": 7476,
      "ĠWh": 7477,
      "Ġchemin": 7478,
      "Ġdevait": 7479,
      "Ġincap": 7480,
      "Ġfourteen": 7481,
      "ĠmaÃ®": 7482,
      "Ã©par": 7483,
      "Ġwarned": 7484,
      "Ġdetail": 7485,
      "Ġdeeper": 7486,
      "Ġdrops": 7487,
      "Ġimagin": 7488,
      "Ġimmediate": 7489,
      "Ġreflect": 7490,
      "Ġclimb": 7491,
      "Ġcollar": 7492,
      "Ġwretches": 7493,
      "Ġamazed": 7494,
      "aturday": 7495,
      "Ġdismiss": 7496,
      "Ġenclosure": 7497,
      "Ġrigid": 7498,
      "ĠAdmiral": 7499,
      "Ġappointed": 7500,
      "ĠLucas": 7501,
      "honneur": 7502,
      "ĠmaÃ®tres": 7503,
      ".âĢĶ": 7504,
      "Hence": 7505,
      "OM": 7506,
      "hour": 7507,
      "natural": 7508,
      "tr": 7509,
      "tant": 7510,
      "Ġtest": 7511,
      "Ġtun": 7512,
      "Ġoak": 7513,
      "Ġowed": 7514,
      "itz": 7515,
      "Ġbench": 7516,
      "isse": 7517,
      "Ġpains": 7518,
      "Ġpoured": 7519,
      "asy": 7520,
      "Ġhound": 7521,
      "Ġink": 7522,
      "Ġdeven": 7523,
      "Ġstable": 7524,
      "Ġsending": 7525,
      "Ġvive": 7526,
      "Ġsobs": 7527,
      "Ġsheets": 7528,
      "Ġextend": 7529,
      "ĠChan": 7530,
      "Ġenl": 7531,
      "Ġalt": 7532,
      "Ġmanif": 7533,
      "ĠSouth": 7534,
      "Ġrode": 7535,
      "ĠJames": 7536,
      "Ġreprit": 7537,
      "Ġboil": 7538,
      "Ġeyel": 7539,
      "Ġgoodness": 7540,
      "Ġparaly": 7541,
      "Ġbackward": 7542,
      "Ġavons": 7543,
      "Ġendless": 7544,
      "Ġsentin": 7545,
      "ĠGrant": 7546,
      "Ġhumili": 7547,
      "Ġobserving": 7548,
      "Ġgrands": 7549,
      "Ġmilitary": 7550,
      "Ġexclam": 7551,
      "ndez": 7552,
      "Ġmalheur": 7553,
      "Ġheavily": 7554,
      "Ġdreaming": 7555,
      "Ġartist": 7556,
      "Ġtravelling": 7557,
      "ĠBarrymore": 7558,
      "Ġpeaceful": 7559,
      "Ġroofs": 7560,
      "Ġnombre": 7561,
      "lopin": 7562,
      "Ġembarrassment": 7563,
      "Ġrevenge": 7564,
      "ĠNorth": 7565,
      "Marguerite": 7566,
      "Ġardent": 7567,
      "Ġinspired": 7568,
      "dessus": 7569,
      "Ġgravity": 7570,
      "ĠFranklin": 7571,
      "Ġabyss": 7572,
      "Ġstolen": 7573,
      "enbrock": 7574,
      "ĠLiedenbrock": 7575,
      "Hans": 7576,
      "aved": 7577,
      "awn": 7578,
      "apped": 7579,
      "bes": 7580,
      "iven": 7581,
      "van": 7582,
      "Ġmains": 7583,
      "Ġbout": 7584,
      "Ġborne": 7585,
      "Ġdangers": 7586,
      "Ġtoilet": 7587,
      "Ġpushing": 7588,
      "ari": 7589,
      "Ġgor": 7590,
      "utch": 7591,
      "iron": 7592,
      "Ġrows": 7593,
      "Ġvint": 7594,
      "agg": 7595,
      "ands": 7596,
      "Ġcongrat": 7597,
      "Ġjur": 7598,
      "Ġdoit": 7599,
      "Ġdoct": 7600,
      "uns": 7601,
      "ĠPer": 7602,
      "apt": 7603,
      "gellis": 7604,
      "ĠBra": 7605,
      "Ġagony": 7606,
      "ĠHope": 7607,
      "Ġroar": 7608,
      "Ġloving": 7609,
      "Ġintox": 7610,
      "Ġlongue": 7611,
      "Ġperf": 7612,
      "ĠEh": 7613,
      "Ġcrimes": 7614,
      "Ġcapt": 7615,
      "rente": 7616,
      "bear": 7617,
      "ĠVen": 7618,
      "Ġdevotion": 7619,
      "upon": 7620,
      "Ġengagement": 7621,
      "Ġ13": 7622,
      "azin": 7623,
      "Ġskull": 7624,
      "ceptible": 7625,
      "Ġrecover": 7626,
      "Ġhuss": 7627,
      "Ġillness": 7628,
      "Ġruins": 7629,
      "....": 7630,
      "Ġcathedral": 7631,
      "box": 7632,
      "Ġsadness": 7633,
      "ĠTregellis": 7634,
      "Ġmemories": 7635,
      "Ġstruggled": 7636,
      "Ġbasin": 7637,
      "ologne": 7638,
      "Ġproperly": 7639,
      "Ġpunishment": 7640,
      "ĠSeurel": 7641,
      "ĠNaples": 7642,
      "Ġarticles": 7643,
      "anÃ§ais": 7644,
      "Ġresembled": 7645,
      "Ġ...'": 7646,
      "Ġjacket": 7647,
      "Ġpirates": 7648,
      "Ġscandal": 7649,
      "Ã´tel": 7650,
      "Ġgouverneur": 7651,
      "Ġdisdain": 7652,
      "Ġtrousers": 7653,
      "Ġdisagree": 7654,
      "ĠmarÃ©chal": 7655,
      "Has": 7656,
      "Little": 7657,
      "aul": 7658,
      "ncy": 7659,
      "oard": 7660,
      "inth": 7661,
      "inaire": 7662,
      "Ġsinc": 7663,
      "ĠsÃ©rie": 7664,
      "Ġoars": 7665,
      "hab": 7666,
      "Ġmate": 7667,
      "Ġdip": 7668,
      "orously": 7669,
      "Ġreef": 7670,
      "Ġrom": 7671,
      "ĠrÃ©c": 7672,
      "Ã©l": 7673,
      "agers": 7674,
      "Ġsuitable": 7675,
      "ouss": 7676,
      "Ġconcent": 7677,
      "Ġshill": 7678,
      "Ġjaws": 7679,
      "ĠCor": 7680,
      "unks": 7681,
      "Ġtrot": 7682,
      "ĠtrÃ¨s": 7683,
      "ĠLest": 7684,
      "ĠFouque": 7685,
      "Ġmoist": 7686,
      "ĠJune": 7687,
      "Ġperse": 7688,
      "raham": 7689,
      "ĠDrebber": 7690,
      "Ġresume": 7691,
      "ancer": 7692,
      "ĠTo": 7693,
      "Ġsmith": 7694,
      "Ġappearing": 7695,
      "Ġdistri": 7696,
      "ĠÃ©tonn": 7697,
      "ailing": 7698,
      "ivity": 7699,
      "Ġcertainty": 7700,
      "Ġfollows": 7701,
      "Ġswore": 7702,
      "Ġworkmen": 7703,
      "licable": 7704,
      "ĠOlivier": 7705,
      "gues": 7706,
      "Ġdiscour": 7707,
      "Ġredd": 7708,
      "Ġbrothers": 7709,
      "vaques": 7710,
      "Ġdespite": 7711,
      "Ġmouths": 7712,
      "Ġmalheureux": 7713,
      "Ġcrowded": 7714,
      "ĠYonville": 7715,
      "Ġchercher": 7716,
      "Ġhiding": 7717,
      "Ġloudly": 7718,
      "Ġconviction": 7719,
      "Ġplantation": 7720,
      "ĠprÃ©sence": 7721,
      "Ġgleam": 7722,
      "Ġeldest": 7723,
      "Ġwhales": 7724,
      "Ġreserve": 7725,
      "Ġarticle": 7726,
      "Ġspecimens": 7727,
      "Ġecho": 7728,
      "Ġextinguished": 7729,
      "Ġincapable": 7730,
      "eux": 7731,
      "gate": 7732,
      "ige": 7733,
      "iated": 7734,
      "nant": 7735,
      "table": 7736,
      "Ġslop": 7737,
      "Ġthee": 7738,
      "Ġox": 7739,
      "Ġbatter": 7740,
      "Ġcad": 7741,
      "Ġcant": 7742,
      "Ġfists": 7743,
      "Ġpiled": 7744,
      "Ġintend": 7745,
      "Ġhaul": 7746,
      "atus": 7747,
      "Ġreward": 7748,
      "Ġont": 7749,
      "irmed": 7750,
      "ousquet": 7751,
      "Ġaller": 7752,
      "Ġjury": 7753,
      "ulars": 7754,
      "Ġlibert": 7755,
      "Ġunl": 7756,
      "Ġunivers": 7757,
      "Ġenr": 7758,
      "ĠSaturday": 7759,
      "ĠBomb": 7760,
      "Ġgod": 7761,
      "Ġtwisted": 7762,
      "Ġcoff": 7763,
      "Ġcovering": 7764,
      "Ġmode": 7765,
      "ĠJack": 7766,
      "ĠRos": 7767,
      "Ġcanal": 7768,
      "Ġclub": 7769,
      "Ġafterward": 7770,
      "Ġparole": 7771,
      "autions": 7772,
      "Ġcependant": 7773,
      "Ġflut": 7774,
      "Ġdiff": 7775,
      "ĠGrace": 7776,
      "Ġvisited": 7777,
      "Ġjournal": 7778,
      "Ġplacing": 7779,
      "nothing": 7780,
      "Ġwarning": 7781,
      "Ġcoldly": 7782,
      "oleon": 7783,
      "Ġpetits": 7784,
      "Ġmerit": 7785,
      "Ġgardens": 7786,
      "Ġstronger": 7787,
      "Ġsuspended": 7788,
      "Ġpatient": 7789,
      "ĠBonnem": 7790,
      "Ġdirections": 7791,
      "Ġsavait": 7792,
      "Ġbatt": 7793,
      "ĠIslands": 7794,
      "Ġprepare": 7795,
      "Ġdivine": 7796,
      "Ġgravely": 7797,
      "Ġdifficulties": 7798,
      "Ġnewsp": 7799,
      "ristan": 7800,
      "Ġutterly": 7801,
      "Ġvictory": 7802,
      "Ġmeasured": 7803,
      "Ġsmoking": 7804,
      "Ġenvoy": 7805,
      "Ġrespons": 7806,
      "ĠFerrier": 7807,
      "Ġnouvelle": 7808,
      "Ġawaited": 7809,
      "Ġaucune": 7810,
      "Ġweapon": 7811,
      "Thank": 7812,
      "Ġpanting": 7813,
      "ĠvÃ©ritÃ©": 7814,
      "Ġcriminal": 7815,
      "Ġacknowledged": 7816,
      "Ġexcursion": 7817,
      "Ġmoyen": 7818,
      "Ġirresist": 7819,
      "ĠFaust": 7820,
      "ĠBonnemort": 7821,
      "Catherine": 7822,
      "Lys": 7823,
      "Out": 7824,
      "gne": 7825,
      "host": 7826,
      "rows": 7827,
      "upp": 7828,
      "Ġsorte": 7829,
      "ĠdÃ¨s": 7830,
      "Ġnap": 7831,
      "Ġinex": 7832,
      "icip": 7833,
      "otes": 7834,
      "stone": 7835,
      "acre": 7836,
      "rily": 7837,
      "roit": 7838,
      "Ġvest": 7839,
      "Ġvient": 7840,
      "ifying": 7841,
      "Ġconject": 7842,
      "allel": 7843,
      "ĠAf": 7844,
      "Ġafar": 7845,
      "Ġdesires": 7846,
      "Ġshaw": 7847,
      "Ġthrong": 7848,
      "Ġcargo": 7849,
      "Ġglory": 7850,
      "Ġappet": 7851,
      "lease": 7852,
      "Ġdoubted": 7853,
      "Ġsimp": 7854,
      "Ġfuriously": 7855,
      "ĠKong": 7856,
      "Ġstands": 7857,
      "bourg": 7858,
      "ĠdÃ©f": 7859,
      "Ġoblig": 7860,
      "Ġanimated": 7861,
      "Ġinvest": 7862,
      "Ġexamination": 7863,
      "Ġ20": 7864,
      "Ġsavoir": 7865,
      "eorg": 7866,
      "phy": 7867,
      "Ġmortal": 7868,
      "ĠGulf": 7869,
      "Ġcollected": 7870,
      "Ġplanted": 7871,
      "Ġparlour": 7872,
      "Ġprevious": 7873,
      "Ġprevailed": 7874,
      "Ġtransports": 7875,
      "Ġrejoined": 7876,
      "Ġpierced": 7877,
      "Ġearnestly": 7878,
      "Ġobstinate": 7879,
      "regular": 7880,
      "Ġprodigious": 7881,
      "Ġreappeared": 7882,
      "Ġcomplexion": 7883,
      "Ġsouverain": 7884,
      "ousqueton": 7885,
      "ĠBombay": 7886,
      "Give": 7887,
      "Gideon": 7888,
      "lus": 7889,
      "nor": 7890,
      "Ġtres": 7891,
      "Ġsway": 7892,
      "Ġsco": 7893,
      "Ġwax": 7894,
      "had": 7895,
      "erity": 7896,
      "Ġbishop": 7897,
      "enf": 7898,
      "Ġcaut": 7899,
      "Ġdess": 7900,
      "Ġfaded": 7901,
      "onour": 7902,
      "estern": 7903,
      "arri": 7904,
      "othes": 7905,
      "idÃ©e": 7906,
      "Ġseize": 7907,
      "ĠCe": 7908,
      "ĠCr": 7909,
      "Ġaltered": 7910,
      "apes": 7911,
      "Ġaboard": 7912,
      "assed": 7913,
      "Ġcopper": 7914,
      "ĠJapan": 7915,
      "Ġadorn": 7916,
      "Ġchain": 7917,
      "Ġchamp": 7918,
      "Ġpartly": 7919,
      "inkled": 7920,
      "Ġmighty": 7921,
      "Ġcarved": 7922,
      "Ġthinks": 7923,
      "Ġgets": 7924,
      "Ġdonne": 7925,
      "Ġcommit": 7926,
      "Ġgiant": 7927,
      "lication": 7928,
      "Ġuncertain": 7929,
      "Ġbelieving": 7930,
      "Ġnative": 7931,
      "Ġslender": 7932,
      "Ġirregular": 7933,
      "Ġforeign": 7934,
      "Ġbarbar": 7935,
      "Ġdecision": 7936,
      "Ġrelate": 7937,
      "Ġcreated": 7938,
      "Ġparticulars": 7939,
      "ussit": 7940,
      "Ġprecip": 7941,
      "Ġpulling": 7942,
      "Ġsearched": 7943,
      "Ġyielding": 7944,
      "Ġarguments": 7945,
      "Ġpenetrated": 7946,
      "Ġcalculated": 7947,
      "Ġauthority": 7948,
      "Ġrevealed": 7949,
      "Ġexecutioner": 7950,
      "Ġphysical": 7951,
      "Ġemerged": 7952,
      "Ġannoyed": 7953,
      "Ġaucun": 7954,
      "Ġhalted": 7955,
      "Ġunpleas": 7956,
      "Ġmariage": 7957,
      "ĠAbraham": 7958,
      "ĠAustria": 7959,
      "Ġqualities": 7960,
      "Ġmaterial": 7961,
      "Ġunconscious": 7962,
      "ĠRobin": 7963,
      "Ġhaughty": 7964,
      "Ġpiano": 7965,
      "ĠmaÃ®tresse": 7966,
      "ĠFausta": 7967,
      "CE": 7968,
      "Under": 7969,
      "mol": 7970,
      "milly": 7971,
      "oci": 7972,
      "rot": 7973,
      "rÃ©e": 7974,
      "Ġtub": 7975,
      "Ġsons": 7976,
      "ouille": 7977,
      "Ġmart": 7978,
      "Ġbust": 7979,
      "Ġling": 7980,
      "asm": 7981,
      "orable": 7982,
      "Ġnest": 7983,
      "Ġeux": 7984,
      "Ġbeings": 7985,
      "icular": 7986,
      "urg": 7987,
      "verty": 7988,
      "ayed": 7989,
      "Ġroused": 7990,
      "Ġweep": 7991,
      "riar": 7992,
      "ĠMon": 7993,
      "Ġneat": 7994,
      "ĠCal": 7995,
      "ĠCardinal": 7996,
      "Ġmanager": 7997,
      "urer": 7998,
      "Ġtram": 7999,
      "Ġtrav": 8000,
      "uming": 8001,
      "Ġoutl": 8002,
      "ĠSon": 8003,
      "ĠAvon": 8004,
      "Ġintr": 8005,
      "ĠLu": 8006,
      "Ġrepose": 8007,
      "Ġpoverty": 8008,
      "ressing": 8009,
      "Ġblushed": 8010,
      "Ġcompte": 8011,
      "osemilly": 8012,
      "Ġstrict": 8013,
      "Ġvoil": 8014,
      "Ġretr": 8015,
      "Ġglances": 8016,
      "Ġacid": 8017,
      "Ġarriving": 8018,
      "Ġhunt": 8019,
      "Ġforming": 8020,
      "Ġquestioned": 8021,
      "Ġmadness": 8022,
      "Ġcatching": 8023,
      "Ġmaintained": 8024,
      "Ġinterests": 8025,
      "Ġpitch": 8026,
      "Ġfemale": 8027,
      "Ġplanks": 8028,
      "Ġstruggling": 8029,
      "Ġmarrying": 8030,
      "Ġprayers": 8031,
      "Ġbuildings": 8032,
      "Ġmodest": 8033,
      "Ġconnected": 8034,
      "Ġfiery": 8035,
      "ĠChelan": 8036,
      "Ġrobber": 8037,
      "Ġborder": 8038,
      "Ġrecollection": 8039,
      "Ġcoolness": 8040,
      "Ġreckoned": 8041,
      "Ġmodern": 8042,
      "uminous": 8043,
      "Ġweapons": 8044,
      "Ġgaiety": 8045,
      "Ġassurance": 8046,
      "Ġvalley": 8047,
      "ĠMichaud": 8048,
      "ĠExcellence": 8049,
      "Roland": 8050,
      "TI": 8051,
      "eys": 8052,
      "och": 8053,
      "hered": 8054,
      "Ġwave": 8055,
      "Ġoub": 8056,
      "Ġbone": 8057,
      "Ġbab": 8058,
      "enard": 8059,
      "Ġcass": 8060,
      "Ġcable": 8061,
      "Ġcott": 8062,
      "Ġdried": 8063,
      "Ġlat": 8064,
      "Ġlift": 8065,
      "Ġlament": 8066,
      "ĠpÃ¢": 8067,
      "archevÃªque": 8068,
      "Ġnay": 8069,
      "lex": 8070,
      "Ġbeer": 8071,
      "Ġwashed": 8072,
      "Ġros": 8073,
      "Ġleaf": 8074,
      "Ġennem": 8075,
      "ĠBet": 8076,
      "ĠLheureux": 8077,
      "ĠFleur": 8078,
      "ivered": 8079,
      "ĠHim": 8080,
      "abled": 8081,
      "Ġspared": 8082,
      "Ġimage": 8083,
      "Ġpoign": 8084,
      "Ġoverfl": 8085,
      "Ġchase": 8086,
      "onsense": 8087,
      "Ġoffering": 8088,
      "Ã©tais": 8089,
      "issary": 8090,
      "Ġserpent": 8091,
      "Ġcaract": 8092,
      "Ġholy": 8093,
      "Ġflatter": 8094,
      "Ġconsisted": 8095,
      "Ġtele": 8096,
      "ĠWhy": 8097,
      "Ġpleasures": 8098,
      "Ġ12": 8099,
      "Ġinspect": 8100,
      "ĠOr": 8101,
      "ĠHelen": 8102,
      "ĠcolÃ¨re": 8103,
      "gram": 8104,
      "Ġtouching": 8105,
      "Ġacting": 8106,
      "apping": 8107,
      "Ġtransp": 8108,
      "Ġbloody": 8109,
      "Ġsadly": 8110,
      "Ġshutters": 8111,
      "Ġacquired": 8112,
      "Although": 8113,
      "ĠrÃ©g": 8114,
      "Ġhoping": 8115,
      "Ġcetace": 8116,
      "Ġhesitate": 8117,
      "ĠDuches": 8118,
      "Ġproperty": 8119,
      "Ġfavourite": 8120,
      "Ġlocked": 8121,
      "Ġsuspicions": 8122,
      "Ġvolcanic": 8123,
      "ĠgeÃ´": 8124,
      "Ġdiamonds": 8125,
      "Ġshrugged": 8126,
      "ĠBerks": 8127,
      "rockle": 8128,
      "Ġchasse": 8129,
      "Ġbrutal": 8130,
      "illaume": 8131,
      "Ġpoult": 8132,
      "Ġbewild": 8133,
      "ĠAND": 8134,
      "Ġincessantly": 8135,
      "Ġpuzzled": 8136,
      "Ġpreparations": 8137,
      "Ġecst": 8138,
      "Ġeruption": 8139,
      "Through": 8140,
      "Ġdisagreeable": 8141,
      "ĠAfric": 8142,
      "eorgiana": 8143,
      ".âĪĴâĪĴ": 8144,
      "Top": 8145,
      "Wait": 8146,
      "cles": 8147,
      "hurst": 8148,
      "lait": 8149,
      "Ġiv": 8150,
      "Ġay": 8151,
      "Ġsan": 8152,
      "Ġsne": 8153,
      "Ġwire": 8154,
      "Ġmauv": 8155,
      "Ġcards": 8156,
      "Ġcreek": 8157,
      "Ġlent": 8158,
      "llus": 8159,
      "Ġhol": 8160,
      "Ġnour": 8161,
      "attend": 8162,
      "icing": 8163,
      "Ġrendez": 8164,
      "quenard": 8165,
      "Ġnoted": 8166,
      "Ġseizing": 8167,
      "Ġnearest": 8168,
      "ĠCat": 8169,
      "Ġnovel": 8170,
      "Ġplates": 8171,
      "asses": 8172,
      "ellement": 8173,
      "ĠBl": 8174,
      "ĠBank": 8175,
      "ĠBrockle": 8176,
      "elic": 8177,
      "Ġpraise": 8178,
      "Ġintent": 8179,
      "Ġbrings": 8180,
      "avant": 8181,
      "Ġcontrol": 8182,
      "Ġentra": 8183,
      "Ã¨res": 8184,
      "ĠTO": 8185,
      "Ġmarine": 8186,
      "Therefore": 8187,
      "Ġcele": 8188,
      "Ġflour": 8189,
      "Ġdistracted": 8190,
      "Ġapplied": 8191,
      "Ġcalls": 8192,
      "Ġhappily": 8193,
      "Ġcommenced": 8194,
      "Ġlightly": 8195,
      "Ġminister": 8196,
      "Ġearlier": 8197,
      "Ġguine": 8198,
      "Ġassoci": 8199,
      "hard": 8200,
      "Ġarriver": 8201,
      "ĠOne": 8202,
      "Ġvisits": 8203,
      "Ġfinest": 8204,
      "Ġeasier": 8205,
      "Ġaffaire": 8206,
      "Ġcoups": 8207,
      "Ġcenturies": 8208,
      "Ġconstable": 8209,
      "ĠChurch": 8210,
      "Ġmaintain": 8211,
      "Ġanxiously": 8212,
      "Ġcontrast": 8213,
      "ĠCoquenard": 8214,
      "break": 8215,
      "Ġsweetheart": 8216,
      "Ġadvantages": 8217,
      "Ġpistols": 8218,
      "Ġprotection": 8219,
      "Ġdamned": 8220,
      "Ġexhaust": 8221,
      "ĠFerr": 8222,
      "Ġpiercing": 8223,
      "Ġsheltered": 8224,
      "Ġinquiries": 8225,
      "Ġinterview": 8226,
      "Ġconvenient": 8227,
      "Ġdisplayed": 8228,
      "Ġobscure": 8229,
      "Ġdeliverance": 8230,
      "Ġfusil": 8231,
      "ĠCourt": 8232,
      "Ġexplosion": 8233,
      "ĠMarechale": 8234,
      "ĠGascon": 8235,
      "Ġcatastrophe": 8236,
      "Ġsiege": 8237,
      "Ġcarriages": 8238,
      ";\"": 8239,
      "Ch": 8240,
      "Gentlemen": 8241,
      "Pr": 8242,
      "Sh": 8243,
      "bres": 8244,
      "dled": 8245,
      "fa": 8246,
      "mond": 8247,
      "nation": 8248,
      "olet": 8249,
      "tu": 8250,
      "vest": 8251,
      "yes": 8252,
      "ysi": 8253,
      "Ġtast": 8254,
      "Ġtip": 8255,
      "hearted": 8256,
      "reet": 8257,
      "rene": 8258,
      "Ġmouve": 8259,
      "Ġpig": 8260,
      "Ġpuff": 8261,
      "arms": 8262,
      "ani": 8263,
      "Ġinher": 8264,
      "omy": 8265,
      "Ġga": 8266,
      "Ġgn": 8267,
      "ĠIV": 8268,
      "Ġwaste": 8269,
      "Ġrear": 8270,
      "Ġdefinite": 8271,
      "Ġric": 8272,
      "ilence": 8273,
      "Ġvoud": 8274,
      "ĠMad": 8275,
      "ĠMill": 8276,
      "ĠMason": 8277,
      "Ġquad": 8278,
      "ources": 8279,
      "lique": 8280,
      "Ġbutt": 8281,
      "Ġlabor": 8282,
      "erson": 8283,
      "Ġunb": 8284,
      "Ġunique": 8285,
      "unning": 8286,
      "ĠSand": 8287,
      "Ġaroused": 8288,
      "ĠFlem": 8289,
      "ĠHong": 8290,
      "Ġrobe": 8291,
      "Ġbrick": 8292,
      "Ġspy": 8293,
      "Ġdisgu": 8294,
      "ften": 8295,
      "Ġlongitude": 8296,
      "ĠNÃ©grel": 8297,
      "berg": 8298,
      "Ġchape": 8299,
      "Ġstrata": 8300,
      "Ġcrit": 8301,
      "Ġimpress": 8302,
      "issant": 8303,
      "Ġglided": 8304,
      "enched": 8305,
      "Ġ11": 8306,
      "Ġfamilies": 8307,
      "Ġindepend": 8308,
      "Ġcolonel": 8309,
      "ĠFril": 8310,
      "Ġsailors": 8311,
      "Ġsurprising": 8312,
      "Ġenchan": 8313,
      "Ġfootstep": 8314,
      "Ġexpectation": 8315,
      "Ġrelation": 8316,
      "ĠÃ©cl": 8317,
      "Does": 8318,
      "Ġarrange": 8319,
      "Ġaccounts": 8320,
      "enny": 8321,
      "Ġbells": 8322,
      "Ġneighbouring": 8323,
      "ological": 8324,
      "Ġpursue": 8325,
      "Ġenjoyment": 8326,
      "Ġexecuted": 8327,
      "Ġattentions": 8328,
      "Ġcoachman": 8329,
      "Ġpersuade": 8330,
      "Ġpenetrate": 8331,
      "maid": 8332,
      "Ġheureux": 8333,
      "Ġcarpent": 8334,
      "Ġstatue": 8335,
      "Ġrenewed": 8336,
      "Ġmerchant": 8337,
      "Ġconsolation": 8338,
      "Ġissue": 8339,
      "Ġinvolunt": 8340,
      "Ġsteadily": 8341,
      "Ġkilomet": 8342,
      "Ġreplaced": 8343,
      "Ġinexplicable": 8344,
      "Ġdisgrace": 8345,
      "Ġremembrance": 8346,
      "Ġunpleasant": 8347,
      "AM": 8348,
      "AprÃ¨s": 8349,
      "Hold": 8350,
      "LL": 8351,
      "Other": 8352,
      "Pres": 8353,
      "aid": 8354,
      "bable": 8355,
      "eight": 8356,
      "gre": 8357,
      "natured": 8358,
      "vice": 8359,
      "Â°": 8360,
      "Ġident": 8361,
      "Ġtig": 8362,
      "Ġtrente": 8363,
      "Ġmas": 8364,
      "itively": 8365,
      "Ġluminous": 8366,
      "Ġpacked": 8367,
      "Ġnos": 8368,
      "Ġninet": 8369,
      "Ġinward": 8370,
      "Ġerect": 8371,
      "Ġghost": 8372,
      "idge": 8373,
      "Ġrive": 8374,
      "Ġweeping": 8375,
      "illart": 8376,
      "Ġsaving": 8377,
      "ĠMal": 8378,
      "Ġquality": 8379,
      "ctic": 8380,
      "Ġexhibit": 8381,
      "Ġunited": 8382,
      "ĠBologne": 8383,
      "Ġintol": 8384,
      "ĠFroll": 8385,
      "Ġcock": 8386,
      "Ġroyal": 8387,
      "Ġbride": 8388,
      "Ġrepaired": 8389,
      "Ġcompared": 8390,
      "Ġduel": 8391,
      "ĠDel": 8392,
      "ĠDiana": 8393,
      "Ġparallel": 8394,
      "Ġimpass": 8395,
      "Ġmarket": 8396,
      "Ġmonot": 8397,
      "Ġendure": 8398,
      "Ġapply": 8399,
      "Ġcaps": 8400,
      "ĠWell": 8401,
      "Ġregards": 8402,
      "Ġpersist": 8403,
      "Ġindisp": 8404,
      "Ġsouri": 8405,
      "Ġfalls": 8406,
      "Ġsteady": 8407,
      "usement": 8408,
      "Ġprofit": 8409,
      "ĠJew": 8410,
      "Ġactual": 8411,
      "Ġgrounds": 8412,
      "Ġstrangely": 8413,
      "Ġprovin": 8414,
      "Ġinvis": 8415,
      "boat": 8416,
      "Ġequip": 8417,
      "Ġtravellers": 8418,
      "Ġfools": 8419,
      "Ġconfession": 8420,
      "Ġemptied": 8421,
      "Ġdeparted": 8422,
      "Ġslipp": 8423,
      "Ġconsequences": 8424,
      "Ġidiot": 8425,
      "Ġprayer": 8426,
      "Ġ30": 8427,
      "Ġclergy": 8428,
      "Ġavoided": 8429,
      "Aramis": 8430,
      "Ġattentive": 8431,
      "ĠNapoleon": 8432,
      "Ġridiculous": 8433,
      "Ġcompassion": 8434,
      "Ġencounter": 8435,
      "hemian": 8436,
      "ĠTurtle": 8437,
      "Ġinstructions": 8438,
      "Ġdignity": 8439,
      "ĠJesuit": 8440,
      "Ġdazzling": 8441,
      "Ġeyelids": 8442,
      "ĠBrocklehurst": 8443,
      "ĠFrollo": 8444,
      ".âĢĻ": 8445,
      "Many": 8446,
      "Nor": 8447,
      "boy": 8448,
      "don": 8449,
      "flo": 8450,
      "got": 8451,
      "lon": 8452,
      "nut": 8453,
      "oine": 8454,
      "oison": 8455,
      "ront": 8456,
      "sp": 8457,
      "uer": 8458,
      "why": 8459,
      "Ġtand": 8460,
      "Ġtire": 8461,
      "Ġwick": 8462,
      "have": 8463,
      "ermin": 8464,
      "Ġmap": 8465,
      "Ġcursed": 8466,
      "Ġdumb": 8467,
      "only": 8468,
      "Ġnurs": 8469,
      "leg": 8470,
      "icious": 8471,
      "Ġrece": 8472,
      "Ġthief": 8473,
      "ettre": 8474,
      "Ġfors": 8475,
      "Ġrot": 8476,
      "Ġrif": 8477,
      "aments": 8478,
      "Ġquin": 8479,
      "Ġsust": 8480,
      "liers": 8481,
      "ardes": 8482,
      "Ġshoe": 8483,
      "Ġnobles": 8484,
      "Ġtrains": 8485,
      "ĠAnt": 8486,
      "Ġamis": 8487,
      "ĠHatter": 8488,
      "Ġmollus": 8489,
      "Ġdesk": 8490,
      "Ġdesir": 8491,
      "ĠRivers": 8492,
      "Ġchaise": 8493,
      "Ġclasped": 8494,
      "Ġevenings": 8495,
      "Ġobed": 8496,
      "ĠDom": 8497,
      "ordre": 8498,
      "Ġcontracted": 8499,
      "Ġimpulse": 8500,
      "Ã¨se": 8501,
      "Ġflowed": 8502,
      "Ġflames": 8503,
      "ĠWhen": 8504,
      "Ġterr": 8505,
      "Ġrounded": 8506,
      "Ġinsist": 8507,
      "Ġsmallest": 8508,
      "Ġbestowed": 8509,
      "Ġadvise": 8510,
      "Ġpropri": 8511,
      "ouvarine": 8512,
      "ĠmalgrÃ©": 8513,
      "Ġaccomplish": 8514,
      "Ġelsewhere": 8515,
      "Ġvisitor": 8516,
      "Ġvisitors": 8517,
      "Ġmusket": 8518,
      "Ġsaddle": 8519,
      "Ġfleet": 8520,
      "Ġduties": 8521,
      "Ġclimbing": 8522,
      "ĠMajor": 8523,
      "Ġprivile": 8524,
      "Ġmeasures": 8525,
      "Ġsommes": 8526,
      "ĠÃ©crit": 8527,
      "Ġprosper": 8528,
      "Ġanticip": 8529,
      "Ġgraceful": 8530,
      "Ġdisposal": 8531,
      "Ġpopular": 8532,
      "Ġreckoning": 8533,
      "ackson": 8534,
      "Ġapparatus": 8535,
      "Ġexchanged": 8536,
      "Ġmoderate": 8537,
      "Ġcrowns": 8538,
      "Ġrailway": 8539,
      "Thanks": 8540,
      "Ġdomestic": 8541,
      "Ġgalop": 8542,
      "Ġpupil": 8543,
      "Ġtype": 8544,
      "Ġmarvell": 8545,
      "Ã©quillart": 8546,
      "Ġoffended": 8547,
      "Ġcannon": 8548,
      "Ġmoust": 8549,
      "Ġgrateful": 8550,
      "Ġobservations": 8551,
      "Accordingly": 8552,
      "Ġphenomenon": 8553,
      "ĠFrilair": 8554,
      "Like": 8555,
      "Pre": 8556,
      "Twenty": 8557,
      "cation": 8558,
      "eÃ»t": 8559,
      "oom": 8560,
      "oked": 8561,
      "Ġtones": 8562,
      "Ġahead": 8563,
      "Ġwager": 8564,
      "Ġmorrow": 8565,
      "Ġbast": 8566,
      "Ġbark": 8567,
      "Ġdun": 8568,
      "Ġpenc": 8569,
      "arl": 8570,
      "anim": 8571,
      "anco": 8572,
      "Ġbend": 8573,
      "Ġbeam": 8574,
      "Ġwhip": 8575,
      "Ġashes": 8576,
      "Ġsemble": 8577,
      "tery": 8578,
      "ĠCity": 8579,
      "Ġfearing": 8580,
      "Ġtramp": 8581,
      "ĠSep": 8582,
      "ĠBo": 8583,
      "ĠLiver": 8584,
      "ĠGreek": 8585,
      "Ġropes": 8586,
      "ĠRÃ©quillart": 8587,
      "Ġthanked": 8588,
      "Ġperple": 8589,
      "Ġrempl": 8590,
      "Ġclay": 8591,
      "Ġclust": 8592,
      "oseph": 8593,
      "Ġsurgeon": 8594,
      "Ġstring": 8595,
      "Ġparting": 8596,
      "Ġparut": 8597,
      "Ġquivering": 8598,
      "ĠTH": 8599,
      "ĠTom": 8600,
      "Ġhoarse": 8601,
      "Ġglow": 8602,
      "Ġappare": 8603,
      "Ġwinding": 8604,
      "ĠWardes": 8605,
      "arrant": 8606,
      "Ġsworn": 8607,
      "Ġcareless": 8608,
      "Ġveins": 8609,
      "Ġladders": 8610,
      "Ġsweat": 8611,
      "Ġneeds": 8612,
      "ĠRobert": 8613,
      "Ġtrip": 8614,
      "Ġpurple": 8615,
      "Ġregarda": 8616,
      "Ġlearning": 8617,
      "Ġservices": 8618,
      "Ġtorches": 8619,
      "Ġfurnish": 8620,
      "Ġsensations": 8621,
      "Ġflee": 8622,
      "Ġlawyer": 8623,
      "Ġswords": 8624,
      "ĠÃªtes": 8625,
      "Ġenterpr": 8626,
      "Ġimprudence": 8627,
      "Ġvaguely": 8628,
      "Ġpractical": 8629,
      "Ġresults": 8630,
      "Ġmiracle": 8631,
      "Ġfolds": 8632,
      "Ġlunch": 8633,
      "Ġwithdraw": 8634,
      "Ġmajesty": 8635,
      "Ġentertained": 8636,
      "ĠMouquette": 8637,
      "Ġfragments": 8638,
      "Ġmechanically": 8639,
      "Ġcroyait": 8640,
      "Ġindividual": 8641,
      "Ġresignation": 8642,
      "ĠRoyal": 8643,
      "Ġenlar": 8644,
      "Ġpoultry": 8645,
      "floor": 8646,
      "ancois": 8647,
      "Ġperplex": 8648,
      "\"_": 8649,
      "Fr": 8650,
      "GE": 8651,
      "Pour": 8652,
      "RI": 8653,
      "RO": 8654,
      "TH": 8655,
      "bank": 8656,
      "sis": 8657,
      "~,": 8658,
      "heard": 8659,
      "Ġsque": 8660,
      "Ġsaint": 8661,
      "Ġsighed": 8662,
      "Ġwarrant": 8663,
      "oureux": 8664,
      "itute": 8665,
      "Ġbows": 8666,
      "Ġcot": 8667,
      "Ġpont": 8668,
      "ana": 8669,
      "aned": 8670,
      "Ġheed": 8671,
      "otions": 8672,
      "Ġwash": 8673,
      "versi": 8674,
      "quoi": 8675,
      "ĠMery": 8676,
      "ĠMock": 8677,
      "Ġsoot": 8678,
      "Ġshy": 8679,
      "aston": 8680,
      "Ġlib": 8681,
      "Ġensu": 8682,
      "Ġalter": 8683,
      "Ġtriste": 8684,
      "ĠBazin": 8685,
      "avag": 8686,
      "Ġperceiving": 8687,
      "Ġchapel": 8688,
      "Ġfoli": 8689,
      "Ġcloser": 8690,
      "ĠEn": 8691,
      "Ġvoici": 8692,
      "Ġcease": 8693,
      "Ġmonsters": 8694,
      "Ġconsented": 8695,
      "Ġconsulted": 8696,
      "Ġteacher": 8697,
      "Ġcaporal": 8698,
      "Ġchef": 8699,
      "Ġincidents": 8700,
      "Ġguards": 8701,
      "Ġreconc": 8702,
      "ouncing": 8703,
      "ĠmaÃ®tre": 8704,
      "Ġaffirm": 8705,
      "Ġruns": 8706,
      "Ġformal": 8707,
      "Ġmotive": 8708,
      "Ġelep": 8709,
      "Ġelement": 8710,
      "Ġdrawer": 8711,
      "Ġphysi": 8712,
      "ocr": 8713,
      "Ġruff": 8714,
      "Ġgarde": 8715,
      "Ġsecrets": 8716,
      "sibility": 8717,
      "Åĵil": 8718,
      "Ġkilling": 8719,
      "Ġspotted": 8720,
      "Ġdonna": 8721,
      "Ġguarded": 8722,
      "ĠRaversi": 8723,
      "Ġchoked": 8724,
      "Ġsinister": 8725,
      "ĠFervaques": 8726,
      "Ġgarments": 8727,
      "Ġargument": 8728,
      "piration": 8729,
      "Ġmagic": 8730,
      "Ġpopul": 8731,
      "ĠrÃ©sol": 8732,
      "Ġenclosed": 8733,
      "Ġacknowledge": 8734,
      "Ġelbows": 8735,
      "Ġgovernor": 8736,
      "Ġpurchase": 8737,
      "Ġtitle": 8738,
      "emberley": 8739,
      "Ġscrup": 8740,
      "Ġfantastic": 8741,
      "Ġscientific": 8742,
      "ĠLowood": 8743,
      "Ġleisure": 8744,
      "Ġinferior": 8745,
      "Ġbailiff": 8746,
      "molue": 8747,
      "Ġcelebr": 8748,
      "ĠLiverpool": 8749,
      "Br": 8750,
      "Four": 8751,
      "Mademoiselle": 8752,
      "Nous": 8753,
      "Old": 8754,
      "Often": 8755,
      "aill": 8756,
      "cr": 8757,
      "chant": 8758,
      "rons": 8759,
      "uy": 8760,
      "Ġze": 8761,
      "inence": 8762,
      "Ġward": 8763,
      "Ġwool": 8764,
      "Ġos": 8765,
      "Ġdarted": 8766,
      "Ġfid": 8767,
      "onies": 8768,
      "asmin": 8769,
      "ara": 8770,
      "omed": 8771,
      "lement": 8772,
      "Ġgas": 8773,
      "Ġgust": 8774,
      "Ġgagn": 8775,
      "entric": 8776,
      "Ġthie": 8777,
      "ali": 8778,
      "Ġforces": 8779,
      "Ġrabbit": 8780,
      "Ġsele": 8781,
      "Ġseals": 8782,
      "rolled": 8783,
      "Ġsale": 8784,
      "ĠMousqueton": 8785,
      "ushes": 8786,
      "Ġshrill": 8787,
      "Ġexh": 8788,
      "Ġexter": 8789,
      "ĠClopin": 8790,
      "onge": 8791,
      "Ġplains": 8792,
      "unken": 8793,
      "ĠPemberley": 8794,
      "ĠBÃ©": 8795,
      "urned": 8796,
      "ĠGry": 8797,
      "Ġgrasped": 8798,
      "Ġbris": 8799,
      "Ġspots": 8800,
      "Ġchill": 8801,
      "ops": 8802,
      "Ġremote": 8803,
      "Ġclung": 8804,
      "ĠDerville": 8805,
      "ĠDutch": 8806,
      "Ã©tÃ©": 8807,
      "Ġflushed": 8808,
      "Ġglorious": 8809,
      "peror": 8810,
      "Ãªter": 8811,
      "Ġharbour": 8812,
      "Ġrestless": 8813,
      "Ġinsen": 8814,
      "Ġsouls": 8815,
      "Ġmidday": 8816,
      "Ġdiscip": 8817,
      "Ġvieille": 8818,
      "Ġburden": 8819,
      "liza": 8820,
      "Ġbonnet": 8821,
      "quisite": 8822,
      "Ġexploration": 8823,
      "Ġrealized": 8824,
      "ermain": 8825,
      "Ġleader": 8826,
      "Ġnarrative": 8827,
      "Ġcabinet": 8828,
      "phon": 8829,
      "Ġdescending": 8830,
      "Ġbursting": 8831,
      "fortunes": 8832,
      "Ġdragging": 8833,
      "Ġdelicious": 8834,
      "Ġshocked": 8835,
      "Ġsacrific": 8836,
      "Ġcivility": 8837,
      "Ġmessenger": 8838,
      "Ġtriumphant": 8839,
      "Ġpeasants": 8840,
      "ĠprÃ©tend": 8841,
      "Ġboldly": 8842,
      "Ġimprove": 8843,
      "Ġarrangements": 8844,
      "Ġbaronet": 8845,
      "Ġsedu": 8846,
      "Ġeccentric": 8847,
      "Ġextravag": 8848,
      "Ġtranquillity": 8849,
      "People": 8850,
      "Between": 8851,
      "Ġresponded": 8852,
      "ĠBraz": 8853,
      "ussitÃ´t": 8854,
      "Ġinvisible": 8855,
      "ĠMeryton": 8856,
      "?âĢĿ": 8857,
      "Comme": 8858,
      "IE": 8859,
      "Planchet": 8860,
      "Silence": 8861,
      "ae": 8862,
      "gest": 8863,
      "lance": 8864,
      "nÃ¦": 8865,
      "heast": 8866,
      "Ġoy": 8867,
      "Ġmood": 8868,
      "Ġmars": 8869,
      "Ġcough": 8870,
      "Ġcult": 8871,
      "Ġferm": 8872,
      "Ġtoi": 8873,
      "Ġpool": 8874,
      "lls": 8875,
      "veu": 8876,
      "Ġreject": 8877,
      "Ġride": 8878,
      "Ġstater": 8879,
      "Ġvice": 8880,
      "Ġvulgar": 8881,
      "Ġsob": 8882,
      "Ġsolic": 8883,
      "Ġsofa": 8884,
      "Ġsuck": 8885,
      "Ġjest": 8886,
      "ulin": 8887,
      "Ġaltern": 8888,
      "Ġtrunks": 8889,
      "Ġarches": 8890,
      "Ġwillingly": 8891,
      "ĠBast": 8892,
      "Ġgrin": 8893,
      "abio": 8894,
      "Ġbrush": 8895,
      "Ġbricks": 8896,
      "ĠJoseph": 8897,
      "Ġdesolate": 8898,
      "Ġshared": 8899,
      "Ġclosing": 8900,
      "ĠDE": 8901,
      "Ġresidence": 8902,
      "Ġparties": 8903,
      "Ġwherever": 8904,
      "Ġdistressed": 8905,
      "onday": 8906,
      "lieu": 8907,
      "Ġharvest": 8908,
      "astern": 8909,
      "Ġsupposing": 8910,
      "Ġpleasing": 8911,
      "Ġdrunken": 8912,
      "eneulin": 8913,
      "Ġinterval": 8914,
      "Ġsouff": 8915,
      "Ġlessons": 8916,
      "ĠtrouvÃ©": 8917,
      "Ġmisfortunes": 8918,
      "Ġsmaller": 8919,
      "Ġthirteen": 8920,
      "Ġfootman": 8921,
      "Quand": 8922,
      "Ġprovide": 8923,
      "Ġhurled": 8924,
      "Ġexplore": 8925,
      "othic": 8926,
      "Ġcalmly": 8927,
      "Ġleads": 8928,
      "Ġbelongs": 8929,
      "Ġdresses": 8930,
      "Ġcompliments": 8931,
      "Ġremarks": 8932,
      "sibly": 8933,
      "Ġconcerning": 8934,
      "Ġerror": 8935,
      "Ġpistol": 8936,
      "Ġcollection": 8937,
      "Ġaimable": 8938,
      "Ġlodged": 8939,
      "Ġtroubles": 8940,
      "Ġdiscussed": 8941,
      "Ġsufferings": 8942,
      "ĠLydie": 8943,
      "Ġfilling": 8944,
      "ichelieu": 8945,
      "Ġstockings": 8946,
      "morency": 8947,
      "Ã©rieur": 8948,
      "Ġwonders": 8949,
      "Ġreveal": 8950,
      "Ġbullet": 8951,
      "Ġprofonde": 8952,
      "Ġgovernment": 8953,
      "Ġtolerably": 8954,
      "Ġrebell": 8955,
      "Ġpicturesque": 8956,
      "Ġrepentance": 8957,
      "Ġrascal": 8958,
      "Ġenfant": 8959,
      "Ġdevelop": 8960,
      "Ġrecluse": 8961,
      "Ġinconven": 8962,
      "instant": 8963,
      "ĠLestrade": 8964,
      "Ġirresistible": 8965,
      "Ġshawl": 8966,
      "ĠDuchess": 8967,
      "Ġmarvellous": 8968,
      "Ġstateroom": 8969,
      "Five": 8970,
      "Rod": 8971,
      "UR": 8972,
      "cur": 8973,
      "hors": 8974,
      "ugn": 8975,
      "Ġalight": 8976,
      "Ġwing": 8977,
      "Ġoh": 8978,
      "Ġbite": 8979,
      "Ġbuck": 8980,
      "Ġcraw": 8981,
      "Ġheir": 8982,
      "Ġinner": 8983,
      "Ġecon": 8984,
      "Ġgild": 8985,
      "Ġrecei": 8986,
      "Ġwhir": 8987,
      "alf": 8988,
      "Ġseats": 8989,
      "amar": 8990,
      "terranean": 8991,
      "ourd": 8992,
      "agu": 8993,
      "Ġsulph": 8994,
      "Ġneveu": 8995,
      "ĠCon": 8996,
      "ĠCÃ©cile": 8997,
      "ĠPope": 8998,
      "Ġabuse": 8999,
      "Ġintensity": 9000,
      "Ġgoats": 9001,
      "Ġprope": 9002,
      "Ġamusing": 9003,
      "Ġgrain": 9004,
      "Ġspurs": 9005,
      "loved": 9006,
      "Ġrepair": 9007,
      "avre": 9008,
      "Ġhandle": 9009,
      "ĠNow": 9010,
      "Ġboiling": 9011,
      "Ġperpend": 9012,
      "Ġprejud": 9013,
      "Ġpeup": 9014,
      "Ġclut": 9015,
      "Ġclam": 9016,
      "covered": 9017,
      "Ġstrain": 9018,
      "ounted": 9019,
      "Ġpartner": 9020,
      "Ġaccus": 9021,
      "llect": 9022,
      "icken": 9023,
      "Instead": 9024,
      "quered": 9025,
      "Were": 9026,
      "ensions": 9027,
      "insula": 9028,
      "Ġsentences": 9029,
      "Ġfeels": 9030,
      "ĠGrÃ¨ve": 9031,
      "Ġindisc": 9032,
      "Ġmax": 9033,
      "tember": 9034,
      "Ġsuffoc": 9035,
      "Ġadmin": 9036,
      "Leave": 9037,
      "Ġvibr": 9038,
      "iality": 9039,
      "Ġdrawers": 9040,
      "Ġcauses": 9041,
      "Ġgalleries": 9042,
      "Ġladyship": 9043,
      "Ġstartled": 9044,
      "Ġlearnt": 9045,
      "ĠRochelle": 9046,
      "Ġposts": 9047,
      "Ġcroire": 9048,
      "Ġwarmly": 9049,
      "Ġsweetness": 9050,
      "ĠXV": 9051,
      "ĠXIII": 9052,
      "Ġmagnif": 9053,
      "Ġfrock": 9054,
      "Ġemployment": 9055,
      "Ġdonnait": 9056,
      "Ġimpatiently": 9057,
      "Ġendeavoured": 9058,
      "Ġprotected": 9059,
      "Ġcombat": 9060,
      "Ġfortunately": 9061,
      "Ġmessage": 9062,
      "Ġvigorously": 9063,
      "Ġpenetrating": 9064,
      "Ġundertake": 9065,
      "Ġproceeding": 9066,
      "Ġlogis": 9067,
      "ĠForster": 9068,
      "Ġsincerely": 9069,
      "Ġseamen": 9070,
      "Ġadopt": 9071,
      "Ġpearl": 9072,
      "ClÃ©lia": 9073,
      "ĠCommander": 9074,
      "Ġparfaitement": 9075,
      "Ġlouder": 9076,
      "ĠGrÃ©goire": 9077,
      "olÃ©on": 9078,
      "Ġmansion": 9079,
      "Ġinvestig": 9080,
      "Ġtandis": 9081,
      "Ġpopulace": 9082,
      "ĠGryphon": 9083,
      "Ġperpendicular": 9084,
      "AD": 9085,
      "US": 9086,
      "Whe": 9087,
      "him": 9088,
      "ients": 9089,
      "some": 9090,
      "zing": 9091,
      "Ġaz": 9092,
      "Ġwip": 9093,
      "Ġwaving": 9094,
      "Ġwestern": 9095,
      "erie": 9096,
      "Ġben": 9097,
      "Ġbol": 9098,
      "Ġdashed": 9099,
      "Ġfame": 9100,
      "Ġhem": 9101,
      "Ġnail": 9102,
      "Ġhated": 9103,
      "icable": 9104,
      "otic": 9105,
      "Ġwashing": 9106,
      "Ġreign": 9107,
      "Ġthy": 9108,
      "ado": 9109,
      "Ġstool": 9110,
      "ĠMan": 9111,
      "ifs": 9112,
      "Ġquay": 9113,
      "ĠCount": 9114,
      "Ġmanor": 9115,
      "Ġoutr": 9116,
      "ĠHar": 9117,
      "Ġmock": 9118,
      "ptuous": 9119,
      "mend": 9120,
      "ĠRiver": 9121,
      "uez": 9122,
      "Ġperil": 9123,
      "Ġclenched": 9124,
      "Though": 9125,
      "Ġhasard": 9126,
      "Ġeyeb": 9127,
      "ĠDans": 9128,
      "Ġresent": 9129,
      "Ġresigned": 9130,
      "Ġcrushing": 9131,
      "Ġcrisis": 9132,
      "ontÃ©": 9133,
      "Ġwhereas": 9134,
      "autres": 9135,
      "Ġcourty": 9136,
      "rences": 9137,
      "oubted": 9138,
      "Ġregion": 9139,
      "Ġbreach": 9140,
      "Ġfinds": 9141,
      "Ġdevoir": 9142,
      "Ġconfid": 9143,
      "Ġincomp": 9144,
      "Ġswo": 9145,
      "Ġslave": 9146,
      "Ġinscri": 9147,
      "ĠarrivÃ©": 9148,
      "Ġinterp": 9149,
      "Ġsortir": 9150,
      "Ġstole": 9151,
      "Ġveut": 9152,
      "Ġvieux": 9153,
      "Ġhunter": 9154,
      "Ġbargain": 9155,
      "ĠCharmolue": 9156,
      "ibility": 9157,
      "Ġexpressions": 9158,
      "Ġordres": 9159,
      "Ġcasting": 9160,
      "Ġannounce": 9161,
      "Ġastonishing": 9162,
      "Ġoccupy": 9163,
      "Ġrapidity": 9164,
      "Ġfurnace": 9165,
      "Ġexception": 9166,
      "Ġbesoin": 9167,
      "ommod": 9168,
      "Ġundone": 9169,
      "Ġlaws": 9170,
      "Ġhesitating": 9171,
      "Ġcommunicated": 9172,
      "Ġdenied": 9173,
      "Ġstreams": 9174,
      "Ġpolitics": 9175,
      "Ġbitterness": 9176,
      "Ġintimacy": 9177,
      "Ġrubbed": 9178,
      "ĠCheval": 9179,
      "Ġrevolt": 9180,
      "Ġpotat": 9181,
      "shaped": 9182,
      "ĠdÃ©tails": 9183,
      "Ġbrandy": 9184,
      "Speak": 9185,
      "Ġreassured": 9186,
[...]
