{
  "version": "1.0",
  "truncation": null,
  "padding": null,
  "added_tokens": [
    {
      "id": 0,
      "content": "[UNK]",
      "single_word": false,
      "lstrip": false,
      "rstrip": false,
      "normalized": false,
      "special": true
    },
    {
      "id": 1,
      "content": "[PAD]",
      "single_word": false,
      "lstrip": false,
      "rstrip": false,
      "normalized": false,
      "special": true
    },
    {
      "id": 2,
      "content": "[EOS]",
      "single_word": false,
      "lstrip": false,
      "rstrip": false,
      "normalized": false,
      "special": true
    },
    {
      "id": 3,
      "content": "[SOS]",
      "single_word": false,
      "lstrip": false,
      "rstrip": false,
      "normalized": false,
      "special": true
    },
    {
      "id": 4,
      "content": "[MASK]",
      "single_word": false,
      "lstrip": false,
      "rstrip": false,
      "normalized": false,
      "special": true
    },
    {
      "id": 5,
      "content": "[CLS]",
      "single_word": false,
      "lstrip": false,
      "rstrip": false,
      "normalized": false,
      "special": true
    }
  ],
  "normalizer": null,
  "pre_tokenizer": {
    "type": "ByteLevel",
    "add_prefix_space": false,
    "trim_offsets": true,
    "use_regex": true
  },
  "post_processor": {
    "type": "ByteLevel",
    "add_prefix_space": true,
    "trim_offsets": false,
    "use_regex": true
  },
  "decoder": {
    "type": "ByteLevel",
    "add_prefix_space": true,
    "trim_offsets": true,
    "use_regex": true
  },
  "model": {
    "type": "BPE",
    "dropout": null,
    "unk_token": null,
    "continuing_subword_prefix": null,
    "end_of_word_suffix": null,
    "fuse_unk": false,
    "byte_fallback": false,
    "ignore_merges": false,
    "vocab": {
      "[UNK]": 0,
      "[PAD]": 1,
      "[EOS]": 2,
      "[SOS]": 3,
      "[MASK]": 4,
      "[CLS]": 5,
      "!": 6,
      "\"": 7,
      "#": 8,
      "$": 9,
      "%": 10,
      "&": 11,
      "'": 12,
      "(": 13,
      ")": 14,
      "*": 15,
      "+": 16,
      ",": 17,
      "-": 18,
      ".": 19,
      "/": 20,
      "0": 21,
      "1": 22,
      "2": 23,
      "3": 24,
      "4": 25,
      "5": 26,
      "6": 27,
      "7": 28,
      "8": 29,
      "9": 30,
      ":": 31,
      ";": 32,
      "<": 33,
      "=": 34,
      ">": 35,
      "?": 36,
      "@": 37,
      "A": 38,
      "B": 39,
      "C": 40,
      "D": 41,
      "E": 42,
      "F": 43,
      "G": 44,
      "H": 45,
      "I": 46,
      "J": 47,
      "K": 48,
      "L": 49,
      "M": 50,
      "N": 51,
      "O": 52,
      "P": 53,
      "Q": 54,
      "R": 55,
      "S": 56,
      "T": 57,
      "U": 58,
      "V": 59,
      "W": 60,
      "X": 61,
      "Y": 62,
      "Z": 63,
      "[": 64,
      "]": 65,
      "^": 66,
      "_": 67,
      "a": 68,
      "b": 69,
      "c": 70,
      "d": 71,
      "e": 72,
      "f": 73,
      "g": 74,
      "h": 75,
      "i": 76,
      "j": 77,
      "k": 78,
      "l": 79,
      "m": 80,
      "n": 81,
      "o": 82,
      "p": 83,
      "q": 84,
      "r": 85,
      "s": 86,
      "t": 87,
      "u": 88,
      "v": 89,
      "w": 90,
      "x": 91,
      "y": 92,
      "z": 93,
      "{": 94,
      "}": 95,
      "~": 96,
      "¡": 97,
      "¢": 98,
      "£": 99,
      "¤": 100,
      "¥": 101,
      "¦": 102,
      "§": 103,
      "¨": 104,
      "©": 105,
      "ª": 106,
      "«": 107,
      "¬": 108,
      "®": 109,
      "¯": 110,
      "°": 111,
      "±": 112,
      "²": 113,
      "³": 114,
      "´": 115,
      "µ": 116,
      "¶": 117,
      "·": 118,
      "¸": 119,
      "¹": 120,
      "º": 121,
      "»": 122,
      "¼": 123,
      "½": 124,
      "¾": 125,
      "¿": 126,
      "Â": 127,
      "Ã": 128,
      "Ä": 129,
      "Å": 130,
      "Æ": 131,
      "È": 132,
      "Ê": 133,
      "Î": 134,
      "Ï": 135,
      "Ð": 136,
      "Ñ": 137,
      "Ø": 138,
      "Ù": 139,
      "Û": 140,
      "á": 141,
      "â": 142,
      "ã": 143,
      "ä": 144,
      "å": 145,
      "æ": 146,
      "ç": 147,
      "è": 148,
      "é": 149,
      "ê": 150,
      "ë": 151,
      "ì": 152,
      "í": 153,
      "ï": 154,
      "Ġ": 155,
      "Ģ": 156,
      "ģ": 157,
      "Ĥ": 158,
      "ĥ": 159,
      "Ħ": 160,
      "ħ": 161,
      "Ĩ": 162,
      "ĩ": 163,
      "Ī": 164,
      "ī": 165,
      "Ĭ": 166,
      "ĭ": 167,
      "Į": 168,
      "į": 169,
      "İ": 170,
      "ı": 171,
      "Ĳ": 172,
      "ĳ": 173,
      "Ĵ": 174,
      "ĵ": 175,
      "Ķ": 176,
      "ķ": 177,
      "ĸ": 178,
      "Ĺ": 179,
      "ĺ": 180,
      "Ļ": 181,
      "ļ": 182,
      "Ľ": 183,
      "ľ": 184,
      "Ŀ": 185,
      "ŀ": 186,
      "Ł": 187,
      "ł": 188,
      "Ń": 189,
      "er": 190,
      "on": 191,
      "á»": 192,
      "an": 193,
      "ed": 194,
      "es": 195,
      "en": 196,
      "Ġt": 197,
      "at": 198,
      "in": 199,
      "is": 200,
      "ĠS": 201,
      "Ġo": 202,
      "Ġc": 203,
      "ci": 204,
      "Ġof": 205,
      "re": 206,
      "Ġl": 207,
      "ĠC": 208,
      "Ãł": 209,
      "20": 210,
      "ar": 211,
      "or": 212,
      "200": 213,
      "ĠR": 214,
      "al": 215,
      "ĠT": 216,
      "he": 217,
      "ĠL": 218,
      "ĠI": 219,
      "á»į": 220,
      "am": 221,
      "ic": 222,
      "Ġb": 223,
      "ist": 224,
      "it": 225,
      "ĠP": 226,
      "Ġm": 227,
      "pe": 228,
      "Ġh": 229,
      "peci": 230,
      "ĠM": 231,
      "ĠTh": 232,
      "and": 233,
      "da": 234,
      "pecies": 235,
      "2006": 236,
      "reat": 237,
      "us": 238,
      "ĠSpecies": 239,
      "ened": 240,
      "ĠRed": 241,
      "Ġthe": 242,
      "UC": 243,
      "reatened": 244,
      "UCN": 245,
      "19": 246,
      "ĠList": 247,
      "ĠIUCN": 248,
      "ĠThreatened": 249,
      "ĠA": 250,
      "Ã¡": 251,
      "ng": 252,
      "ong": 253,
      "ol": 254,
      "as": 255,
      "Ġtr": 256,
      "ion": 257,
      "Ġlo": 258,
      "á»Ļ": 259,
      "ĠB": 260,
      "ĠlÃł": 261,
      "dae": 262,
      "el": 263,
      "Ãłi": 264,
      "á»Ļt": 265,
      "Ġmá»Ļt": 266,
      "ch": 267,
      "ĠloÃłi": 268,
      "ĠcÃ¡": 269,
      "Ġhá»į": 270,
      "Ġs": 271,
      "Ġtrong": 272,
      "amb": 273,
      "ro": 274,
      "Ġand": 275,
      "nh": 276,
      "Ġcá»": 277,
      "ĠCer": 278,
      "il": 279,
      "cidae": 280,
      "©ng": 281,
      "ĠcÃ¡nh": 282,
      "amby": 283,
      "ambycidae": 284,
      "ĠCerambycidae": 285,
      "Ġbá»į": 286,
      "Ġcá»©ng": 287,
      "Ġp": 288,
      "Ġd": 289,
      "Ġ19": 290,
      "ing": 291,
      "et": 292,
      "Ġf": 293,
      "ĠG": 294,
      "om": 295,
      "ĠH": 296,
      "ur": 297,
      "ĠD": 298,
      "ĠN": 299,
      "Ġin": 300,
      "Ġa": 301,
      "ers": 302,
      "id": 303,
      "ent": 304,
      "Ġ(": 305,
      "ĠW": 306,
      "ĠF": 307,
      "iv": 308,
      "le": 309,
      "ĠE": 310,
      "ra": 311,
      "ĠJ": 312,
      "ia": 313,
      "os": 314,
      "um": 315,
      "Ġw": 316,
      "un": 317,
      "ut": 318,
      "res": 319,
      "ation": 320,
      "ul": 321,
      "ct": 322,
      "op": 323,
      "im": 324,
      "Ġv": 325,
      "Ġ200": 326,
      "ig": 327,
      "ĠO": 328,
      "ot": 329,
      "ce": 330,
      "ter": 331,
      "ĠU": 332,
      "ĠK": 333,
      "ad": 334,
      "Ġ1": 335,
      "ress": 336,
      "Ġth": 337,
      "ĠV": 338,
      "ag": 339,
      "em": 340,
      "ub": 341,
      "Ġ\"": 342,
      "Ġg": 343,
      "Ġn": 344,
      "th": 345,
      "ew": 346,
      "Ġto": 347,
      "ity": 348,
      "ir": 349,
      "==": 350,
      "og": 351,
      "od": 352,
      "st": 353,
      "The": 354,
      "ri": 355,
      "âĢ": 356,
      "la": 357,
      "ĠPress": 358,
      "ph": 359,
      "Ġ-": 360,
      "ov": 361,
      "li": 362,
      "ĠUn": 363,
      "ac": 364,
      "ow": 365,
      "âĢĵ": 366,
      ".,": 367,
      "ivers": 368,
      "áº": 369,
      "BN": 370,
      "ĠSt": 371,
      "SBN": 372,
      "ish": 373,
      "*\"": 374,
      "av": 375,
      "ond": 376,
      "Ġon": 377,
      ").": 378,
      "all": 379,
      "ĠY": 380,
      "Ġ199": 381,
      "if": 382,
      "ĠIn": 383,
      "ev": 384,
      "ian": 385,
      "iversity": 386,
      "ĠCh": 387,
      "ard": 388,
      "ine": 389,
      "ap": 390,
      "ep": 391,
      "199": 392,
      "ber": 393,
      "ubl": 394,
      "Ġby": 395,
      "qu": 396,
      "ĠUniversity": 397,
      "ith": 398,
      "ant": 399,
      "art": 400,
      "ab": 401,
      "Ġre": 402,
      "Ġfor": 403,
      "oc": 404,
      "ork": 405,
      "ay": 406,
      "ud": 407,
      "ich": 408,
      "ex": 409,
      "ord": 410,
      "est": 411,
      "Ġis": 412,
      "eg": 413,
      "ok": 414,
      "ran": 415,
      "ell": 416,
      "ec": 417,
      "ug": 418,
      "man": 419,
      "ĠÄ": 420,
      "ont": 421,
      "ondon": 422,
      "rom": 423,
      "ill": 424,
      "ĠvÃł": 425,
      "Ġde": 426,
      "ast": 427,
      "2004": 428,
      "ary": 429,
      "ge": 430,
      "ly": 431,
      "ĠÄĳ": 432,
      "\",": 433,
      "ĠYork": 434,
      "Ġ0": 435,
      "ak": 436,
      "ĠThe": 437,
      "ory": 438,
      "ip": 439,
      "io": 440,
      "und": 441,
      "ib": 442,
      "ass": 443,
      "ĠPubl": 444,
      "ens": 445,
      "\".": 446,
      "ton": 447,
      "ies": 448,
      "Ġst": 449,
      "ry": 450,
      "ne": 451,
      "ical": 452,
      "Ġ2": 453,
      "Ġed": 454,
      "**": 455,
      "ISBN": 456,
      "1998": 457,
      "era": 458,
      "ore": 459,
      "Ã©": 460,
      "up": 461,
      "Ġ198": 462,
      "London": 463,
      "Ġwith": 464,
      "New": 465,
      "ob": 466,
      "oh": 467,
      "Ġ&": 468,
      "our": 469,
      "ĠAn": 470,
      "son": 471,
      "Ġ18": 472,
      "yl": 473,
      "ff": 474,
      "ata": 475,
      "ang": 476,
      "ations": 477,
      "Ġat": 478,
      "ust": 479,
      "ook": 480,
      "ĠAr": 481,
      "Ġ2004": 482,
      "ina": 483,
      "ĠAl": 484,
      "ĠISBN": 485,
      "ie": 486,
      "Ġfrom": 487,
      "Ã´": 488,
      "omp": 489,
      "ort": 490,
      "eb": 491,
      "Ġ3": 492,
      "olog": 493,
      "Ġk": 494,
      "end": 495,
      "ain": 496,
      "out": 497,
      "ate": 498,
      "ice": 499,
      "ive": 500,
      "ey": 501,
      "'s": 502,
      "ica": 503,
      "ess": 504,
      "idae": 505,
      "ĠMar": 506,
      "ment": 507,
      "ĠOr": 508,
      "Ġal": 509,
      "Ġan": 510,
      "Ġ197": 511,
      "ern": 512,
      "uc": 513,
      "ear": 514,
      "mer": 515,
      "ach": 516,
      "ans": 517,
      "oll": 518,
      "ition": 519,
      "ĠPublish": 520,
      "ai": 521,
      "ction": 522,
      "áº¿": 523,
      "Ġr": 524,
      "ost": 525,
      "á»ĭ": 526,
      "Ġpp": 527,
      "ys": 528,
      "ld": 529,
      "ons": 530,
      "ure": 531,
      "10": 532,
      "Ġas": 533,
      "ford": 534,
      "ht": 535,
      "ict": 536,
      "Ġbe": 537,
      "ĠNew": 538,
      "),": 539,
      "pt": 540,
      "ence": 541,
      "ae": 542,
      "orn": 543,
      "ohn": 544,
      "tern": 545,
      "Ġgi": 546,
      "oci": 547,
      "ÃŃ": 548,
      "Ġch": 549,
      "ik": 550,
      "istory": 551,
      "orm": 552,
      "Ġthá»ĭ": 553,
      "In": 554,
      "land": 555,
      "ign": 556,
      "ĠcÃ¡c": 557,
      "Ġwh": 558,
      "St": 559,
      "Ġare": 560,
      "ida": 561,
      "per": 562,
      "Ġ9": 563,
      "ins": 564,
      "enn": 565,
      "ĠEd": 566,
      "ĠZ": 567,
      "iz": 568,
      "ide": 569,
      "ated": 570,
      "ou": 571,
      "les": 572,
      "to": 573,
      "Ã¡p": 574,
      "Ch": 575,
      "ano": 576,
      "Ġpro": 577,
      "ect": 578,
      "ĠÄĳÃ´": 579,
      "ath": 580,
      "Ġor": 581,
      "ĠgiÃ¡p": 582,
      "rin": 583,
      "rit": 584,
      "ĠWil": 585,
      "ĠRo": 586,
      "18": 587,
      ")*": 588,
      "ational": 589,
      ".\"": 590,
      "lo": 591,
      "use": 592,
      "ts": 593,
      "ru": 594,
      "ere": 595,
      "ooks": 596,
      "raph": 597,
      "ron": 598,
      "ace": 599,
      "ite": 600,
      "au": 601,
      "Ġex": 602,
      "age": 603,
      "fer": 604,
      "orld": 605,
      "78": 606,
      "Ġ196": 607,
      "co": 608,
      "ĠSan": 609,
      "ĠSch": 610,
      "olum": 611,
      "oph": 612,
      "Ã³": 613,
      "rop": 614,
      "ĠOrch": 615,
      "ics": 616,
      "ĠPublishing": 617,
      "00": 618,
      "12": 619,
      "its": 620,
      "ack": 621,
      "An": 622,
      "ana": 623,
      "ograph": 624,
      "aw": 625,
      "Th": 626,
      "ese": 627,
      "ited": 628,
      "omm": 629,
      "yn": 630,
      "atus": 631,
      "ugh": 632,
      "ah": 633,
      "ss": 634,
      "ĠBooks": 635,
      "ĠJohn": 636,
      "ĠRe": 637,
      "ier": 638,
      "xford": 639,
      "ĠLe": 640,
      "ĠHistory": 641,
      "13": 642,
      "Ġdi": 643,
      "se": 644,
      "lin": 645,
      "ater": 646,
      "ley": 647,
      "Ġ4": 648,
      "ann": 649,
      "oth": 650,
      "Ġthat": 651,
      "te": 652,
      "ĠSh": 653,
      "ames": 654,
      "ĠInd": 655,
      "cl": 656,
      "ces": 657,
      "az": 658,
      "iss": 659,
      "ark": 660,
      "ick": 661,
      "any": 662,
      "amp": 663,
      "Ġe": 664,
      "eth": 665,
      "ult": 666,
      "rib": 667,
      "ight": 668,
      "Ġwas": 669,
      "ind": 670,
      "ĠFran": 671,
      "ale": 672,
      "ĠPh": 673,
      "ĠPro": 674,
      "one": 675,
      "row": 676,
      "ology": 677,
      "11": 678,
      "2005": 679,
      "ici": 680,
      "bert": 681,
      "pp": 682,
      "ck": 683,
      "Ġáº¿": 684,
      "ĠNo": 685,
      "ĠWar": 686,
      "Ġáº¿ch": 687,
      "ward": 688,
      "ara": 689,
      "own": 690,
      "eng": 691,
      "ĠGu": 692,
      "Æ°": 693,
      "iel": 694,
      "ural": 695,
      "itt": 696,
      "Ãª": 697,
      "):": 698,
      "ius": 699,
      "ald": 700,
      "Ġ2007": 701,
      "berg": 702,
      "15": 703,
      "red": 704,
      "Ġ5": 705,
      "ial": 706,
      "uss": 707,
      "ĠDav": 708,
      "ĠPa": 709,
      "ner": 710,
      "It": 711,
      "ates": 712,
      "erv": 713,
      "ert": 714,
      "amil": 715,
      "Ġ20": 716,
      "ree": 717,
      "Ġle": 718,
      "ept": 719,
      "ail": 720,
      "ral": 721,
      "ino": 722,
      "att": 723,
      "ican": 724,
      "ications": 725,
      "Ġdes": 726,
      "ire": 727,
      "rid": 728,
      "sh": 729,
      "orth": 730,
      "ue": 731,
      "á»Ł": 732,
      "ution": 733,
      "ung": 734,
      "ĠCar": 735,
      "ome": 736,
      "ase": 737,
      "ĠSoci": 738,
      "aris": 739,
      "are": 740,
      "ĠWorld": 741,
      "ĠCon": 742,
      "Ph": 743,
      "áº£": 744,
      "ax": 745,
      "olle": 746,
      "ood": 747,
      "Ġ2005": 748,
      "14": 749,
      "ĠCal": 750,
      "ash": 751,
      "old": 752,
      "Ġph": 753,
      "unt": 754,
      "===": 755,
      "Ã¼": 756,
      "Ġ2003": 757,
      "bur": 758,
      "af": 759,
      "ole": 760,
      "ound": 761,
      "org": 762,
      "ĠBar": 763,
      "che": 764,
      "198": 765,
      "ally": 766,
      "Ãªn": 767,
      "ĠGe": 768,
      "ile": 769,
      ".)": 770,
      "ĠComp": 771,
      "erm": 772,
      "ĠSp": 773,
      "yst": 774,
      "ĠAmer": 775,
      "och": 776,
      "Ã¶": 777,
      "ings": 778,
      "ll": 779,
      "ren": 780,
      "ors": 781,
      "ame": 782,
      "ĠBer": 783,
      "ĠDavid": 784,
      "Ġspecies": 785,
      "Ġcon": 786,
      "alt": 787,
      "Ġgen": 788,
      "Ġ978": 789,
      "liam": 790,
      "ave": 791,
      "ki": 792,
      "tt": 793,
      "bra": 794,
      "ris": 795,
      "Ġet": 796,
      "ca": 797,
      "ĠPit": 798,
      "ety": 799,
      "Æ°á»": 800,
      "Ed": 801,
      "form": 802,
      "Ġqu": 803,
      "ĠPet": 804,
      "ech": 805,
      "uro": 806,
      "of": 807,
      "ram": 808,
      "17": 809,
      "rist": 810,
      "ym": 811,
      "ĠNat": 812,
      "olume": 813,
      "Gen": 814,
      "Ġab": 815,
      "Ġnot": 816,
      "act": 817,
      "ous": 818,
      "ium": 819,
      "ops": 820,
      "ensis": 821,
      "ĠPitman": 822,
      "ver": 823,
      "ein": 824,
      "Ġsh": 825,
      "Ġund": 826,
      "ĠQ": 827,
      "Ġhas": 828,
      "omb": 829,
      "50": 830,
      "Ġres": 831,
      "du": 832,
      "td": 833,
      "Ġcomp": 834,
      "Ġ6": 835,
      "arum": 836,
      "Ġy": 837,
      "idace": 838,
      "ĠWilliam": 839,
      "cy": 840,
      "ĠLtd": 841,
      "rans": 842,
      "rat": 843,
      "earch": 844,
      "ĠHar": 845,
      "ane": 846,
      "ĠCent": 847,
      "line": 848,
      "ĠDe": 849,
      "ĠEn": 850,
      "16": 851,
      "52": 852,
      "ett": 853,
      "ric": 854,
      "ola": 855,
      "iew": 856,
      "onom": 857,
      "Ġdel": 858,
      "Ġfl": 859,
      "ĠPublications": 860,
      "ĠPaul": 861,
      "uch": 862,
      "Ġsp": 863,
      "Ġad": 864,
      "ĠOrchidace": 865,
      "ington": 866,
      "ĠSociety": 867,
      "Genera": 868,
      "Ġit": 869,
      "rey": 870,
      "reen": 871,
      "ĠOrchidacearum": 872,
      "ka": 873,
      "ides": 874,
      "Ġ2002": 875,
      "ago": 876,
      "idion": 877,
      "Ġ2006": 878,
      "Ġá»Ł": 879,
      "ography": 880,
      "eral": 881,
      "over": 882,
      "ĠSci": 883,
      "Ġder": 884,
      "ther": 885,
      "ona": 886,
      "Ġun": 887,
      "==*": 888,
      "outh": 889,
      "ĠCl": 890,
      "ĠMon": 891,
      "ime": 892,
      "Ġar": 893,
      "lor": 894,
      "als": 895,
      "ages": 896,
      "01": 897,
      "Ġng": 898,
      "ĠCo": 899,
      "ĠIs": 900,
      "ini": 901,
      "ose": 902,
      "stit": 903,
      "Ġse": 904,
      "entif": 905,
      "ott": 906,
      "Ġtrans": 907,
      "ade": 908,
      "iction": 909,
      "33": 910,
      "Ġcont": 911,
      "Un": 912,
      "let": 913,
      "ybra": 914,
      "erman": 915,
      "ĠHo": 916,
      "isc": 917,
      "ĠAs": 918,
      "ael": 919,
      "ww": 920,
      "ĠCast": 921,
      "usic": 922,
      "ĠBr": 923,
      "Ġ2001": 924,
      "ication": 925,
      "tera": 926,
      "Ġ194": 927,
      "rint": 928,
      "ridge": 929,
      "22": 930,
      "Ġ2008": 931,
      "Ġ8": 932,
      "ance": 933,
      "ĠLondon": 934,
      "Ġim": 935,
      "ular": 936,
      "ĠUK": 937,
      "irst": 938,
      "ĠâĢĵ": 939,
      "ished": 940,
      "iforn": 941,
      "ĠRobert": 942,
      "port": 943,
      "wo": 944,
      "Press": 945,
      "iet": 946,
      "inn": 947,
      "ĠAd": 948,
      "ifornia": 949,
      "uk": 950,
      "ĠSc": 951,
      "ros": 952,
      "erson": 953,
      "30": 954,
      "ĠII": 955,
      "Ġpubl": 956,
      "sp": 957,
      "lag": 958,
      "ism": 959,
      "Ġmine": 960,
      "ĠOxford": 961,
      "54": 962,
      "der": 963,
      "len": 964,
      "Ġ1998": 965,
      "evel": 966,
      "Ġedition": 967,
      "32": 968,
      "we": 969,
      "ĠMc": 970,
      "Ġhave": 971,
      "ents": 972,
      "com": 973,
      "ery": 974,
      "70": 975,
      "amily": 976,
      "lan": 977,
      "so": 978,
      "ute": 979,
      "ĠAnd": 980,
      "ella": 981,
      "ife": 982,
      "cc": 983,
      "ez": 984,
      "ĠInc": 985,
      "Oxford": 986,
      "ĠCalifornia": 987,
      "ictionary": 988,
      "ten": 989,
      "ĠRes": 990,
      "ĠAm": 991,
      "able": 992,
      "\"*\"": 993,
      "ma": 994,
      "led": 995,
      "79": 996,
      "ks": 997,
      "ĠBi": 998,
      "ya": 999,
      "Ġ.": 1000,
      "ĠSe": 1001,
      "Ġsub": 1002,
      "ĠNational": 1003,
      "ersion": 1004,
      "osa": 1005,
      "Åį": 1006,
      "igh": 1007,
      "rys": 1008,
      "de": 1009,
      "ĠSer": 1010,
      "Ġla": 1011,
      "formation": 1012,
      "sch": 1013,
      "Ġits": 1014,
      "Ġtheir": 1015,
      "Ġkh": 1016,
      "Sybra": 1017,
      "Ġhe": 1018,
      "ĠPap": 1019,
      "ĠAmerican": 1020,
      "ĠPol": 1021,
      "Ġwhich": 1022,
      "ystem": 1023,
      "Ġhis": 1024,
      "59": 1025,
      "iÃªn": 1026,
      "ve": 1027,
      "ĠMich": 1028,
      "olution": 1029,
      "ĠQu": 1030,
      "39": 1031,
      "ler": 1032,
      "Ġus": 1033,
      "ones": 1034,
      "ars": 1035,
      "Ġvol": 1036,
      "80": 1037,
      "Ã¨": 1038,
      "que": 1039,
      "60": 1040,
      "74": 1041,
      "istor": 1042,
      "ĠMart": 1043,
      "epid": 1044,
      "rus": 1045,
      "ĠOrchid": 1046,
      "clud": 1047,
      "aj": 1048,
      "ras": 1049,
      "atal": 1050,
      "oul": 1051,
      "Ġ2000": 1052,
      "oss": 1053,
      "useum": 1054,
      "34": 1055,
      "ms": 1056,
      "Ġcomm": 1057,
      "ari": 1058,
      "ico": 1059,
      "ely": 1060,
      "Ġ1999": 1061,
      "apan": 1062,
      "**\"": 1063,
      "ĠMac": 1064,
      "24": 1065,
      "rol": 1066,
      "ript": 1067,
      "ĠInstit": 1068,
      ".;": 1069,
      "Å¡": 1070,
      "inal": 1071,
      "orf": 1072,
      "amm": 1073,
      "zo": 1074,
      "ĠMont": 1075,
      "Ġno": 1076,
      "ix": 1077,
      "nam": 1078,
      "Ġro": 1079,
      "áº¿t": 1080,
      "29": 1081,
      "Par": 1082,
      "ĠX": 1083,
      "ĥm": 1084,
      "ĠGro": 1085,
      "Ġthis": 1086,
      "áº·": 1087,
      "ox": 1088,
      "Ġcons": 1089,
      "ĠCan": 1090,
      "ourn": 1091,
      "oÃłi": 1092,
      "Ġup": 1093,
      "ird": 1094,
      "ĠComm": 1095,
      "olo": 1096,
      "ĠGr": 1097,
      "58": 1098,
      "erb": 1099,
      "eri": 1100,
      "illa": 1101,
      "cript": 1102,
      "ÅĻ": 1103,
      "optera": 1104,
      "ena": 1105,
      "Ġpart": 1106,
      "ĠNorth": 1107,
      "Ġthu": 1108,
      "ty": 1109,
      "Ġj": 1110,
      "Ġcl": 1111,
      "ĠMil": 1112,
      "ĠEx": 1113,
      "terf": 1114,
      "ĠNatural": 1115,
      "56": 1116,
      "oe": 1117,
      "ality": 1118,
      "ĠAir": 1119,
      "ĠStud": 1120,
      "ĠNames": 1121,
      "Ġ1996": 1122,
      "iano": 1123,
      "ternational": 1124,
      "Ġev": 1125,
      "ĠRich": 1126,
      "á»Ļc": 1127,
      "ock": 1128,
      "ysis": 1129,
      "ĠCompany": 1130,
      "//": 1131,
      "lated": 1132,
      "yd": 1133,
      "Ġpla": 1134,
      "ological": 1135,
      "lat": 1136,
      "Ġbut": 1137,
      "omas": 1138,
      "lav": 1139,
      "ibr": 1140,
      "ĠLa": 1141,
      "Æ°á»£": 1142,
      "69": 1143,
      "://": 1144,
      "ĠMan": 1145,
      "une": 1146,
      "ĠPublishers": 1147,
      "uf": 1148,
      "burg": 1149,
      "Ġflow": 1150,
      "57": 1151,
      "§a": 1152,
      "ĠAust": 1153,
      "ennis": 1154,
      "ĠSm": 1155,
      "ĠMuseum": 1156,
      "Ġ1997": 1157,
      "ĠPeter": 1158,
      "mp": 1159,
      "Ġ7": 1160,
      "ĠWal": 1161,
      "Ġrec": 1162,
      "ext": 1163,
      "cad": 1164,
      "ĠBrit": 1165,
      "els": 1166,
      "ĠHe": 1167,
      "duction": 1168,
      "evelop": 1169,
      "Ġthuá»Ļc": 1170,
      "na": 1171,
      "rong": 1172,
      "rich": 1173,
      "ual": 1174,
      "2003": 1175,
      "omet": 1176,
      "ollis": 1177,
      "Æ°á»£c": 1178,
      "Lept": 1179,
      "ink": 1180,
      "ĠGerman": 1181,
      "ĠFor": 1182,
      "lex": 1183,
      "ĠVal": 1184,
      "wards": 1185,
      "yp": 1186,
      "ions": 1187,
      "lidae": 1188,
      "ipp": 1189,
      "ien": 1190,
      "ky": 1191,
      "nd": 1192,
      "Äį": 1193,
      "Ġall": 1194,
      "iver": 1195,
      "Ġ10": 1196,
      "lies": 1197,
      "Ar": 1198,
      "Dictionary": 1199,
      "Ġ1995": 1200,
      "Ġam": 1201,
      "cel": 1202,
      "ures": 1203,
      "rad": 1204,
      "áº£o": 1205,
      "ke": 1206,
      "Ã¢": 1207,
      "á»ĩ": 1208,
      "ĠSal": 1209,
      "Ġlong": 1210,
      "ĠBut": 1211,
      "uth": 1212,
      "ĠVol": 1213,
      "ĠÄĳÆ°á»£c": 1214,
      "ashington": 1215,
      "bia": 1216,
      "lant": 1217,
      "Ã¤": 1218,
      "rev": 1219,
      "rew": 1220,
      "ĠEl": 1221,
      "opus": 1222,
      "Ġkáº¿t": 1223,
      "23": 1224,
      "rag": 1225,
      "ract": 1226,
      "ull": 1227,
      "Ber": 1228,
      "ild": 1229,
      "ĠChar": 1230,
      "ownlo": 1231,
      "ony": 1232,
      "ĠAb": 1233,
      "Ġcá»§a": 1234,
      "ĠEng": 1235,
      "rown": 1236,
      "ĠGreen": 1237,
      "ĠChrist": 1238,
      "ko": 1239,
      "Ġz": 1240,
      "ĠCol": 1241,
      "ĠTor": 1242,
      "ello": 1243,
      "ference": 1244,
      "aph": 1245,
      "ĠRom": 1246,
      "ĠAg": 1247,
      "ylus": 1248,
      "26": 1249,
      "On": 1250,
      "oy": 1251,
      "Ġel": 1252,
      "á»ĵ": 1253,
      "ĠJames": 1254,
      "ake": 1255,
      "opsis": 1256,
      "ournal": 1257,
      "ii": 1258,
      "rass": 1259,
      "icago": 1260,
      "ĠUnited": 1261,
      "Ġ1994": 1262,
      "ibrary": 1263,
      "ownload": 1264,
      "ean": 1265,
      "ua": 1266,
      "ret": 1267,
      "itz": 1268,
      "Ġsc": 1269,
      "ĠIndia": 1270,
      "ollection": 1271,
      "ough": 1272,
      "hel": 1273,
      "ield": 1274,
      "Al": 1275,
      "uel": 1276,
      "ĠGi": 1277,
      "ĠPhil": 1278,
      "Ġpublished": 1279,
      "ledge": 1280,
      "onald": 1281,
      "eder": 1282,
      "ĠSant": 1283,
      "ambridge": 1284,
      "lack": 1285,
      "Ġrev": 1286,
      "seud": 1287,
      "ĠngoÃłi": 1288,
      "fe": 1289,
      "edia": 1290,
      "hem": 1291,
      "uy": 1292,
      "Ġco": 1293,
      "ĠTim": 1294,
      "icle": 1295,
      "ĠVer": 1296,
      "eh": 1297,
      "ft": 1298,
      "Ġweb": 1299,
      "ocera": 1300,
      "inae": 1301,
      "Ġabout": 1302,
      "ĠRichard": 1303,
      "rim": 1304,
      "urg": 1305,
      "48": 1306,
      "Car": 1307,
      "ura": 1308,
      "Ġnew": 1309,
      "ject": 1310,
      "kins": 1311,
      "ĠAss": 1312,
      "Ġlow": 1313,
      "ĠEv": 1314,
      "bor": 1315,
      "ero": 1316,
      "ala": 1317,
      "ĠMin": 1318,
      "Ġ16": 1319,
      "epidoptera": 1320,
      "Le": 1321,
      "ring": 1322,
      "ise": 1323,
      "196": 1324,
      "ĠUS": 1325,
      "ays": 1326,
      "Ġeds": 1327,
      "Ġalso": 1328,
      "ownloaded": 1329,
      "za": 1330,
      "arg": 1331,
      "ĠThomas": 1332,
      "atum": 1333,
      "ĠRep": 1334,
      "ĠNe": 1335,
      "ĠOp": 1336,
      "36": 1337,
      "38": 1338,
      "Downloaded": 1339,
      "atic": 1340,
      "ĠSouth": 1341,
      "ĠMusic": 1342,
      "ement": 1343,
      "2002": 1344,
      "ales": 1345,
      "eld": 1346,
      "ĠJul": 1347,
      "Ġ2009": 1348,
      "ĠAustral": 1349,
      "40": 1350,
      "76": 1351,
      "Ad": 1352,
      "They": 1353,
      "ĠArch": 1354,
      "ef": 1355,
      "ĠOn": 1356,
      "bach": 1357,
      "fr": 1358,
      "Ãły": 1359,
      "Ġbas": 1360,
      "ĠMal": 1361,
      "iana": 1362,
      "ĠMichael": 1363,
      "ences": 1364,
      "ĠPo": 1365,
      "ĠPer": 1366,
      "Ġind": 1367,
      "Ġreg": 1368,
      "***": 1369,
      "Ġbeen": 1370,
      "28": 1371,
      "Ġob": 1372,
      "2001": 1373,
      "====": 1374,
      "25": 1375,
      "aci": 1376,
      "air": 1377,
      "ĠPar": 1378,
      "uring": 1379,
      "Ġ1993": 1380,
      "iffer": 1381,
      "mann": 1382,
      "ham": 1383,
      "Ġother": 1384,
      "Ġdo": 1385,
      "Ġ190": 1386,
      "37": 1387,
      "Rop": 1388,
      "fl": 1389,
      "Ġen": 1390,
      "Ġtwo": 1391,
      "reg": 1392,
      "Ã¡c": 1393,
      "angu": 1394,
      "terflies": 1395,
      "ĠBo": 1396,
      "áºŃ": 1397,
      "outledge": 1398,
      "Paris": 1399,
      "ze": 1400,
      "erus": 1401,
      "ĠHen": 1402,
      "rach": 1403,
      "ĠInternational": 1404,
      "by": 1405,
      "int": 1406,
      "ĠCatal": 1407,
      "Ġmin": 1408,
      "á»ĩn": 1409,
      "John": 1410,
      "ho": 1411,
      "ied": 1412,
      "por": 1413,
      "site": 1414,
      "ental": 1415,
      "raz": 1416,
      "ĠStates": 1417,
      "ugust": 1418,
      "Sp": 1419,
      "tro": 1420,
      "ĠÃ": 1421,
      "Ġcan": 1422,
      "ĠLibrary": 1423,
      "rough": 1424,
      "Ġdist": 1425,
      "umb": 1426,
      "Ġwork": 1427,
      "ula": 1428,
      "ative": 1429,
      "2000": 1430,
      "ray": 1431,
      "agn": 1432,
      "II": 1433,
      "Äĥm": 1434,
      "ists": 1435,
      "ĠBe": 1436,
      "ille": 1437,
      "Ġsur": 1438,
      "ota": 1439,
      "emic": 1440,
      "ĠButterflies": 1441,
      "..": 1442,
      "van": 1443,
      "Ġart": 1444,
      "rem": 1445,
      "aro": 1446,
      "oma": 1447,
      "áº¡": 1448,
      "Ropica": 1449,
      "esc": 1450,
      "Ġinclud": 1451,
      "ives": 1452,
      "Ġ189": 1453,
      "rench": 1454,
      "evelopment": 1455,
      "Volume": 1456,
      "ĠReg": 1457,
      "urope": 1458,
      "ĠInstitute": 1459,
      "49": 1460,
      "inese": 1461,
      "ĠRh": 1462,
      "ĠRev": 1463,
      "ĠGl": 1464,
      "ĠGen": 1465,
      "ĠWe": 1466,
      "rab": 1467,
      "utt": 1468,
      "Ġ2010": 1469,
      "ĠPat": 1470,
      "dact": 1471,
      "ĠEc": 1472,
      "Ġvai": 1473,
      "ogen": 1474,
      "econd": 1475,
      "Ġstud": 1476,
      "ophor": 1477,
      "face": 1478,
      "ĠSw": 1479,
      "ĠCas": 1480,
      "arm": 1481,
      "ĠTr": 1482,
      "Ġmod": 1483,
      "ĠMic": 1484,
      "Ġag": 1485,
      "raw": 1486,
      "Ġgro": 1487,
      "Ġ1992": 1488,
      "iol": 1489,
      "ĠRoutledge": 1490,
      "ĠAugust": 1491,
      "ĠJapan": 1492,
      "Ġwere": 1493,
      "88": 1494,
      "ÄĽ": 1495,
      "anth": 1496,
      "orge": 1497,
      "ĠRuss": 1498,
      "icollis": 1499,
      "ĠAng": 1500,
      "Ġac": 1501,
      "echn": 1502,
      "fic": 1503,
      "ĠCor": 1504,
      "ĠPark": 1505,
      "Ġdu": 1506,
      "ĠHer": 1507,
      "ember": 1508,
      "pha": 1509,
      "***\"": 1510,
      "ĠSmith": 1511,
      "LC": 1512,
      "fter": 1513,
      "lept": 1514,
      "ĠVolume": 1515,
      "Ġform": 1516,
      "ious": 1517,
      "ĠResearch": 1518,
      "31": 1519,
      "Am": 1520,
      "ool": 1521,
      "isch": 1522,
      "onomic": 1523,
      "ba": 1524,
      "Ġ/": 1525,
      "2007": 1526,
      "ĠTex": 1527,
      "ĠTrans": 1528,
      "ĠMat": 1529,
      "ĠMod": 1530,
      "Ġfound": 1531,
      "Ġfirst": 1532,
      "acul": 1533,
      "Or": 1534,
      "ĠHol": 1535,
      "Ġinter": 1536,
      "ĠEar": 1537,
      "âĢĻ": 1538,
      "27": 1539,
      "lish": 1540,
      "ester": 1541,
      "ities": 1542,
      "ipennis": 1543,
      "ney": 1544,
      "itions": 1545,
      "NÃ³": 1546,
      "ision": 1547,
      "pel": 1548,
      "ĠHop": 1549,
      "ĠArm": 1550,
      "35": 1551,
      "89": 1552,
      "aut": 1553,
      "eal": 1554,
      "ls": 1555,
      "ines": 1556,
      "ama": 1557,
      "olor": 1558,
      "Ġsign": 1559,
      "ury": 1560,
      "ĠDo": 1561,
      "Ġinto": 1562,
      "Ps": 1563,
      "isa": 1564,
      "Ġ1990": 1565,
      "University": 1566,
      "As": 1567,
      "gy": 1568,
      "ij": 1569,
      "Ġtá»": 1570,
      "inc": 1571,
      "Ġbet": 1572,
      "ĠBel": 1573,
      "ĠNor": 1574,
      "ĠNov": 1575,
      "lect": 1576,
      "ĠEr": 1577,
      "Ġrep": 1578,
      "Ã´ng": 1579,
      "aint": 1580,
      "olumbia": 1581,
      "ĠCharles": 1582,
      "ani": 1583,
      "ĠRec": 1584,
      "ĠPal": 1585,
      "Ġmore": 1586,
      "ĠMor": 1587,
      "This": 1588,
      "Pro": 1589,
      "Pseud": 1590,
      "ha": 1591,
      "iá»": 1592,
      "ĠnÄĥm": 1593,
      "celona": 1594,
      "21": 1595,
      "CLC": 1596,
      "ĠSub": 1597,
      "ĠLife": 1598,
      "pect": 1599,
      "âĢĶ": 1600,
      "icial": 1601,
      "Ġkháº£o": 1602,
      "ised": 1603,
      "Ġdisc": 1604,
      "eton": 1605,
      "ument": 1606,
      "Ġone": 1607,
      "cess": 1608,
      "tal": 1609,
      "vent": 1610,
      "Ġmost": 1611,
      "ĠDan": 1612,
      "ĠFish": 1613,
      "Ġalb": 1614,
      "www": 1615,
      "55": 1616,
      "ĠcÃ³": 1617,
      "elf": 1618,
      "Ġinformation": 1619,
      "Ġexp": 1620,
      "ĠHopkins": 1621,
      "46": 1622,
      "eph": 1623,
      "ĠCamp": 1624,
      "197": 1625,
      "Ġsim": 1626,
      "Ġper": 1627,
      "ĠOff": 1628,
      "Ġthrough": 1629,
      "Ġleaf": 1630,
      "Ġgenus": 1631,
      "kel": 1632,
      "oz": 1633,
      "Ġass": 1634,
      "ita": 1635,
      "ĠChina": 1636,
      "epart": 1637,
      "illan": 1638,
      "Ġedited": 1639,
      "ĠRoy": 1640,
      "ween": 1641,
      "ĠMartin": 1642,
      "ker": 1643,
      "Ġda": 1644,
      "estern": 1645,
      "ĠMed": 1646,
      "othy": 1647,
      "ĠIndian": 1648,
      "cis": 1649,
      "wn": 1650,
      "well": 1651,
      "eries": 1652,
      "cia": 1653,
      "ĠRad": 1654,
      "ali": 1655,
      "Ġher": 1656,
      "ander": 1657,
      "ĠGreat": 1658,
      "utnam": 1659,
      "aceae": 1660,
      "LiÃªn": 1661,
      "nown": 1662,
      "á»ĳ": 1663,
      "ĠCap": 1664,
      "ĠCont": 1665,
      "aria": 1666,
      "ĠDi": 1667,
      "Ġapp": 1668,
      "emb": 1669,
      "odera": 1670,
      "hi": 1671,
      "tp": 1672,
      "the": 1673,
      "ux": 1674,
      "yc": 1675,
      "Ġend": 1676,
      "ĠAfr": 1677,
      "ĠDel": 1678,
      "resent": 1679,
      "ribus": 1680,
      "47": 1681,
      "Trans": 1682,
      "eds": 1683,
      "cid": 1684,
      "rav": 1685,
      "ĠJan": 1686,
      "Ġ17": 1687,
      "Ġ1991": 1688,
      "1996": 1689,
      "ĠFrank": 1690,
      "90": 1691,
      "ene": 1692,
      "icus": 1693,
      "ĠMur": 1694,
      "Ġperson": 1695,
      "anada": 1696,
      "ĠBarcelona": 1697,
      "cycl": 1698,
      "Family": 1699,
      "aff": 1700,
      "arv": 1701,
      "Ġsm": 1702,
      "Ġsup": 1703,
      "ross": 1704,
      "unya": 1705,
      "ima": 1706,
      "ĠArt": 1707,
      "45": 1708,
      "Comp": 1709,
      "Ġop": 1710,
      "Ġout": 1711,
      "alis": 1712,
      "itor": 1713,
      "ĠPe": 1714,
      "ĠPr": 1715,
      "Ġsome": 1716,
      "ets": 1717,
      "enth": 1718,
      "ĠJose": 1719,
      "Ġwebsite": 1720,
      "Ġbetween": 1721,
      "En": 1722,
      "ique": 1723,
      "yg": 1724,
      "isp": 1725,
      "Ġwe": 1726,
      "lio": 1727,
      "http": 1728,
      "ike": 1729,
      "Ġext": 1730,
      "Ġlower": 1731,
      "ĠCatalunya": 1732,
      "epartment": 1733,
      "rand": 1734,
      "zen": 1735,
      "Ġra": 1736,
      "2009": 1737,
      "Ġhigh": 1738,
      "Ġnig": 1739,
      "ovice": 1740,
      "Ġ1989": 1741,
      "ources": 1742,
      "ornis": 1743,
      "ĠIsland": 1744,
      "ĠRoman": 1745,
      "lis": 1746,
      "no": 1747,
      "Äĩ": 1748,
      "ĠSur": 1749,
      "ĠSqu": 1750,
      "ĠCanada": 1751,
      "urt": 1752,
      "ĠFred": 1753,
      "ĠEurope": 1754,
      "oto": 1755,
      "overn": 1756,
      "áº¥": 1757,
      "Ġ1980": 1758,
      "Ġwho": 1759,
      "ĠAmerica": 1760,
      "sprey": 1761,
      "ĠAssoci": 1762,
      "razil": 1763,
      "gram": 1764,
      "iro": 1765,
      "las": 1766,
      "Ġpe": 1767,
      "ĠGar": 1768,
      "ĠWh": 1769,
      "ĠKn": 1770,
      "stein": 1771,
      "Ġ30": 1772,
      "ĠGeorge": 1773,
      "ould": 1774,
      "ĠTexas": 1775,
      ".:": 1776,
      "me": 1777,
      "yo": 1778,
      "yr": 1779,
      "ats": 1780,
      "cient": 1781,
      "Ġhistory": 1782,
      "ĠMo": 1783,
      "ilis": 1784,
      "ĠWest": 1785,
      "ĠJack": 1786,
      "oston": 1787,
      "unct": 1788,
      "imore": 1789,
      "ower": 1790,
      "ĠChicago": 1791,
      "Ġ1988": 1792,
      "Ġ1979": 1793,
      "ethod": 1794,
      "ĠClass": 1795,
      "dorf": 1796,
      "ps": 1797,
      "ĠSim": 1798,
      "Ġcent": 1799,
      "icles": 1800,
      "ilm": 1801,
      "Ġap": 1802,
      "ĠBerg": 1803,
      "áºŃn": 1804,
      "cyclop": 1805,
      "84": 1806,
      "Se": 1807,
      "Ġcreat": 1808,
      "olon": 1809,
      "asci": 1810,
      "Ġsystem": 1811,
      "ider": 1812,
      "Ġvon": 1813,
      "ceae": 1814,
      "ather": 1815,
      "altimore": 1816,
      "51": 1817,
      "Ag": 1818,
      "ao": 1819,
      "den": 1820,
      "ning": 1821,
      "roll": 1822,
      "ta": 1823,
      "uan": 1824,
      "Ġx": 1825,
      "oni": 1826,
      "ĠMant": 1827,
      "Ġafter": 1828,
      "ylogen": 1829,
      "ĠHenry": 1830,
      "86": 1831,
      "ling": 1832,
      "lation": 1833,
      "ple": 1834,
      "Ã¬": 1835,
      "Ġnh": 1836,
      "anford": 1837,
      "iter": 1838,
      "ital": 1839,
      "Ġshe": 1840,
      "abit": 1841,
      "rinc": 1842,
      "lad": 1843,
      "ature": 1844,
      "inus": 1845,
      "astern": 1846,
      "Ġduring": 1847,
      "Ġ186": 1848,
      "Ã¼r": 1849,
      "ĠJuly": 1850,
      "ek": 1851,
      "ih": 1852,
      "iev": 1853,
      "trong": 1854,
      "ams": 1855,
      "ĠEm": 1856,
      "ĠEast": 1857,
      "ĠScience": 1858,
      "ĠHouse": 1859,
      "rinceton": 1860,
      "La": 1861,
      "ski": 1862,
      "Ãº": 1863,
      "ĠTer": 1864,
      "ĠLu": 1865,
      "ĠFrench": 1866,
      "Ġonly": 1867,
      "ruct": 1868,
      "Sh": 1869,
      "Ġcom": 1870,
      "ĠColumbia": 1871,
      "Ġbec": 1872,
      "ĠBlack": 1873,
      "Ġdiffer": 1874,
      "Ġfe": 1875,
      "Ġname": 1876,
      "Ġ1983": 1877,
      "Tham": 1878,
      "__": 1879,
      "oda": 1880,
      "ĠSam": 1881,
      "2008": 1882,
      "itary": 1883,
      "Ġmar": 1884,
      "ĠState": 1885,
      "ĠChron": 1886,
      "ibidion": 1887,
      "yss": 1888,
      "attle": 1889,
      "Ġvols": 1890,
      "istorical": 1891,
      "wood": 1892,
      "Ġover": 1893,
      "Ġlater": 1894,
      "ĠMe": 1895,
      "ĠMus": 1896,
      "ione": 1897,
      "odes": 1898,
      "acophor": 1899,
      "ictor": 1900,
      "entification": 1901,
      "ĠBritish": 1902,
      "overnment": 1903,
      "At": 1904,
      "Gu": 1905,
      "Ġbi": 1906,
      "Ġme": 1907,
      "ĠMa": 1908,
      "ĠOsprey": 1909,
      "Ġ1981": 1910,
      "ĠFrancis": 1911,
      "Ġused": 1912,
      "Ġsmall": 1913,
      "feld": 1914,
      "Ġ==*": 1915,
      "onn": 1916,
      "ĠAv": 1917,
      "Ġloc": 1918,
      "ellidae": 1919,
      "akes": 1920,
      "ĠMark": 1921,
      "Ġorch": 1922,
      "Washington": 1923,
      "cul": 1924,
      "fred": 1925,
      "pl": 1926,
      "vey": 1927,
      "Ġspeci": 1928,
      "Ġthan": 1929,
      "Ġne": 1930,
      "ĠWilson": 1931,
      "ĠEnglish": 1932,
      "othyne": 1933,
      "Ġpersonality": 1934,
      "Journal": 1935,
      "Sch": 1936,
      "way": 1937,
      "water": 1938,
      "zano": 1939,
      "ince": 1940,
      "ĠColle": 1941,
      "alysis": 1942,
      "ĠAlex": 1943,
      "Ġpar": 1944,
      "Ġplant": 1945,
      "ĠNic": 1946,
      "Ġgáº·": 1947,
      "epto": 1948,
      "ego": 1949,
      "ĠStudies": 1950,
      "Ġgáº·p": 1951,
      "Version": 1952,
      "ĠLi": 1953,
      "ĠAp": 1954,
      "chen": 1955,
      "Ġflav": 1956,
      "cted": 1957,
      "ople": 1958,
      "ĠInter": 1959,
      "ests": 1960,
      "ustr": 1961,
      "rato": 1962,
      "keley": 1963,
      "ĠSquad": 1964,
      "eptodact": 1965,
      "Cambridge": 1966,
      "Rep": 1967,
      "br": 1968,
      "hip": 1969,
      "sen": 1970,
      "ĠPart": 1971,
      "ĠtráºŃn": 1972,
      "ĠBomb": 1973,
      "ĠKar": 1974,
      "ĠVan": 1975,
      "iff": 1976,
      "ever": 1977,
      "1994": 1978,
      "1999": 1979,
      "Ġ1984": 1980,
      "Ġ1986": 1981,
      "Sten": 1982,
      "ographic": 1983,
      "ĠConst": 1984,
      "DF": 1985,
      "Od": 1986,
      "lia": 1987,
      "tic": 1988,
      "ÃŁ": 1989,
      "erg": 1990,
      "onia": 1991,
      "ating": 1992,
      "ores": 1993,
      "ĠIm": 1994,
      "iles": 1995,
      "Ġav": 1996,
      "osm": 1997,
      "Ġversion": 1998,
      "iron": 1999,
      "Ġ1987": 2000,
      "ĠRhacophor": 2001,
      "ĠRhacophoridae": 2002,
      "Ge": 2003,
      "ced": 2004,
      "iÄĩ": 2005,
      "oon": 2006,
      "Ãłn": 2007,
      "Ġsite": 2008,
      "iden": 2009,
      "ivil": 2010,
      "evin": 2011,
      "ÃŃn": 2012,
      "ideo": 2013,
      "ĠMantellidae": 2014,
      "Ur": 2015,
      "atural": 2016,
      "amed": 2017,
      "Ġmany": 2018,
      "Ã¡n": 2019,
      "aster": 2020,
      "ĠBas": 2021,
      "Ġgu": 2022,
      "ants": 2023,
      "ĠEdward": 2024,
      "ĠAustralia": 2025,
      ".-": 2026,
      "42": 2027,
      "Bar": 2028,
      "Mar": 2029,
      "Pothyne": 2030,
      "San": 2031,
      "duc": 2032,
      "gan": 2033,
      "erick": 2034,
      "atab": 2035,
      "atory": 2036,
      "ĠCa": 2037,
      "ĠRoc": 2038,
      "Ã¡ng": 2039,
      "ĠBur": 2040,
      "ĠHa": 2041,
      "ĠHill": 2042,
      "raft": 2043,
      "uman": 2044,
      "ords": 2045,
      "ĠÄĲ": 2046,
      "uck": 2047,
      "Ġresearch": 2048,
      "Ġyear": 2049,
      "09": 2050,
      "91": 2051,
      "Eb": 2052,
      "Ep": 2053,
      "Het": 2054,
      "serv": 2055,
      "uz": 2056,
      "ype": 2057,
      "Ġocc": 2058,
      "ori": 2059,
      "ĠPutnam": 2060,
      "ĠMel": 2061,
      "Ġthey": 2062,
      "Ġpages": 2063,
      "Ġwater": 2064,
      "emi": 2065,
      "opher": 2066,
      "Ã³n": 2067,
      "ĠGuide": 2068,
      "Edited": 2069,
      "erback": 2070,
      "Ore": 2071,
      "ois": 2072,
      "view": 2073,
      "ering": 2074,
      "ĠSa": 2075,
      "ĠRob": 2076,
      "olf": 2077,
      "oli": 2078,
      "ele": 2079,
      "omen": 2080,
      "urus": 2081,
      "ĠNav": 2082,
      "una": 2083,
      "awa": 2084,
      "ulture": 2085,
      "ribution": 2086,
      "ĠBerlin": 2087,
      "ĠCastel": 2088,
      "ĠCanav": 2089,
      "troduction": 2090,
      "87": 2091,
      "oides": 2092,
      "Ġcar": 2093,
      "ĠAcad": 2094,
      "ĠBen": 2095,
      "rov": 2096,
      "ĠJean": 2097,
      "ĠStev": 2098,
      "aves": 2099,
      "eck": 2100,
      "ains": 2101,
      "ĠVerlag": 2102,
      "ĠRoyal": 2103,
      "ĠJoseph": 2104,
      "atabase": 2105,
      ",\"": 2106,
      "Ġem": 2107,
      "ĠTra": 2108,
      "ĠLou": 2109,
      "ĠMass": 2110,
      "Ġpol": 2111,
      "Ġworld": 2112,
      "imal": 2113,
      "Ġ1985": 2114,
      "Ġ1978": 2115,
      "ĠEdition": 2116,
      "Phil": 2117,
      "ĠJackson": 2118,
      "Oreodera": 2119,
      "Trop": 2120,
      "for": 2121,
      "nom": 2122,
      "Ã¹": 2123,
      "Ľi": 2124,
      "ĠSup": 2125,
      "icornis": 2126,
      "ĠbÃłn": 2127,
      "Ġhabit": 2128,
      "ĠMamm": 2129,
      "ĠBru": 2130,
      "Ġpap": 2131,
      "ĠDepartment": 2132,
      "ctor": 2133,
      "opl": 2134,
      "ĠKh": 2135,
      "aden": 2136,
      "ova": 2137,
      "ove": 2138,
      "Ġonline": 2139,
      "aya": 2140,
      "ization": 2141,
      "rinted": 2142,
      "ĠIII": 2143,
      "Ġplay": 2144,
      "Lepturg": 2145,
      "ĠAssociation": 2146,
      "ble": 2147,
      "book": 2148,
      "su": 2149,
      "Ġtentif": 2150,
      "ĠTe": 2151,
      "Ġman": 2152,
      "ĠMag": 2153,
      "ason": 2154,
      "chth": 2155,
      "ility": 2156,
      "ĠWat": 2157,
      "Ġ12": 2158,
      "ĠnÃły": 2159,
      "throp": 2160,
      "ode": 2161,
      "everal": 2162,
      "inea": 2163,
      "Ġ1972": 2164,
      "ctions": 2165,
      "ÃŃa": 2166,
      "ailable": 2167,
      "Ġadd": 2168,
      "ĠSquadron": 2169,
      "06": 2170,
      "07": 2171,
      "CÃ¡c": 2172,
      "Rev": 2173,
      "ior": 2174,
      "rick": 2175,
      "anz": 2176,
      "Ġmay": 2177,
      "ĠAc": 2178,
      "Ġfamily": 2179,
      "ĠHow": 2180,
      "ĠDonald": 2181,
      "ĠNg": 2182,
      "ĠWashington": 2183,
      "rian": 2184,
      "ĠChi": 2185,
      "ugg": 2186,
      "onto": 2187,
      "ffect": 2188,
      "Ġdescript": 2189,
      "uyá»ĩn": 2190,
      "Johns": 2191,
      "ĠDaniel": 2192,
      "Odont": 2193,
      "ĠCanavese": 2194,
      "Meg": 2195,
      "ange": 2196,
      "ĠSystem": 2197,
      "Ġcall": 2198,
      "amin": 2199,
      "Ġhtt": 2200,
      "ĠMid": 2201,
      "ĠBrown": 2202,
      "ilv": 2203,
      "ĠFa": 2204,
      "Ġknown": 2205,
      "ments": 2206,
      "ignal": 2207,
      "Ġprov": 2208,
      "ferrato": 2209,
      "ĠReference": 2210,
      "ĠPapua": 2211,
      "ĠGroup": 2212,
      "tych": 2213,
      "Online": 2214,
      "Translated": 2215,
      "ĠBombay": 2216,
      "Ġear": 2217,
      "rel": 2218,
      "ĠTribus": 2219,
      "Ġsch": 2220,
      "Ġdet": 2221,
      "ĠKing": 2222,
      "ĠVen": 2223,
      "ston": 2224,
      "ource": 2225,
      "Ind": 2226,
      "ĠMonferrato": 2227,
      "ĠAsia": 2228,
      "ĠGermany": 2229,
      "anguage": 2230,
      "Ġhttp": 2231,
      "\"*": 2232,
      "Ã±": 2233,
      "ĠServ": 2234,
      "ĠColl": 2235,
      "ĠRel": 2236,
      "ĠTur": 2237,
      "ices": 2238,
      "ĠAt": 2239,
      "ĠBro": 2240,
      "elle": 2241,
      "Ġact": 2242,
      "ĠEmp": 2243,
      "acch": 2244,
      "ĠSteph": 2245,
      "ards": 2246,
      "Ġ1976": 2247,
      "idact": 2248,
      "ĠCarol": 2249,
      "bury": 2250,
      "Ġcommune": 2251,
      "53": 2252,
      "uda": 2253,
      "uá»ĵ": 2254,
      "win": 2255,
      "Ġent": 2256,
      "ĠSons": 2257,
      "Ġcor": 2258,
      "ĠCost": 2259,
      "arge": 2260,
      "ora": 2261,
      "ĠLim": 2262,
      "ĠPl": 2263,
      "ĠMary": 2264,
      "olec": 2265,
      "omy": 2266,
      "ĠDC": 2267,
      "Ġwell": 2268,
      "iger": 2269,
      "ĠOb": 2270,
      "ude": 2271,
      "Ġruf": 2272,
      "Ġ1969": 2273,
      "ĠFrance": 2274,
      "axonomic": 2275,
      "ĠCenter": 2276,
      "ĠCentral": 2277,
      "áº¡i": 2278,
      "Ġtentiform": 2279,
      "96": 2280,
      "Br": 2281,
      "OCLC": 2282,
      "oot": 2283,
      "riv": 2284,
      "sc": 2285,
      "sur": 2286,
      "zi": 2287,
      "ank": 2288,
      "enberg": 2289,
      "Ġtext": 2290,
      "ator": 2291,
      "atics": 2292,
      "rech": 2293,
      "orb": 2294,
      "ĠLaw": 2295,
      "Ġmon": 2296,
      "ĠWeb": 2297,
      "umber": 2298,
      "Ġ13": 2299,
      "Ġnorth": 2300,
      "ipes": 2301,
      "ĠZeal": 2302,
      "Ġorig": 2303,
      "Ġequ": 2304,
      "ajor": 2305,
      "ĠWalter": 2306,
      "Ġorchid": 2307,
      "ĠZealand": 2308,
      ".*": 2309,
      "Part": 2310,
      "Sm": 2311,
      "Signal": 2312,
      "mon": 2313,
      "Ġec": 2314,
      "ĠRiver": 2315,
      "ĠIl": 2316,
      "pet": 2317,
      "ĠBaltimore": 2318,
      "rog": 2319,
      "Ġpl": 2320,
      "ĠDes": 2321,
      "idolon": 2322,
      "otos": 2323,
      "ĠKevin": 2324,
      "life": 2325,
      "ĠAnn": 2326,
      "ĠMarc": 2327,
      "Ġ1977": 2328,
      "ized": 2329,
      "irds": 2330,
      "cyclopedia": 2331,
      "Trich": 2332,
      "Wh": 2333,
      "World": 2334,
      "uv": 2335,
      "viron": 2336,
      "ylidae": 2337,
      "esis": 2338,
      "ĠCam": 2339,
      "ĠCambridge": 2340,
      "arian": 2341,
      "ĠItal": 2342,
      "ĠMer": 2343,
      "ional": 2344,
      "Ġpop": 2345,
      "etus": 2346,
      "ĠGra": 2347,
      "ĠJe": 2348,
      "ĠJo": 2349,
      "ĠJane": 2350,
      "áº§": 2351,
      "Ġrem": 2352,
      "áº£n": 2353,
      "echan": 2354,
      "ĠGrand": 2355,
      "Berkeley": 2356,
      "ĠSanta": 2357,
      "Ġarticle": 2358,
      "CA": 2359,
      "Ne": 2360,
      "dom": 2361,
      "gio": 2362,
      "Ã£": 2363,
      "inct": 2364,
      "ĠMex": 2365,
      "etic": 2366,
      "Ġfact": 2367,
      "ĠGo": 2368,
      "urs": 2369,
      "ĠDis": 2370,
      "Ġinv": 2371,
      "ivid": 2372,
      "osus": 2373,
      "Ġvill": 2374,
      "otus": 2375,
      "cept": 2376,
      "ĠVictor": 2377,
      "ques": 2378,
      "Ġ1982": 2379,
      "yllis": 2380,
      "Ġatt": 2381,
      "521": 2382,
      "Ġcommon": 2383,
      "borough": 2384,
      "rollton": 2385,
      "He": 2386,
      "ira": 2387,
      "millan": 2388,
      "ster": 2389,
      "Ġid": 2390,
      "ĠtÃªn": 2391,
      "ĠCons": 2392,
      "ĠLeptodact": 2393,
      "ulation": 2394,
      "Ġvan": 2395,
      "ĠOri": 2396,
      "ĠChinese": 2397,
      "app": 2398,
      "Ġret": 2399,
      "ocument": 2400,
      "ĠAnt": 2401,
      "Ġ1971": 2402,
      "ÃŃch": 2403,
      "Carrollton": 2404,
      "umbai": 2405,
      "Comps": 2406,
      "Urg": 2407,
      "Odontocera": 2408,
      "ĠLeptodactylidae": 2409,
      ".).": 2410,
      "04": 2411,
      "Brazil": 2412,
      "Hipp": 2413,
      "ada": 2414,
      "cer": 2415,
      "sy": 2416,
      "Ġoff": 2417,
      "ĠTechn": 2418,
      "Ġtheo": 2419,
      "ĠAer": 2420,
      "etto": 2421,
      "omor": 2422,
      "unn": 2423,
      "str": 2424,
      "ification": 2425,
      "ĠAlb": 2426,
      "Ġ1973": 2427,
      "ollow": 2428,
      "ĠProf": 2429,
      "áº·t": 2430,
      "leptes": 2431,
      "Psaph": 2432,
      "ĠLouis": 2433,
      "idactylus": 2434,
      "yllisia": 2435,
      "Urgleptes": 2436,
      "Boston": 2437,
      "IS": 2438,
      "Nyss": 2439,
      "crys": 2440,
      "ria": 2441,
      "Å¾": 2442,
      "Ġline": 2443,
      "ĠCollection": 2444,
      "aroch": 2445,
      "Ġbl": 2446,
      "ito": 2447,
      "dacrys": 2448,
      "Ġins": 2449,
      "umm": 2450,
      "ults": 2451,
      "ĠOl": 2452,
      "Ġthree": 2453,
      "okyo": 2454,
      "ollus": 2455,
      "ĠReeder": 2456,
      "Ġunder": 2457,
      "Ġstudy": 2458,
      "ĠBruce": 2459,
      "Lepturges": 2460,
      "71": 2461,
      "99": 2462,
      "Con": 2463,
      "ei": 2464,
      "ĠSon": 2465,
      "ites": 2466,
      "ĠPen": 2467,
      "ĠPre": 2468,
      "ĠMay": 2469,
      "ĠBig": 2470,
      "ĠBill": 2471,
      "ĠWin": 2472,
      "ĠthÃ¡ng": 2473,
      "Ġgá»ĵ": 2474,
      "eger": 2475,
      "ĠÄĳáº·t": 2476,
      "ffer": 2477,
      "aux": 2478,
      "engo": 2479,
      "urodacrys": 2480,
      "ĠTimes": 2481,
      "Eburodacrys": 2482,
      "Ã¹ng": 2483,
      "Psapharoch": 2484,
      "Psapharochrus": 2485,
      "Bacch": 2486,
      "Mant": 2487,
      "ually": 2488,
      "ison": 2489,
      "ĠShe": 2490,
      "heim": 2491,
      "ĠLind": 2492,
      "icolor": 2493,
      "ĠMumbai": 2494,
      "ĠBl": 2495,
      "ĠHans": 2496,
      "ĠNot": 2497,
      "ential": 2498,
      "lear": 2499,
      "irg": 2500,
      "Ġrel": 2501,
      "ible": 2502,
      "anni": 2503,
      "Ã¢y": 2504,
      "ĠAfrica": 2505,
      "Ġgá»ĵm": 2506,
      "Bacchisa": 2507,
      "08": 2508,
      "75": 2509,
      "AS": 2510,
      "Amer": 2511,
      "CD": 2512,
      "Rh": 2513,
      "sk": 2514,
      "vard": 2515,
      "Ġuse": 2516,
      "ato": 2517,
      "ĠId": 2518,
      "oln": 2519,
      "chester": 2520,
      "eto": 2521,
      "ĠGod": 2522,
      "ĠGall": 2523,
      "ĠGovernment": 2524,
      "ĠHall": 2525,
      "ĠDr": 2526,
      "ĠDec": 2527,
      "Ġacc": 2528,
      "imes": 2529,
      "ordon": 2530,
      "Ġ2011": 2531,
      "ĠMilitary": 2532,
      "ĠStudy": 2533,
      "ometopus": 2534,
      "ĠEvolution": 2535,
      "ĠUSA": 2536,
      "Ġbased": 2537,
      "43": 2538,
      "Gnom": 2539,
      "Its": 2540,
      "bo": 2541,
      "uh": 2542,
      "yan": 2543,
      "ĠSi": 2544,
      "ĠSov": 2545,
      "Ġbook": 2546,
      "ĠHel": 2547,
      "uridae": 2548,
      "emor": 2549,
      "ĠInt": 2550,
      "obal": 2551,
      "ĠGuinea": 2552,
      "iella": 2553,
      "Æ°á»Ŀ": 2554,
      "ĠOpen": 2555,
      "Mantidactylus": 2556,
      "41": 2557,
      "85": 2558,
      "Ac": 2559,
      "Bi": 2560,
      "Lyn": 2561,
      "ues": 2562,
      "Ġran": 2563,
      "err": 2564,
      "Ġtime": 2565,
      "Ġche": 2566,
      "ĠCla": 2567,
      "het": 2568,
      "ĠMak": 2569,
      "ased": 2570,
      "chi": 2571,
      "Ġso": 2572,
      "Ġpict": 2573,
      "ette": 2574,
      "ĠDevelopment": 2575,
      "ctic": 2576,
      "ried": 2577,
      "ibli": 2578,
      "ense": 2579,
      "oung": 2580,
      "rysop": 2581,
      "ĠMacmillan": 2582,
      "ĠCommun": 2583,
      "Ġclass": 2584,
      "Adetus": 2585,
      "ĠOnline": 2586,
      "ĠDoug": 2587,
      "ĠFrederick": 2588,
      "Ġcreate": 2589,
      "ĠMexico": 2590,
      "bl": 2591,
      "ger": 2592,
      "rent": 2593,
      "yle": 2594,
      "Ġcollection": 2595,
      "ĠMi": 2596,
      "Ġseveral": 2597,
      "Ġdep": 2598,
      "Ġdec": 2599,
      "ĠGordon": 2600,
      "ĠJon": 2601,
      "ĠJones": 2602,
      "ĠKore": 2603,
      "ĠÄĳiá»": 2604,
      "Ġ1967": 2605,
      "ultural": 2606,
      "entific": 2607,
      "innes": 2608,
      "82": 2609,
      "cover": 2610,
      "kh": 2611,
      "oid": 2612,
      "off": 2613,
      "tus": 2614,
      "ves": 2615,
      "eres": 2616,
      "ĠSl": 2617,
      "Ġcur": 2618,
      "Ġcap": 2619,
      "cip": 2620,
      "ario": 2621,
      "ĠRos": 2622,
      "hea": 2623,
      "ĠMet": 2624,
      "asc": 2625,
      "inger": 2626,
      "Ġfus": 2627,
      "Ġfold": 2628,
      "ĠFin": 2629,
      "ĠFlor": 2630,
      "Ġvery": 2631,
      "ĠInformation": 2632,
      "Ann": 2633,
      "aract": 2634,
      "ĠSeries": 2635,
      "ĠChristopher": 2636,
      "ĠAustralian": 2637,
      "ĠRussian": 2638,
      "innesota": 2639,
      "05": 2640,
      "44": 2641,
      "kov": 2642,
      "á»©": 2643,
      "eno": 2644,
      "ined": 2645,
      "ische": 2646,
      "ĠTits": 2647,
      "itu": 2648,
      "Ġmethod": 2649,
      "Ġhow": 2650,
      "ĠBern": 2651,
      "Ġsoci": 2652,
      "Ġpre": 2653,
      "ĠFel": 2654,
      "osc": 2655,
      "Ġthere": 2656,
      "rip": 2657,
      "ifer": 2658,
      "1992": 2659,
      "Ġ1970": 2660,
      "htm": 2661,
      "ervation": 2662,
      "ĠngÃły": 2663,
      "lete": 2664,
      "Ġground": 2665,
      "autus": 2666,
      "surface": 2667,
      "BC": 2668,
      "Cl": 2669,
      "Mic": 2670,
      "Per": 2671,
      "ril": 2672,
      "ĠSaint": 2673,
      "Ġlist": 2674,
      "Ãłnh": 2675,
      "ared": 2676,
      "ĠTan": 2677,
      "istr": 2678,
      "ister": 2679,
      "ĠPres": 2680,
      "ĠPenn": 2681,
      "Ġmusic": 2682,
      "Ġhad": 2683,
      "ĠMad": 2684,
      "ĠMinnesota": 2685,
      "ĠAwards": 2686,
      "Ġpage": 2687,
      "Ġden": 2688,
      "Ġdata": 2689,
      "ivity": 2690,
      "ĠJournal": 2691,
      "ĠStu": 2692,
      "aylor": 2693,
      "onte": 2694,
      "ibb": 2695,
      "ensive": 2696,
      "ĠEdici": 2697,
      "ĠGeographic": 2698,
      "Ġshow": 2699,
      "onesia": 2700,
      "rasis": 2701,
      "vironment": 2702,
      "ĠJeff": 2703,
      "03": 2704,
      "Ebur": 2705,
      "Har": 2706,
      "Op": 2707,
      "ause": 2708,
      "ount": 2709,
      "Ġill": 2710,
      "ĠRen": 2711,
      "ĠLab": 2712,
      "ĠPan": 2713,
      "ĠBre": 2714,
      "ĠBor": 2715,
      "Ġset": 2716,
      "Ġpo": 2717,
      "Ġinc": 2718,
      "erst": 2719,
      "ĠJr": 2720,
      "osp": 2721,
      "eme": 2722,
      "ordan": 2723,
      "aix": 2724,
      "Ġred": 2725,
      "count": 2726,
      "Ġleaves": 2727,
      "Berlin": 2728,
      "Ġincluding": 2729,
      "ĠOffice": 2730,
      "Eburia": 2731,
      "El": 2732,
      "Tor": 2733,
      "fish": 2734,
      "famil": 2735,
      "mar": 2736,
      "work": 2737,
      "ÄĲ": 2738,
      "atch": 2739,
      "ĠSec": 2740,
      "ĠPA": 2741,
      "ĠParis": 2742,
      "Ġmade": 2743,
      "cher": 2744,
      "Ġsame": 2745,
      "rot": 2746,
      "ellow": 2747,
      "Ġstat": 2748,
      "Ã©s": 2749,
      "There": 2750,
      "overed": 2751,
      "Ġrecord": 2752,
      "ĠBritain": 2753,
      "ĠPhilip": 2754,
      "Ġgroup": 2755,
      "ĠNorton": 2756,
      "Ġavailable": 2757,
      "ĠMammal": 2758,
      "77": 2759,
      ";*": 2760,
      "Ane": 2761,
      "Hyllisia": 2762,
      "craft": 2763,
      "dle": 2764,
      "ias": 2765,
      "kt": 2766,
      "min": 2767,
      "ĠÅ": 2768,
      "ĠSpeci": 2769,
      "ĠSav": 2770,
      "cience": 2771,
      "Ġlarge": 2772,
      "ĠCity": 2773,
      "2010": 2774,
      "ĠRand": 2775,
      "ĠLat": 2776,
      "ĠLiÃªn": 2777,
      "ĠLepidoptera": 2778,
      "Ġmajor": 2779,
      "elt": 2780,
      "Ġfull": 2781,
      "Ġvá»": 2782,
      "Ġ15": 2783,
      "ĠUnivers": 2784,
      "obat": 2785,
      "endorf": 2786,
      "Ġwhite": 2787,
      "Chicago": 2788,
      "Chrysop": 2789,
      "ophil": 2790,
      "===*": 2791,
      "ĠHarvard": 2792,
      "ĠPolit": 2793,
      "ĠAngel": 2794,
      "Tropidion": 2795,
      "ĠEmpire": 2796,
      "ĠCarolina": 2797,
      "ĠÄĳiá»ĥm": 2798,
      "02": 2799,
      "Call": 2800,
      "Ex": 2801,
      "Pob": 2802,
      "Tet": 2803,
      "ns": 2804,
      "uin": 2805,
      "Ġlife": 2806,
      "Ġsouth": 2807,
      "Ġsecond": 2808,
      "Ġdevelopment": 2809,
      "ĠForm": 2810,
      "ĠFound": 2811,
      "rain": 2812,
      "Ġvari": 2813,
      "igure": 2814,
      "Ġthese": 2815,
      "ogn": 2816,
      "rie": 2817,
      "phus": 2818,
      "aven": 2819,
      "ardcover": 2820,
      "antine": 2821,
      "Ġreport": 2822,
      "iller": 2823,
      "Ġ1974": 2824,
      "ostylus": 2825,
      "Ġ1968": 2826,
      "ĠIndonesia": 2827,
      "ĠProduction": 2828,
      "Ġdesc": 2829,
      "ĠSocial": 2830,
      "oft": 2831,
      "rolepidoptera": 2832,
      "ĠSouthern": 2833,
      "Ġminor": 2834,
      "duced": 2835,
      "Hetera": 2836,
      "Ġhabitat": 2837,
      "Nyssod": 2838,
      "ĠEdicions": 2839,
      "Chrysoprasis": 2840,
      "73": 2841,
      "81": 2842,
      "be": 2843,
      "men": 2844,
      "ĠâĢĶ": 2845,
      "ency": 2846,
      "Ġcond": 2847,
      "2011": 2848,
      "ĠTom": 2849,
      "ĠLeg": 2850,
      "ĠAst": 2851,
      "ĠApp": 2852,
      "ĠBook": 2853,
      "Ġsul": 2854,
      "Ġfish": 2855,
      "Ġint": 2856,
      "Ġval": 2857,
      "emy": 2858,
      "Ġnear": 2859,
      "lip": 2860,
      "liano": 2861,
      "estia": 2862,
      "Ġ1975": 2863,
      "lands": 2864,
      "ieri": 2865,
      "á»Łi": 2866,
      "orgio": 2867,
      "Ġarch": 2868,
      "Ġplace": 2869,
      "ĠSurvey": 2870,
      "chthes": 2871,
      "Lynx": 2872,
      "Heterachthes": 2873,
      "PDF": 2874,
      "Re": 2875,
      "field": 2876,
      "nem": 2877,
      "rd": 2878,
      "rig": 2879,
      "uer": 2880,
      "ĠÐ": 2881,
      "ination": 2882,
      "ĠSym": 2883,
      "ĠCom": 2884,
      "aries": 2885,
      "Ġbá»Łi": 2886,
      "ĠPort": 2887,
      "ĠPiet": 2888,
      "ĠPlan": 2889,
      "ĠMol": 2890,
      "ush": 2891,
      "ĠAle": 2892,
      "olis": 2893,
      "Ġsn": 2894,
      "ĠHaw": 2895,
      "ĠFive": 2896,
      "ĠFirst": 2897,
      "Ġwill": 2898,
      "ries": 2899,
      "ĠStanford": 2900,
      "1997": 2901,
      "aking": 2902,
      "ensch": 2903,
      "Ã©e": 2904,
      "Ġ1966": 2905,
      "ĠLee": 2906,
      "anning": 2907,
      "ission": 2908,
      "ridgeon": 2909,
      "ĠRegion": 2910,
      "Ġopen": 2911,
      "ĠStephen": 2912,
      "ĠOriental": 2913,
      "American": 2914,
      "Gnomidolon": 2915,
      "818": 2916,
      "No": 2917,
      "Soc": 2918,
      "ea": 2919,
      "ges": 2920,
      "uen": 2921,
      "ville": 2922,
      "ania": 2923,
      "edy": 2924,
      "ĠCong": 2925,
      "ĠLong": 2926,
      "Ġbro": 2927,
      "Ġmm": 2928,
      "andbook": 2929,
      "Ġsl": 2930,
      "Ġseries": 2931,
      "Ġpresent": 2932,
      "ĠFre": 2933,
      "ĠEastern": 2934,
      "ĠJim": 2935,
      "Ġ11": 2936,
      "ĠVilla": 2937,
      "uber": 2938,
      "aps": 2939,
      "1993": 2940,
      "1995": 2941,
      "order": 2942,
      "Ġkm": 2943,
      "ĠMarch": 2944,
      "Ġalong": 2945,
      "Ġanalysis": 2946,
      "ĠWild": 2947,
      "ĠSchool": 2948,
      "ittata": 2949,
      "ĠPaci": 2950,
      "Ġlead": 2951,
      "ĠAdvent": 2952,
      "ĠReport": 2953,
      "Ġvillage": 2954,
      "Anefl": 2955,
      "415": 2956,
      "65": 2957,
      "Ab": 2958,
      "How": 2959,
      "UT": 2960,
      "ful": 2961,
      "iopus": 2962,
      "net": 2963,
      "val": 2964,
      "with": 2965,
      "yth": 2966,
      "Ġ==": 2967,
      "Ġant": 2968,
      "ĠCivil": 2969,
      "ĠRu": 2970,
      "urch": 2971,
      "Ġinf": 2972,
      "ĠFr": 2973,
      "uments": 2974,
      "ĠOk": 2975,
      "agement": 2976,
      "ema": 2977,
      "Ġge": 2978,
      "thur": 2979,
      "ocal": 2980,
      "ĠAllen": 2981,
      "Ġdire": 2982,
      "ĠProject": 2983,
      "ĠBarb": 2984,
      "Ġgeneral": 2985,
      "Ġimp": 2986,
      "ĠAndrew": 2987,
      "691": 2988,
      "Ġreview": 2989,
      "aculata": 2990,
      "Mac": 2991,
      "cent": 2992,
      "cast": 2993,
      "kin": 2994,
      "pos": 2995,
      "vers": 2996,
      "yt": 2997,
      "Ġ)*": 2998,
      "á»§": 2999,
      "reas": 3000,
      "ĠTaxonomic": 3001,
      "iti": 3002,
      "Ġho": 3003,
      "Ġsing": 3004,
      "Ġsau": 3005,
      "Ġfour": 3006,
      "omysis": 3007,
      "ĠDom": 3008,
      "ĠWalt": 3009,
      "ĠFe": 3010,
      "ival": 3011,
      "ĠEth": 3012,
      "Ġwrit": 3013,
      "igan": 3014,
      "ĠVar": 3015,
      "Ġnatural": 3016,
      "oge": 3017,
      "Ġrelat": 3018,
      "Ġstand": 3019,
      "athan": 3020,
      "Ġeach": 3021,
      "ĠPhys": 3022,
      "reek": 3023,
      "ailed": 3024,
      "ĠAsian": 3025,
      "Leptostylus": 3026,
      "Ã¢n": 3027,
      "uthor": 3028,
      "vania": 3029,
      "Ġappe": 3030,
      "Compsibidion": 3031,
      ");": 3032,
      "cell": 3033,
      "ios": 3034,
      "syl": 3035,
      "Ã½": 3036,
      "reland": 3037,
      "ĠIV": 3038,
      "ĠPier": 3039,
      "olia": 3040,
      "asp": 3041,
      "round": 3042,
      "Ġpred": 3043,
      "Ġdis": 3044,
      "Ġfollow": 3045,
      "ĠNar": 3046,
      "Ġaqu": 3047,
      "ived": 3048,
      "opter": 3049,
      "Ġviol": 3050,
      "ĠKe": 3051,
      "ĠKal": 3052,
      "ĠStory": 3053,
      "ĠIns": 3054,
      "Ã©t": 3055,
      "ĠAlfred": 3056,
      "Ġann": 3057,
      "other": 3058,
      "ights": 3059,
      "ittle": 3060,
      "ĠCarl": 3061,
      "ĠNature": 3062,
      "eriod": 3063,
      "ĠMicrolepidoptera": 3064,
      "Ġsigns": 3065,
      "ĠSubfamil": 3066,
      "ructure": 3067,
      "Ġmarine": 3068,
      "olecular": 3069,
      "Nyssodrys": 3070,
      "ĠPacific": 3071,
      "sylvania": 3072,
      "Clept": 3073,
      "Ela": 3074,
      "NE": 3075,
      "Pal": 3076,
      "oo": 3077,
      "rum": 3078,
      "Æ¡": 3079,
      "Ġ__": 3080,
      "anes": 3081,
      "enne": 3082,
      "inia": 3083,
      "ĠSing": 3084,
      "ĠLigure": 3085,
      "ĠIan": 3086,
      "ĠIreland": 3087,
      "istic": 3088,
      "istics": 3089,
      "ĠPrinceton": 3090,
      "Ġhim": 3091,
      "Ġhyd": 3092,
      "elli": 3093,
      "Ġsuch": 3094,
      "Ġpos": 3095,
      "ĠHam": 3096,
      "ĠHein": 3097,
      "ĠDa": 3098,
      "ĠDun": 3099,
      "ĠDig": 3100,
      "ots": 3101,
      "ardo": 3102,
      "Ġstrong": 3103,
      "Ġ22": 3104,
      "Ġ1965": 3105,
      "azz": 3106,
      "icip": 3107,
      "Ġ50": 3108,
      "Ã¼n": 3109,
      "oleiopus": 3110,
      "ĠSciuridae": 3111,
      "cademic": 3112,
      "aphus": 3113,
      "rassa": 3114,
      "ĠGiorgio": 3115,
      "Ġagain": 3116,
      "ĠSimon": 3117,
      "omorpha": 3118,
      "ĠSubfamilia": 3119,
      "Cleptometopus": 3120,
      "Cole": 3121,
      "First": 3122,
      "Hy": 3123,
      "Is": 3124,
      "rence": 3125,
      "2012": 3126,
      "arl": 3127,
      "ĠRog": 3128,
      "ami": 3129,
      "Ġback": 3130,
      "Ġmed": 3131,
      "Ġmark": 3132,
      "ĠMond": 3133,
      "Ġsitu": 3134,
      "ĠFil": 3135,
      "Ġvar": 3136,
      "Ġ14": 3137,
      "ians": 3138,
      "Ġbeh": 3139,
      "Ġchild": 3140,
      "Ġwhere": 3141,
      "ruction": 3142,
      "ĠGiov": 3143,
      "Ġsurface": 3144,
      "ĠGeneral": 3145,
      "ylogeny": 3146,
      "Ġcalled": 3147,
      "ĠProductions": 3148,
      "Mim": 3149,
      "Pap": 3150,
      "gar": 3151,
      "iatic": 3152,
      "list": 3153,
      "ness": 3154,
      "uary": 3155,
      "wan": 3156,
      "Ã²": 3157,
      "anley": 3158,
      "enz": 3159,
      "Ġtyp": 3160,
      "iner": 3161,
      "ĠSel": 3162,
      "ories": 3163,
      "alk": 3164,
      "ĠLand": 3165,
      "ĠPi": 3166,
      "ĠPers": 3167,
      "ĠMong": 3168,
      "asco": 3169,
      "Ġtra": 3170,
      "ĠBattle": 3171,
      "elaphus": 3172,
      "ĠsÃ´ng": 3173,
      "eter": 3174,
      "Ġfin": 3175,
      "ĠHy": 3176,
      "uri": 3177,
      "ĠDon": 3178,
      "ĠFund": 3179,
      "ado": 3180,
      "Ġgrow": 3181,
      "odiversity": 3182,
      "lay": 3183,
      "phidion": 3184,
      "artes": 3185,
      "egg": 3186,
      "egan": 3187,
      "roma": 3188,
      "Ã©n": 3189,
      "ĠArthur": 3190,
      "Anelaphus": 3191,
      "Edwards": 3192,
      "Univers": 3193,
      "ĠForce": 3194,
      "Ġindivid": 3195,
      "Ġdifferent": 3196,
      "Ġearly": 3197,
      "ĠKingdom": 3198,
      "ĠFoundation": 3199,
      "Ġdescrib": 3200,
      "754": 3201,
      "97": 3202,
      "NA": 3203,
      "US": 3204,
      "ais": 3205,
      "aul": 3206,
      "iation": 3207,
      "mo": 3208,
      "nia": 3209,
      "pd": 3210,
      "ved": 3211,
      "zab": 3212,
      "Ġter": 3213,
      "inidae": 3214,
      "Ġown": 3215,
      "Ġcol": 3216,
      "cil": 3217,
      "ĠCass": 3218,
      "2013": 3219,
      "ĠLake": 3220,
      "Ġhon": 3221,
      "uster": 3222,
      "Ġsem": 3223,
      "Ġdem": 3224,
      "ĠGab": 3225,
      "oman": 3226,
      "ĠWork": 3227,
      "ĠWill": 3228,
      "umer": 3229,
      "Ġwar": 3230,
      "phib": 3231,
      "ovo": 3232,
      "ĠStein": 3233,
      "apore": 3234,
      "udd": 3235,
      "ryn": 3236,
      "ationship": 3237,
      "ends": 3238,
      "ĠZh": 3239,
      "idea": 3240,
      "olumes": 3241,
      "Ant": 3242,
      "Ġ2012": 3243,
      "Ġgener": 3244,
      "Ġimport": 3245,
      "rachus": 3246,
      "ĠModern": 3247,
      "Ġaddition": 3248,
      "ĠDisney": 3249,
      "ĠCongress": 3250,
      "67": 3251,
      "Cal": 3252,
      "Eng": 3253,
      "war": 3254,
      "Ġtechn": 3255,
      "inu": 3256,
      "arus": 3257,
      "arch": 3258,
      "alth": 3259,
      "ĠImp": 3260,
      "ĠPot": 3261,
      "ĠMiff": 3262,
      "olk": 3263,
      "etwork": 3264,
      "ĠEli": 3265,
      "igen": 3266,
      "ĠKenn": 3267,
      "Ġgl": 3268,
      "iform": 3269,
      "ĠChick": 3270,
      "ublished": 3271,
      "uder": 3272,
      "ranch": 3273,
      "Ġ35": 3274,
      "Ġprocess": 3275,
      "ruy": 3276,
      "Ġ1964": 3277,
      "Ġupper": 3278,
      "anguages": 3279,
      "Orig": 3280,
      "Guia": 3281,
      "Elaphidion": 3282,
      "ĠMifflin": 3283,
      "62": 3284,
      "Gast": 3285,
      "Mon": 3286,
      "Pol": 3287,
      "Tokyo": 3288,
      "go": 3289,
      "now": 3290,
      "ober": 3291,
      "ĠSpe": 3292,
      "Ġoften": 3293,
      "ĠCorn": 3294,
      "ĠTwo": 3295,
      "ĠIll": 3296,
      "Ġmid": 3297,
      "Ġserv": 3298,
      "ingen": 3299,
      "Ġfem": 3300,
      "ĠGh": 3301,
      "ĠGer": 3302,
      "ĠGold": 3303,
      "ĠHistorical": 3304,
      "ently": 3305,
      "ĠWestern": 3306,
      "iven": 3307,
      "Ġwould": 3308,
      "Ġvir": 3309,
      "igl": 3310,
      "Ġtháº¥": 3311,
      "iri": 3312,
      "1990": 3313,
      "ĠAnton": 3314,
      "Ġriver": 3315,
      "Ġwhen": 3316,
      "pert": 3317,
      "Ġprogram": 3318,
      "Ġ1961": 3319,
      "enguin": 3320,
      "1989": 3321,
      "ringer": 3322,
      "ĠReview": 3323,
      "ĠTranslation": 3324,
      "ĠPennsylvania": 3325,
      "aixa": 3326,
      "83": 3327,
      "CH": 3328,
      "Caixa": 3329,
      "For": 3330,
      "Jordan": 3331,
      "Wil": 3332,
      "hib": 3333,
      "ule": 3334,
      "Ã¦": 3335,
      "anish": 3336,
      "enus": 3337,
      "ĠSol": 3338,
      "Ġca": 3339,
      "Ġcal": 3340,
      "Ġcrit": 3341,
      "ĠRod": 3342,
      "alb": 3343,
      "alus": 3344,
      "ĠLes": 3345,
      "ĠMUT": 3346,
      "Ġfore": 3347,
      "Ġfive": 3348,
      "ĠGun": 3349,
      "ĠGran": 3350,
      "ĠHuman": 3351,
      "iving": 3352,
      "imus": 3353,
      "ĠOf": 3354,
      "cem": 3355,
      "adian": 3356,
      "emann": 3357,
      "ody": 3358,
      "rium": 3359,
      "lace": 3360,
      "aki": 3361,
      "Ġ25": 3362,
      "Ġ27": 3363,
      "ĠAlan": 3364,
      "ieffer": 3365,
      "ĠEduc": 3366,
      "And": 3367,
      "ynam": 3368,
      "ughton": 3369,
      "shire": 3370,
      "Ã¶n": 3371,
      "Ġquad": 3372,
      "ĠChristian": 3373,
      "ĠJapanese": 3374,
      "ĠArmy": 3375,
      "ĠEuropean": 3376,
      "Ġidentification": 3377,
      "ĠMUTCD": 3378,
      "63": 3379,
      "94": 3380,
      "CO": 3381,
      "De": 3382,
      "Die": 3383,
      "Euder": 3384,
      "National": 3385,
      "Princeton": 3386,
      "Rec": 3387,
      "Ver": 3388,
      "apel": 3389,
      "gent": 3390,
      "uis": 3391,
      "Ã§": 3392,
      "ĠtÃ¬": 3393,
      "rea": 3394,
      "icath": 3395,
      "Ġboth": 3396,
      "Ġbrown": 3397,
      "itch": 3398,
      "Ġmult": 3399,
      "ĠMas": 3400,
      "ili": 3401,
      "Ġprev": 3402,
      "Ġdisp": 3403,
      "ingu": 3404,
      "urn": 3405,
      "ĠEric": 3406,
      "ĠJac": 3407,
      "imb": 3408,
      "ĠKle": 3409,
      "ĠViol": 3410,
      "aba": 3411,
      "ender": 3412,
      "ignano": 3413,
      "000": 3414,
      "ĠLeon": 3415,
      "adees": 3416,
      "Ġconsider": 3417,
      "Ġcount": 3418,
      "ĠNovember": 3419,
      "ĠIslands": 3420,
      "ĠWhite": 3421,
      "ĠChronicle": 3422,
      "á»©c": 3423,
      "ĠChickadees": 3424,
      "Jordanoleiopus": 3425,
      "Euderces": 3426,
      "ĠtÃ¬m": 3427,
      "icathartes": 3428,
      "AR": 3429,
      "Ap": 3430,
      "Cosm": 3431,
      "IT": 3432,
      "Qu": 3433,
      "West": 3434,
      "fore": 3435,
      "hof": 3436,
      "rs": 3437,
      "text": 3438,
      "urop": 3439,
      "Ð°": 3440,
      "Ð¾": 3441,
      "Ġ'": 3442,
      "ĥn": 3443,
      "á»ķ": 3444,
      "cial": 3445,
      "ĠChe": 3446,
      "ically": 3447,
      "itors": 3448,
      "Ġsince": 3449,
      "ĠGÃ¶": 3450,
      "ĠFore": 3451,
      "ĠEst": 3452,
      "ĠOld": 3453,
      "empor": 3454,
      "stract": 3455,
      "lain": 3456,
      "ught": 3457,
      "ĠAnth": 3458,
      "ĠAncient": 3459,
      "aining": 3460,
      "ternet": 3461,
      "Ġcharact": 3462,
      "Ġwhile": 3463,
      "Ġproject": 3464,
      "acts": 3465,
      "ĠWilliams": 3466,
      "onomy": 3467,
      "ĠSciences": 3468,
      "ĠHoughton": 3469,
      "Ġ1945": 3470,
      "ĠMcC": 3471,
      "ĠMilne": 3472,
      "ĠExp": 3473,
      "ĠAircraft": 3474,
      "burgh": 3475,
      "Ġflowers": 3476,
      "incoln": 3477,
      "Ġlocated": 3478,
      "ĠService": 3479,
      "ĠSonata": 3480,
      "ĠHawai": 3481,
      "ĠGiovanni": 3482,
      "Ġtháº¥y": 3483,
      "68": 3484,
      "Fran": 3485,
      "Ob": 3486,
      "ja": 3487,
      "lass": 3488,
      "mark": 3489,
      "tr": 3490,
      "uil": 3491,
      "vol": 3492,
      "Ġ[": 3493,
      "Ġi": 3494,
      "Ġes": 3495,
      "ĠâĢ": 3496,
      "Ġterm": 3497,
      "ĠTak": 3498,
      "ĠTaylor": 3499,
      "heast": 3500,
      "ĠLo": 3501,
      "ĠLan": 3502,
      "ĠLor": 3503,
      "ĠLew": 3504,
      "ĠLang": 3505,
      "ĠPra": 3506,
      "Ġhuyá»ĩn": 3507,
      "ĠBy": 3508,
      "ĠBan": 3509,
      "ĠBot": 3510,
      "ily": 3511,
      "Ġpunct": 3512,
      "Ġdatabase": 3513,
      "Ġfilm": 3514,
      "ĠHis": 3515,
      "ĠDÃŃ": 3516,
      "ĠWater": 3517,
      "ĠOne": 3518,
      "ĠOCLC": 3519,
      "Ġtown": 3520,
      "rier": 3521,
      "ĠÄĳáº£o": 3522,
      "Ġeffect": 3523,
      "ether": 3524,
      "aldo": 3525,
      "rinting": 3526,
      "Ġworks": 3527,
      "...": 3528,
      "ĠSwan": 3529,
      "ĠCorpor": 3530,
      "Ġdiscuss": 3531,
      "Ġassoci": 3532,
      "ĠAlexander": 3533,
      "Ġplants": 3534,
      "ĠAcademy": 3535,
      "ĠCollins": 3536,
      "ĠMaryland": 3537,
      "sych": 3538,
      "ĠIdentification": 3539,
      "ĠStuart": 3540,
      "ER": 3541,
      "Man": 3542,
      "rÃ©": 3543,
      "zz": 3544,
      "ĠSept": 3545,
      "ĠSecond": 3546,
      "icon": 3547,
      "Ġbel": 3548,
      "istry": 3549,
      "Ġmus": 3550,
      "Ġmov": 3551,
      "olas": 3552,
      "ĠBow": 3553,
      "ĠBell": 3554,
      "ĠBrian": 3555,
      "ĠGal": 3556,
      "ĠDen": 3557,
      "idus": 3558,
      "ĠOs": 3559,
      "ĠthÃłnh": 3560,
      "Ġgra": 3561,
      "irs": 3562,
      "ogue": 3563,
      "oderes": 3564,
      "rial": 3565,
      "liest": 3566,
      "ĠAlbert": 3567,
      "Ġbeet": 3568,
      "ize": 3569,
      "Ã¶r": 3570,
      "Æ°á»Ľ": 3571,
      "Ġshort": 3572,
      "Ġspin": 3573,
      "escens": 3574,
      "Ġendemic": 3575,
      "ĠAfrican": 3576,
      "ĠMurray": 3577,
      "ibliography": 3578,
      "ĠDÃŃaz": 3579,
      "61": 3580,
      "Acc": 3581,
      "History": 3582,
      "Not": 3583,
      "Pter": 3584,
      "sky": 3585,
      "uff": 3586,
      "ãĥ": 3587,
      "Ġir": 3588,
      "ĠSk": 3589,
      "ĠSad": 3590,
      "ĠSilv": 3591,
      "Ġcomb": 3592,
      "read": 3593,
      "Ġlike": 3594,
      "ĠCro": 3595,
      "ĠRon": 3596,
      "ĠTown": 3597,
      "ista": 3598,
      "ĠPop": 3599,
      "ĠPrin": 3600,
      "ĠMey": 3601,
      "ĠMik": 3602,
      "ĠMax": 3603,
      "1957": 3604,
      "Ġspe": 3605,
      "Ġsep": 3606,
      "Ġsyn": 3607,
      "ila": 3608,
      "ĠDay": 3609,
      "ĠNik": 3610,
      "Ġaward": 3611,
      "ĠFrom": 3612,
      "ĠFilm": 3613,
      "Ġwin": 3614,
      "opag": 3615,
      "Ġvideo": 3616,
      "ĠOtt": 3617,
      "emus": 3618,
      "lied": 3619,
      "ardi": 3620,
      "Ġforms": 3621,
      "udio": 3622,
      "Ġ21": 3623,
      "ours": 3624,
      "Ã´n": 3625,
      "Stiz": 3626,
      "lood": 3627,
      "ronic": 3628,
      "yna": 3629,
      "aterial": 3630,
      "eptus": 3631,
      "Ġdesign": 3632,
      "chema": 3633,
      "ĠEncyclopedia": 3634,
      "ĠMalays": 3635,
      "Ġdoes": 3636,
      "ĠÃī": 3637,
      "ĠEarth": 3638,
      "ĠRadio": 3639,
      "ĠImper": 3640,
      "Geography": 3641,
      "ĠÄĲá»©c": 3642,
      "Megac": 3643,
      "echanics": 3644,
      "ollusca": 3645,
      "Ġgroundwater": 3646,
      "Stizocera": 3647,
      "98": 3648,
      "From": 3649,
      "Mal": 3650,
      "aid": 3651,
      "lim": 3652,
      "med": 3653,
      "most": 3654,
      "ui": 3655,
      "ati": 3656,
      "inson": 3657,
      "Ġoch": 3658,
      "Ġlarv": 3659,
      "ĠCat": 3660,
      "ĠLy": 3661,
      "ĠIr": 3662,
      "Ġmarg": 3663,
      "anda": 3664,
      "ands": 3665,
      "ĠtrÃ¹ng": 3666,
      "Ġser": 3667,
      "Ġsex": 3668,
      "roph": 3669,
      "Ġ1954": 3670,
      "etts": 3671,
      "Ġfun": 3672,
      "Ġfinal": 3673,
      "ĠGri": 3674,
      "ĠGreg": 3675,
      "ersdorf": 3676,
      "ĠWood": 3677,
      "ively": 3678,
      "ĠElect": 3679,
      "ĠJer": 3680,
      "ĠJoh": 3681,
      "osoph": 3682,
      "ĠKieffer": 3683,
      "ogle": 3684,
      "lab": 3685,
      "yllen": 3686,
      "anga": 3687,
      "ebr": 3688,
      "endon": 3689,
      "uccess": 3690,
      "uclear": 3691,
      "Ġruá»ĵ": 3692,
      "Ġchi": 3693,
      "Stanford": 3694,
      "enna": 3695,
      "ĠProgram": 3696,
      "áº£i": 3697,
      "duct": 3698,
      "ĠBiography": 3699,
      "ĠPoland": 3700,
      "ĠValle": 3701,
      "ĠTorinese": 3702,
      "ĠGlobal": 3703,
      "Ġmodel": 3704,
      "ĠErn": 3705,
      "á»ĳc": 3706,
      "ĠFrancisco": 3707,
      "ĠCorporation": 3708,
      "Ġruá»ĵi": 3709,
      "64": 3710,
      "Col": 3711,
      "Life": 3712,
      "Picathartes": 3713,
      "Res": 3714,
      "Wal": 3715,
      "bon": 3716,
      "col": 3717,
      "di": 3718,
      "mond": 3719,
      "nes": 3720,
      "Ġep": 3721,
      "edo": 3722,
      "eded": 3723,
      "Ġtest": 3724,
      "atur": 3725,
      "ĠSar": 3726,
      "Ġlight": 3727,
      "orph": 3728,
      "ĠLev": 3729,
      "ĠMos": 3730,
      "1945": 3731,
      "ĠBa": 3732,
      "ĠBorg": 3733,
      "elo": 3734,
      "Ġsugg": 3735,
      "ilion": 3736,
      "ĠDisc": 3737,
      "idi": 3738,
      "enti": 3739,
      "ĠFl": 3740,
      "ĠFar": 3741,
      "ĠEsp": 3742,
      "osh": 3743,
      "ctober": 3744,
      "ĠVirg": 3745,
      "Ġgreen": 3746,
      "though": 3747,
      "ĠStra": 3748,
      "apolis": 3749,
      "eller": 3750,
      "sonian": 3751,
      "ĠMaria": 3752,
      "Ġarea": 3753,
      "Ġexamp": 3754,
      "Ġ1962": 3755,
      "These": 3756,
      "azine": 3757,
      "ength": 3758,
      "shall": 3759,
      "erme": 3760,
      "rison": 3761,
      "ramm": 3762,
      "ĠDef": 3763,
      "Ġaround": 3764,
      "ĠAsiatic": 3765,
      "ezuel": 3766,
      "ĠAbd": 3767,
      "Ġelect": 3768,
      "ladius": 3769,
      "ustrations": 3770,
      "Ġyears": 3771,
      "ĠSteven": 3772,
      "recht": 3773,
      "blers": 3774,
      "html": 3775,
      "Ġtraits": 3776,
      "Coll": 3777,
      "Ros": 3778,
      "SS": 3779,
      "Tom": 3780,
      "con": 3781,
      "iqu": 3782,
      "ji": 3783,
      "key": 3784,
      "onal": 3785,
      "enidae": 3786,
      "Ġte": 3787,
      "inot": 3788,
      "inburgh": 3789,
      "Ġbre": 3790,
      "Ġbrev": 3791,
      "Ġmain": 3792,
      "ĠMah": 3793,
      "Ġthem": 3794,
      "ĠBay": 3795,
      "eland": 3796,
      "Ġdom": 3797,
      "Ġ1959": 3798,
      "eta": 3799,
      "Ġfa": 3800,
      "ĠHal": 3801,
      "ĠHistor": 3802,
      "ĠNob": 3803,
      "ersey": 3804,
      "idence": 3805,
      "ĠJersey": 3806,
      "uno": 3807,
      "ĠKen": 3808,
      "aca": 3809,
      "acy": 3810,
      "essed": 3811,
      "áº¿n": 3812,
      "Ġbeing": 3813,
      "ecture": 3814,
      "Ġ2013": 3815,
      "ĠHarper": 3816,
      "Ġsequ": 3817,
      "ĠOfficial": 3818,
      "Ġdescriptions": 3819,
      "ĠLimited": 3820,
      "ĠJonathan": 3821,
      "Ġimportant": 3822,
      "Verlag": 3823,
      "ĠAnthony": 3824,
      "92": 3825,
      "AA": 3826,
      "Des": 3827,
      "Lepidoptera": 3828,
      "North": 3829,
      "ires": 3830,
      "ni": 3831,
      "zh": 3832,
      "Ġtype": 3833,
      "inks": 3834,
      "isi": 3835,
      "Ġold": 3836,
      "Ġlanguage": 3837,
      "ĠCort": 3838,
      "arendon": 3839,
      "aly": 3840,
      "head": 3841,
      "ela": 3842,
      "ilar": 3843,
      "Ġpres": 3844,
      "Ġpul": 3845,
      "Ġdevelop": 3846,
      "ĠGard": 3847,
      "ĠDar": 3848,
      "ĠDor": 3849,
      "ĠDem": 3850,
      "ĠDictionary": 3851,
      "ĠEss": 3852,
      "ĠJune": 3853,
      "ĠKim": 3854,
      "adel": 3855,
      "ĠVill": 3856,
      "ems": 3857,
      "thers": 3858,
      "thia": 3859,
      "onta": 3860,
      "anges": 3861,
      "ebru": 3862,
      "ologie": 3863,
      "outheast": 3864,
      "achus": 3865,
      "Ġprof": 3866,
      "ĠWiley": 3867,
      "Ġ1960": 3868,
      "ĠLead": 3869,
      "ribb": 3870,
      "rows": 3871,
      "Ġ58": 3872,
      "ungen": 3873,
      "Phryn": 3874,
      "Ġphotos": 3875,
      "1987": 3876,
      "Ġconc": 3877,
      "tta": 3878,
      "Ġadv": 3879,
      "Ġtranslated": 3880,
      "Art": 3881,
      "Ġobserv": 3882,
      "ĠNaval": 3883,
      "ĠObserv": 3884,
      "ogeography": 3885,
      "yllene": 3886,
      "FA": 3887,
      "Hol": 3888,
      "Hill": 3889,
      "Sc": 3890,
      "bro": 3891,
      "ga": 3892,
      "gra": 3893,
      "vo": 3894,
      "ware": 3895,
      "ÅĤ": 3896,
      "Ġest": 3897,
      "eda": 3898,
      "edu": 3899,
      "edes": 3900,
      "enko": 3901,
      "Ġtáº¡i": 3902,
      "inally": 3903,
      "Ġov": 3904,
      "orne": 3905,
      "ĠRam": 3906,
      "alu": 3907,
      "ĠTem": 3908,
      "ĠPri": 3909,
      "Ġmic": 3910,
      "Ġhistorical": 3911,
      "ĠMoh": 3912,
      "1932": 3913,
      "ĠAsh": 3914,
      "ioni": 3915,
      "ĠBos": 3916,
      "Ġsal": 3917,
      "Ġside": 3918,
      "Ġpat": 3919,
      "Ġpress": 3920,
      "Ġdie": 3921,
      "Ġdue": 3922,
      "ete": 3923,
      "ĠGil": 3924,
      "ĠGreek": 3925,
      "ĠHor": 3926,
      "ersh": 3927,
      "erside": 3928,
      "ento": 3929,
      "ume": 3930,
      "ulu": 3931,
      "ularis": 3932,
      "ullet": 3933,
      "Ġvis": 3934,
      "ĠOv": 3935,
      "teroid": 3936,
      "ĠUr": 3937,
      "Ġthen": 3938,
      "Ġnam": 3939,
      "Ġnamed": 3940,
      "rio": 3941,
      "lie": 3942,
      "ows": 3943,
      "eva": 3944,
      "ĠChase": 3945,
      "ineus": 3946,
      "ublic": 3947,
      "ocladius": 3948,
      "estra": 3949,
      "uge": 3950,
      "Ġdef": 3951,
      "lying": 3952,
      "upp": 3953,
      "ĠAnimal": 3954,
      "Ġbei": 3955,
      "igns": 3956,
      "ĠZo": 3957,
      "Ġorgan": 3958,
      "Ġ1963": 3959,
      "inds": 3960,
      "ails": 3961,
      "Phys": 3962,
      "aft": 3963,
      "1985": 3964,
      "ĠSpanish": 3965,
      "ĠPapers": 3966,
      "Ġusing": 3967,
      "ĠMartino": 3968,
      "ĠCommon": 3969,
      "ĠArchives": 3970,
      "airs": 3971,
      "Ġstudies": 3972,
      "ĠSamuel": 3973,
      "áº§n": 3974,
      "ĠPenins": 3975,
      "ruyter": 3976,
      "ebruary": 3977,
      "Bab": 3978,
      "Can": 3979,
      "Cont": 3980,
      "Der": 3981,
      "IN": 3982,
      "bi": 3983,
      "cyl": 3984,
      "wa": 3985,
      "wick": 3986,
      "yla": 3987,
      "ÅĦ": 3988,
      "ÑĢ": 3989,
      "Ġ+": 3990,
      "Ġang": 3991,
      "Ġ====": 3992,
      "īnh": 3993,
      "anus": 3994,
      "esch": 3995,
      "Ġtw": 3996,
      "ĠSen": 3997,
      "Ġcoc": 3998,
      "ĠcÃ´n": 3999,
      "ĠCur": 4000,
      "ĠCribb": 4001,
      "arp": 4002,
      "ĠRol": 4003,
      "alph": 4004,
      "itte": 4005,
      "ĠMy": 4006,
      "ĠAri": 4007,
      "Ġsci": 4008,
      "Ġprim": 4009,
      "Ġdocument": 4010,
      "Ġfamil": 4011,
      "Ġfree": 4012,
      "ĠGary": 4013,
      "ĠGruyter": 4014,
      "ĠDatabase": 4015,
      "Ġaur": 4016,
      "Ġair": 4017,
      "ids": 4018,
      "iaceae": 4019,
      "ulus": 4020,
      "Ġvolume": 4021,
      "Ġ100": 4022,
      "ĠVinc": 4023,
      "uba": 4024,
      "Ġnov": 4025,
      "Ġnumber": 4026,
      "áº¯": 4027,
      "ava": 4028,
      "ĠYear": 4029,
      "ĠChris": 4030,
      "apter": 4031,
      "ibet": 4032,
      "Ġstates": 4033,
      "ĠAlt": 4034,
      "ternum": 4035,
      "ika": 4036,
      "ographs": 4037,
      "ampson": 4038,
      "ethia": 4039,
      "itta": 4040,
      "1986": 4041,
      "active": 4042,
      "Ġcomput": 4043,
      "Ġyellow": 4044,
      "etters": 4045,
      "ĠCastell": 4046,
      "ĠSea": 4047,
      "oxestia": 4048,
      "ĠExt": 4049,
      "ĠArchive": 4050,
      "ĠOnt": 4051,
      "III": 4052,
      "ĠCasal": 4053,
      "ischen": 4054,
      "ĠModel": 4055,
      "Ġinterview": 4056,
      "aliidae": 4057,
      "Ġappro": 4058,
      "iterature": 4059,
      "Ġofficial": 4060,
      "Ġvá»Ľi": 4061,
      "Nyssodrysternum": 4062,
      "Coleoxestia": 4063,
      "pdf": 4064,
      "cember": 4065,
      "Ġconsidered": 4066,
      "ĠSwanborough": 4067,
      "Megacyllene": 4068,
      "520": 4069,
      "95": 4070,
      "AN": 4071,
      "Aust": 4072,
      "Be": 4073,
      "Bo": 4074,
      "Bly": 4075,
      "IUCN": 4076,
      "Mc": 4077,
      "Min": 4078,
      "Ox": 4079,
      "Oz": 4080,
      "her": 4081,
      "right": 4082,
      "trans": 4083,
      "va": 4084,
      "worth": 4085,
      "zig": 4086,
      "onst": 4087,
      "esi": 4088,
      "inh": 4089,
      "isoma": 4090,
      "ĠTime": 4091,
      "ĠIvan": 4092,
      "amar": 4093,
      "ĠPost": 4094,
      "ĠMB": 4095,
      "andra": 4096,
      "usan": 4097,
      "ĠAh": 4098,
      "ĠBall": 4099,
      "ĠBirds": 4100,
      "Ġsol": 4101,
      "amber": 4102,
      "ĠDiv": 4103,
      "ĠNeb": 4104,
      "ĠNetwork": 4105,
      "Ġinst": 4106,
      "ĠWolf": 4107,
      "ĠFab": 4108,
      "imp": 4109,
      "imel": 4110,
      "iglio": 4111,
      "cean": 4112,
      "Ġthreatened": 4113,
      "Ġthird": 4114,
      "eman": 4115,
      "ements": 4116,
      "Ġnow": 4117,
      "ovÃ¡": 4118,
      "oviÄĩ": 4119,
      "ĠInternet": 4120,
      "1991": 4121,
      "Ġrele": 4122,
      "Ġissu": 4123,
      "****": 4124,
      "ourt": 4125,
      "orte": 4126,
      "Ġ31": 4127,
      "iko": 4128,
      "ahn": 4129,
      "ĠReich": 4130,
      "oths": 4131,
      "ashi": 4132,
      "Ġphys": 4133,
      "ĠCentury": 4134,
      "ĠEnd": 4135,
      "ĠEnvironment": 4136,
      "ĠScientific": 4137,
      "onaut": 4138,
      "ĠClark": 4139,
      "Ġtranslation": 4140,
      "Ġkhu": 4141,
      "cription": 4142,
      "ĠToronto": 4143,
      "ĠTimaliidae": 4144,
      "1965": 4145,
      "ĠEarliest": 4146,
      "Ġtá»±": 4147,
      "ĠRecords": 4148,
      "ĠFrankf": 4149,
      "Ġcentury": 4150,
      "ĠBlackwell": 4151,
      "Ġmeas": 4152,
      "ĠCape": 4153,
      "ĠMassachus": 4154,
      "forman": 4155,
      "Revised": 4156,
      "ĠCosta": 4157,
      "ĠSpecial": 4158,
      "ĠPietro": 4159,
      "Aneflomorpha": 4160,
      "ationships": 4161,
      "ĠViolin": 4162,
      "ulletin": 4163,
      "Blyth": 4164,
      "ĠMassachusetts": 4165,
      "66": 4166,
      "DA": 4167,
      "Dav": 4168,
      "Goe": 4169,
      "Mil": 4170,
      "ON": 4171,
      "Ost": 4172,
      "Pet": 4173,
      "She": 4174,
      "TI": 4175,
      "iÃ¨": 4176,
      "oun": 4177,
      "tain": 4178,
      "west": 4179,
      "wald": 4180,
      "Ð¸": 4181,
      "Ñģ": 4182,
      "Ġepid": 4183,
      "á»¯": 4184,
      "ĠSib": 4185,
      "Ġcolle": 4186,
      "Ġlevel": 4187,
      "ĠCra": 4188,
      "ĠCav": 4189,
      "ĠCrit": 4190,
      "ĠCrow": 4191,
      "ĠTel": 4192,
      "ĠTony": 4193,
      "ĠIt": 4194,
      "ĠPage": 4195,
      "Ġmat": 4196,
      "day": 4197,
      "ĠAk": 4198,
      "Ġtrop": 4199,
      "ĠBon": 4200,
      "ĠBol": 4201,
      "ches": 4202,
      "chia": 4203,
      "roc": 4204,
      "Ġdev": 4205,
      "Ġdraw": 4206,
      "Ġfil": 4207,
      "ĠGa": 4208,
      "ention": 4209,
      "ĠEp": 4210,
      "osybra": 4211,
      "oschema": 4212,
      "ump": 4213,
      "Ġvolumes": 4214,
      "ĠKong": 4215,
      "ĠKent": 4216,
      "aga": 4217,
      "lah": 4218,
      "phract": 4219,
      "Ġwithin": 4220,
      "ĠAll": 4221,
      "Ġcho": 4222,
      "perim": 4223,
      "enness": 4224,
      "ected": 4225,
      "linois": 4226,
      "ultan": 4227,
      "ĠCentre": 4228,
      "ĠCoun": 4229,
      "ĠMichigan": 4230,
      "Ġrecent": 4231,
      "Ġrevised": 4232,
      "ĠIllinois": 4233,
      "ĠItaly": 4234,
      "ĠProfile": 4235,
      "ĠFlorida": 4236,
      "Toronto": 4237,
      "ĠDigital": 4238,
      "Cosmisoma": 4239,
      "ĠHawaii": 4240,
      "ĠSeptember": 4241,
      "ilionidae": 4242,
      "Goeph": 4243,
      "Academic": 4244,
      "Cast": 4245,
      "Gar": 4246,
      "Graw": 4247,
      "Met": 4248,
      "SE": 4249,
      "War": 4250,
      "donald": 4251,
      "gi": 4252,
      "lam": 4253,
      "nold": 4254,
      "sa": 4255,
      "uit": 4256,
      "zzo": 4257,
      "Â²": 4258,
      "Ġer": 4259,
      "Ġ===": 4260,
      "erd": 4261,
      "eding": 4262,
      "Ġtit": 4263,
      "Ġtop": 4264,
      "Ġtax": 4265,
      "ĠtÃŃch": 4266,
      "inis": 4267,
      "Ġcross": 4268,
      "rep": 4269,
      "rees": 4270,
      "ĠCant": 4271,
      "ares": 4272,
      "ĠRay": 4273,
      "ĠTach": 4274,
      "icum": 4275,
      "Ġborder": 4276,
      "ĠMit": 4277,
      "ĠMot": 4278,
      "ĠMedia": 4279,
      "ĠBat": 4280,
      "ĠBra": 4281,
      "ĠBrazil": 4282,
      "Ġsw": 4283,
      "Ġsil": 4284,
      "Ġpost": 4285,
      "ĠGul": 4286,
      "ĠHemi": 4287,
      "ĠHaven": 4288,
      "ĠNa": 4289,
      "Ġintroduction": 4290,
      "ident": 4291,
      "ĠWay": 4292,
      "ĠField": 4293,
      "ĠEner": 4294,
      "iac": 4295,
      "osph": 4296,
      "ummer": 4297,
      "unicip": 4298,
      "imi": 4299,
      "ades": 4300,
      "ression": 4301,
      "Ġnames": 4302,
      "irk": 4303,
      "lian": 4304,
      "liff": 4305,
      "ĠYale": 4306,
      "ability": 4307,
      "Ġref": 4308,
      "ocus": 4309,
      "ocuments": 4310,
      "essor": 4311,
      "ĠMarshall": 4312,
      "ĠOrig": 4313,
      "Ġren": 4314,
      "Ġrun": 4315,
      "Christ": 4316,
      "Ancyl": 4317,
      "ynter": 4318,
      "ughlin": 4319,
      "ĠShÅį": 4320,
      "issance": 4321,
      "ĠProv": 4322,
      "ĠDavis": 4323,
      "1983": 4324,
      "Ġquáº£n": 4325,
      "Ġnotes": 4326,
      "Ġeven": 4327,
      "ometimes": 4328,
      "Ġamong": 4329,
      "hemat": 4330,
      "Ġdistribution": 4331,
      "ĠPatrick": 4332,
      "ĠEconom": 4333,
      "ischer": 4334,
      "Psy": 4335,
      "Agapan": 4336,
      "ĠChronicles": 4337,
      "ĠAviation": 4338,
      "Reprinted": 4339,
      "Ġdescription": 4340,
      "uá»ĵn": 4341,
      "Hippopsis": 4342,
      "Ġagainst": 4343,
      "opagurus": 4344,
      "ĠMalaysia": 4345,
      "Babblers": 4346,
      "phractidae": 4347,
      "ĠHemiphractidae": 4348,
      "#\"": 4349,
      ")*\"": 4350,
      "Di": 4351,
      "Gory": 4352,
      "Huyá»ĩn": 4353,
      "Rich": 4354,
      "Web": 4355,
      "ban": 4356,
      "gen": 4357,
      "gart": 4358,
      "nass": 4359,
      "oire": 4360,
      "ÅĪ": 4361,
      "enh": 4362,
      "Ġtem": 4363,
      "ĠSom": 4364,
      "reh": 4365,
      "ream": 4366,
      "ĠCz": 4367,
      "ĠCle": 4368,
      "ĠCad": 4369,
      "oria": 4370,
      "ĠRic": 4371,
      "ĠRiv": 4372,
      "ĠRoss": 4373,
      "ĠLos": 4374,
      "icular": 4375,
      "Ġbibliography": 4376,
      "ĠPed": 4377,
      "Ġhistor": 4378,
      "usa": 4379,
      "ols": 4380,
      "ĠBoston": 4381,
      "chb": 4382,
      "rothe": 4383,
      "Ġ1957": 4384,
      "Ġfre": 4385,
      "Ġfasci": 4386,
      "ĠHon": 4387,
      "ĠHigh": 4388,
      "ĠData": 4389,
      "ĠNich": 4390,
      "idel": 4391,
      "ĠFour": 4392,
      "uma": 4393,
      "ĠOh": 4394,
      "ĠUp": 4395,
      "ĠthÃŃch": 4396,
      "ubner": 4397,
      "irc": 4398,
      "odd": 4399,
      "riev": 4400,
      "ĠUnion": 4401,
      "ĠIntroduction": 4402,
      "iang": 4403,
      "epend": 4404,
      "Ġread": 4405,
      "Ġrelated": 4406,
      "ocerus": 4407,
      "Ġstri": 4408,
      "ĠMarine": 4409,
      "Ġany": 4410,
      "Ġrub": 4411,
      "Ġasteroid": 4412,
      "ĠEditions": 4413,
      "izations": 4414,
      "ouv": 4415,
      "ecta": 4416,
      "atters": 4417,
      "1980": 4418,
      "ĠComplete": 4419,
      "Ġconf": 4420,
      "rise": 4421,
      "rateg": 4422,
      "ĠEnt": 4423,
      "Ġarm": 4424,
      "ĠCount": 4425,
      "ĠMcLa": 4426,
      "ĠResources": 4427,
      "Ġusually": 4428,
      "ÅĻÃŃ": 4429,
      "Ġincludes": 4430,
      "Ġmodern": 4431,
      "Amph": 4432,
      "aculatus": 4433,
      "Ġtá»«": 4434,
      "ĠJanuary": 4435,
      "Ġsupport": 4436,
      "plement": 4437,
      "ustrated": 4438,
      "Reprint": 4439,
      "oplon": 4440,
      "Ġnorthern": 4441,
      "ĠJaneiro": 4442,
      "ĠGods": 4443,
      "ĠKorean": 4444,
      "ĠWildlife": 4445,
      "Ġsingle": 4446,
      "ĠVarley": 4447,
      "ĠSingapore": 4448,
      "Ġvarious": 4449,
      "zabeth": 4450,
      "ĠEducation": 4451,
      "Ġcharacter": 4452,
      "Ġcocoon": 4453,
      "ĠVincent": 4454,
      "Goephanes": 4455,
      "Gorybia": 4456,
      "rotheca": 4457,
      "ĠMcLaughlin": 4458,
      "AF": 4459,
      "All": 4460,
      "Cyc": 4461,
      "Do": 4462,
      "Pl": 4463,
      "Say": 4464,
      "je": 4465,
      "lla": 4466,
      "wer": 4467,
      "ãĤ": 4468,
      "Ġif": 4469,
      "ĠSu": 4470,
      "ĠSil": 4471,
      "Ġoper": 4472,
      "Ġcovered": 4473,
      "Ġlat": 4474,
      "ĠTerme": 4475,
      "ĠLin": 4476,
      "ĠLanguage": 4477,
      "Ġbao": 4478,
      "ĠPlant": 4479,
      "ĠPtych": 4480,
      "ĠPrinting": 4481,
      "Ġmuch": 4482,
      "ĠMA": 4483,
      "ĠMiller": 4484,
      "ĠAge": 4485,
      "ĠAward": 4486,
      "ases": 4487,
      "cht": 4488,
      "Ġport": 4489,
      "Ġdeg": 4490,
      "Ġdark": 4491,
      "etidae": 4492,
      "ĠGre": 4493,
      "ĠHan": 4494,
      "ĠDu": 4495,
      "ĠFle": 4496,
      "ĠFree": 4497,
      "ĠEt": 4498,
      "opf": 4499,
      "imate": 4500,
      "ĠOber": 4501,
      "adena": 4502,
      "agen": 4503,
      "irt": 4504,
      "rix": 4505,
      "Ġ23": 4506,
      "earning": 4507,
      "loom": 4508,
      "ruit": 4509,
      "ĠSchiffer": 4510,
      "acks": 4511,
      "ĠJohns": 4512,
      "ighters": 4513,
      "ĠConc": 4514,
      "ĠGeorg": 4515,
      "ermis": 4516,
      "ĠMacdonald": 4517,
      "ĠInstitution": 4518,
      "ĠMonte": 4519,
      "ĠCanadian": 4520,
      "Ġevolution": 4521,
      "Ġaccount": 4522,
      "ĠNorman": 4523,
      "Pseudophil": 4524,
      "ĠFisheries": 4525,
      "ĠCapo": 4526,
      "ĠClassical": 4527,
      "See": 4528,
      "Ġbecause": 4529,
      "Ġdifferences": 4530,
      "adenidae": 4531,
      "ĠFaber": 4532,
      "Ġoriginal": 4533,
      "Smith": 4534,
      "ĠAeronaut": 4535,
      "Ġbroad": 4536,
      "ĠGabri": 4537,
      "Gastrotheca": 4538,
      "Collins": 4539,
      "formance": 4540,
      "ĠEnergy": 4541,
      "Agapanthia": 4542,
      "ĠPtychadenidae": 4543,
      "Pseudophilautus": 4544,
      ":*": 4545,
      "IV": 4546,
      "Japan": 4547,
      "LoÃłi": 4548,
      "Mont": 4549,
      "Methia": 4550,
      "Ptych": 4551,
      "glen": 4552,
      "iber": 4553,
      "mat": 4554,
      "rant": 4555,
      "tribus": 4556,
      "á»±": 4557,
      "ately": 4558,
      "ĠSak": 4559,
      "Ġopp": 4560,
      "Ġcy": 4561,
      "ĠCamb": 4562,
      "ĠCop": 4563,
      "ĠCrus": 4564,
      "orum": 4565,
      "ĠIg": 4566,
      "ĠIss": 4567,
      "itus": 4568,
      "ĠPon": 4569,
      "ĠPin": 4570,
      "Ġmember": 4571,
      "Ġhost": 4572,
      "ĠManning": 4573,
      "ĠAut": 4574,
      "ĠBudd": 4575,
      "Ġsec": 4576,
      "Ġperiod": 4577,
      "Ġ1950": 4578,
      "Ġful": 4579,
      "ĠDet": 4580,
      "ĠDip": 4581,
      "Ġaut": 4582,
      "ership": 4583,
      "ĠWynter": 4584,
      "ĠFall": 4585,
      "utton": 4586,
      "ĠKat": 4587,
      "ĠKegan": 4588,
      "Ġnon": 4589,
      "phony": 4590,
      "allow": 4591,
      "ĠInv": 4592,
      "iane": 4593,
      "oca": 4594,
      "rang": 4595,
      "astrop": 4596,
      "aka": 4597,
      "ĠTheory": 4598,
      "Ġstart": 4599,
      "100": 4600,
      "Ġbefore": 4601,
      "peri": 4602,
      "ChÃº": 4603,
      "ĠSann": 4604,
      "ĠSchuster": 4605,
      "ethes": 4606,
      "ribut": 4607,
      "cks": 4608,
      "ĠBarry": 4609,
      "Ġresp": 4610,
      "Ġ87": 4611,
      "ĠScott": 4612,
      "Åįki": 4613,
      "Ġcommun": 4614,
      "ĠPhilosoph": 4615,
      "ĠEvans": 4616,
      "uttgart": 4617,
      "ĠMichel": 4618,
      "phaer": 4619,
      "ĠEarly": 4620,
      "gypt": 4621,
      "ĠSubtribus": 4622,
      "Ġshell": 4623,
      "Atglen": 4624,
      "ĠCollege": 4625,
      "ĠApril": 4626,
      "ĠConstantine": 4627,
      "ĠMidland": 4628,
      "ĠLawrence": 4629,
      "áº§u": 4630,
      "ĠWinchester": 4631,
      "ĠSovere": 4632,
      "ĠSoviet": 4633,
      "ospace": 4634,
      "ĠPhysics": 4635,
      "Ġappear": 4636,
      "á»ķng": 4637,
      "ĠVirginia": 4638,
      "ezuela": 4639,
      "ĠTachinidae": 4640,
      "Psyrassa": 4641,
      "Ptychadena": 4642,
      ",*": 4643,
      "93": 4644,
      "BS": 4645,
      "Cent": 4646,
      "DE": 4647,
      "Er": 4648,
      "Isch": 4649,
      "Jinn": 4650,
      "Lis": 4651,
      "Ser": 4652,
      "bio": 4653,
      "bour": 4654,
      "can": 4655,
      "dam": 4656,
      "iph": 4657,
      "kan": 4658,
      "nu": 4659,
      "oi": 4660,
      "pro": 4661,
      "pap": 4662,
      "tÅįki": 4663,
      "zer": 4664,
      "Ðµ": 4665,
      "Ġeng": 4666,
      "esh": 4667,
      "eni": 4668,
      "Ġtone": 4669,
      "ĠSab": 4670,
      "ĠCel": 4671,
      "alf": 4672,
      "ĠTa": 4673,
      "ĠTok": 4674,
      "ĠLamb": 4675,
      "ĠIsh": 4676,
      "Ġbus": 4677,
      "Ġblack": 4678,
      "ĠPad": 4679,
      "ĠMain": 4680,
      "olt": 4681,
      "olar": 4682,
      "Ġsearch": 4683,
      "Ġsolution": 4684,
      "ilia": 4685,
      "Ġfield": 4686,
      "ĠHampson": 4687,
      "ĠDire": 4688,
      "ido": 4689,
      "ĠEle": 4690,
      "ĠJuan": 4691,
      "osum": 4692,
      "Ġwings": 4693,
      "uto": 4694,
      "rest": 4695,
      "ulatus": 4696,
      "ador": 4697,
      "Ġgreat": 4698,
      "Ġgall": 4699,
      "ift": 4700,
      "ĠChan": 4701,
      "apt": 4702,
      "antin": 4703,
      "antum": 4704,
      "Ġforests": 4705,
      "Ġstill": 4706,
      "Ġ28": 4707,
      "oret": 4708,
      "obi": 4709,
      "ebrew": 4710,
      "Chapel": 4711,
      "Ġdiá»ĩn": 4712,
      "ship": 4713,
      "ocho": 4714,
      "ochroma": 4715,
      "altes": 4716,
      "ĠPetrop": 4717,
      "very": 4718,
      "50691": 4719,
      "uke": 4720,
      "áº·c": 4721,
      "Ġparts": 4722,
      "ĠNorthern": 4723,
      "ĠForest": 4724,
      "alaemus": 4725,
      "raben": 4726,
      "ĠArmour": 4727,
      "ĠDelhi": 4728,
      "Ġpeople": 4729,
      "Ġplayed": 4730,
      "Ġpopulation": 4731,
      "ĠMakocho": 4732,
      "ĠDouglas": 4733,
      "oftware": 4734,
      "ĠAstron": 4735,
      "Ġfollowing": 4736,
      "ĠRoger": 4737,
      "iglione": 4738,
      "emporary": 4739,
      "Ġbeetles": 4740,
      "ĠSilvano": 4741,
      "Ġlarvae": 4742,
      "Ġ5850691": 4743,
      "Physalaemus": 4744,
      "Ġtropical": 4745,
      "ĠShÅįtÅįki": 4746,
      "rehensive": 4747,
      "ĠSovereigns": 4748,
      "JinnÅį": 4749,
      "\":": 4750,
      "Bis": 4751,
      "Bot": 4752,
      "Hardcover": 4753,
      "IA": 4754,
      "ML": 4755,
      "Red": 4756,
      "TO": 4757,
      "Vol": 4758,
      "Yale": 4759,
      "bit": 4760,
      "known": 4761,
      "mb": 4762,
      "mm": 4763,
      "ny": 4764,
      "ought": 4765,
      "pret": 4766,
      "ration": 4767,
      "rons": 4768,
      "wing": 4769,
      "Å«": 4770,
      "Ġut": 4771,
      "enbach": 4772,
      "inary": 4773,
      "ĠSev": 4774,
      "Ġchem": 4775,
      "reet": 4776,
      "Ġlim": 4777,
      "Ġlink": 4778,
      "Ġlanguages": 4779,
      "arb": 4780,
      "ĠRa": 4781,
      "ĠRalph": 4782,
      "ĠTs": 4783,
      "ĠTw": 4784,
      "ĠTro": 4785,
      "ĠTÃ¢y": 4786,
      "ĠLar": 4787,
      "ĠLuc": 4788,
      "itage": 4789,
      "ĠPav": 4790,
      "ĠPower": 4791,
      "ĠPenguin": 4792,
      "Ġmemb": 4793,
      "Ġhuman": 4794,
      "ĠMiss": 4795,
      "ĠMike": 4796,
      "anding": 4797,
      "Ġtheory": 4798,
      "ĠArab": 4799,
      "asel": 4800,
      "ĠBart": 4801,
      "ĠBry": 4802,
      "Ġsym": 4803,
      "Ġsometimes": 4804,
      "ilio": 4805,
      "Ġpup": 4806,
      "Ġfig": 4807,
      "omar": 4808,
      "ĠHung": 4809,
      "ĠNam": 4810,
      "ĠFri": 4811,
      "ĠJos": 4812,
      "iag": 4813,
      "opia": 4814,
      "ĠOd": 4815,
      "ĠKun": 4816,
      "ads": 4817,
      "adt": 4818,
      "ĠVeg": 4819,
      "ague": 4820,
      "Ġnational": 4821,
      "phia": 4822,
      "acc": 4823,
      "ified": 4824,
      "ineata": 4825,
      "quir": 4826,
      "ontonia": 4827,
      "Ġstatus": 4828,
      "Ġ24": 4829,
      "obius": 4830,
      "ebel": 4831,
      "ĠOrgan": 4832,
      "Ã³m": 4833,
      "Anaux": 4834,
      "ynast": 4835,
      "ĠWarner": 4836,
      "Ġcomplet": 4837,
      "Ġyou": 4838,
      "overy": 4839,
      "ĠClarendon": 4840,
      "Ġimages": 4841,
      "ĠBiology": 4842,
      "rush": 4843,
      "Ġround": 4844,
      "oeum": 4845,
      "ĠManagement": 4846,
      "Ġregion": 4847,
      "Ġtá»īnh": 4848,
      "ĠKnight": 4849,
      "ĠMount": 4850,
      "Ġsystems": 4851,
      "ĠKarl": 4852,
      "ĠRocca": 4853,
      "Philautus": 4854,
      "Ġequation": 4855,
      "Parts": 4856,
      "ĠConservation": 4857,
      "ĠLindley": 4858,
      "Ġrange": 4859,
      "Ġcheck": 4860,
      "ĠDouglass": 4861,
      "ĠKorea": 4862,
      "Ġmethods": 4863,
      "oscow": 4864,
      "ĠPierre": 4865,
      "Ġbehav": 4866,
      "Ġdescribed": 4867,
      "ĠGunston": 4868,
      "gentina": 4869,
      "Ġprevious": 4870,
      "Obrium": 4871,
      "Ġdiscussion": 4872,
      "ĠImperial": 4873,
      "Ġfamilies": 4874,
      "ĠCrowood": 4875,
      "hematical": 4876,
      "72": 4877,
      "Ast": 4878,
      "DC": 4879,
      "May": 4880,
      "Natural": 4881,
      "Science": 4882,
      "Tá»ķng": 4883,
      "Xyl": 4884,
      "band": 4885,
      "cz": 4886,
      "cav": 4887,
      "ken": 4888,
      "lu": 4889,
      "par": 4890,
      "wen": 4891,
      "yb": 4892,
      "Ð½": 4893,
      "Ġunt": 4894,
      "ĠSun": 4895,
      "ĠSoutheast": 4896,
      "ĠCab": 4897,
      "ĠCup": 4898,
      "ĠCath": 4899,
      "ĠCase": 4900,
      "ĠCulture": 4901,
      "arium": 4902,
      "arative": 4903,
      "orus": 4904,
      "ĠTo": 4905,
      "icy": 4906,
      "istoire": 4907,
      "ĠPict": 4908,
      "Ġmel": 4909,
      "Ġmet": 4910,
      "Ġmag": 4911,
      "Ġmunicip": 4912,
      "ĠMatt": 4913,
      "ĠAz": 4914,
      "ĠAct": 4915,
      "ongi": 4916,
      "ongo": 4917,
      "Ġloss": 4918,
      "eli": 4919,
      "Ġpseud": 4920,
      "Ġ1930": 4921,
      "Ġfrass": 4922,
      "ĠHend": 4923,
      "ĠWho": 4924,
      "ĠFort": 4925,
      "ĠEug": 4926,
      "osis": 4927,
      "uture": 4928,
      "oper": 4929,
      "igo": 4930,
      "igma": 4931,
      "ceed": 4932,
      "ĠKr": 4933,
      "ĠVideo": 4934,
      "rief": 4935,
      "ĠUnter": 4936,
      "aker": 4937,
      "ipzig": 4938,
      "ĠPublic": 4939,
      "Ġstructure": 4940,
      "Ġeditor": 4941,
      "ourse": 4942,
      "ĠAnalysis": 4943,
      "ĠAlc": 4944,
      "Ġ33": 4945,
      "Ġ90": 4946,
      "Ġorder": 4947,
      "ruz": 4948,
      "ropical": 4949,
      "áº£ng": 4950,
      "1981": 4951,
      "1988": 4952,
      "ĠSpringer": 4953,
      "Ġconst": 4954,
      "alty": 4955,
      "urotic": 4956,
      "opsicon": 4957,
      "ĠQue": 4958,
      "etta": 4959,
      "stitution": 4960,
      "Ġcontains": 4961,
      "Ġ1948": 4962,
      "ĠPaperback": 4963,
      "ĠPapilionidae": 4964,
      "ĠCommission": 4965,
      "Ġjust": 4966,
      "ĠLaur": 4967,
      "Ġflows": 4968,
      "Ġzur": 4969,
      "rimo": 4970,
      "Ġindic": 4971,
      "ĠTrubner": 4972,
      "ylogenetic": 4973,
      "ĠSteve": 4974,
      "Ġpolit": 4975,
      "ĠMiddle": 4976,
      "Ġdetailed": 4977,
      "Ġcurrent": 4978,
      "Ġillustrations": 4979,
      "ĠLabor": 4980,
      "Ġfulltext": 4981,
      "obatrachus": 4982,
      "ĠAngeles": 4983,
      "However": 4984,
      "ĠCarlos": 4985,
      "Ġsituations": 4986,
      "Ġchildren": 4987,
      "Ġmargin": 4988,
      "Ġsuggest": 4989,
      "Bisaltes": 4990,
      "300": 4991,
      "Bur": 4992,
      "EM": 4993,
      "Ev": 4994,
      "Europe": 4995,
      "Gl": 4996,
      "Les": 4997,
      "Mollusca": 4998,
      "Nih": 4999,
      "Och": 5000,
      "Putnam": 5001,
      "Pridgeon": 5002,
      "WW": 5003,
      "aac": 5004,
      "eins": 5005,
      "lborough": 5006,
      "mes": 5007,
      "nice": 5008,
      "pa": 5009,
      "uals": 5010,
      "ways": 5011,
      "Ġast": 5012,
      "edetidae": 5013,
      "enes": 5014,
      "Ġtel": 5015,
      "ĠSand": 5016,
      "ĠSir": 5017,
      "Ġcast": 5018,
      "Ġcatal": 5019,
      "Ġless": 5020,
      "Ġlinks": 5021,
      "ĠCA": 5022,
      "ĠRaf": 5023,
      "alin": 5024,
      "itan": 5025,
      "itive": 5026,
      "ĠPag": 5027,
      "ĠPub": 5028,
      "ĠPear": 5029,
      "ĠPridgeon": 5030,
      "Ġmap": 5031,
      "Ġmake": 5032,
      "pecially": 5033,
      "ĠMov": 5034,
      "1979": 5035,
      "ĠAqu": 5036,
      "ĠBus": 5037,
      "ĠBad": 5038,
      "ĠBest": 5039,
      "rove": 5040,
      "ils": 5041,
      "Ġpur": 5042,
      "Ġdiss": 5043,
      "Ġdown": 5044,
      "Ġ1913": 5045,
      "eting": 5046,
      "Ġfur": 5047,
      "omerus": 5048,
      "Ġintro": 5049,
      "idium": 5050,
      "ĠFolk": 5051,
      "ĠFebruary": 5052,
      "ĠEver": 5053,
      "ĠJu": 5054,
      "iae": 5055,
      "ostern": 5056,
      "utes": 5057,
      "utsch": 5058,
      "opod": 5059,
      "otch": 5060,
      "ĠKod": 5061,
      "ĠKey": 5062,
      "Ġthose": 5063,
      "emo": 5064,
      "Ġgiven": 5065,
      "Ġnad": 5066,
      "Ġnative": 5067,
      "=====": 5068,
      "lach": 5069,
      "ĠStew": 5070,
      "berto": 5071,
      "astor": 5072,
      "Ġ26": 5073,
      "aire": 5074,
      "ĠEdit": 5075,
      "ĠZe": 5076,
      "Ġproble": 5077,
      "Æ°Æ¡": 5078,
      "ĠConne": 5079,
      "1984": 5080,
      "ĠGeological": 5081,
      "Edinburgh": 5082,
      "Ġcomplex": 5083,
      "ĠCentrol": 5084,
      "ĠDecember": 5085,
      "Ġseed": 5086,
      "Ã¨s": 5087,
      "raska": 5088,
      "Ġflowering": 5089,
      "ĠWalker": 5090,
      "Ġscore": 5091,
      "ĠSmithsonian": 5092,
      "ĠBelg": 5093,
      "Ġexplan": 5094,
      "1973": 5095,
      "Ġsimp": 5096,
      "Ġthroughout": 5097,
      "Ġday": 5098,
      "ĠNicola": 5099,
      "India": 5100,
      "ĠTechnology": 5101,
      "ĠHelm": 5102,
      "ĠPolitics": 5103,
      "ĠFront": 5104,
      "Ġwritten": 5105,
      "ĠElizabeth": 5106,
      "ĠKlein": 5107,
      "ĠLewis": 5108,
      "Ġsepar": 5109,
      "Rosal": 5110,
      "adelphia": 5111,
      "Phrynobatrachus": 5112,
      "ittee": 5113,
      "ĠNebraska": 5114,
      "ĠPetropedetidae": 5115,
      "ĠCentrolenidae": 5116,
      "Ang": 5117,
      "Baltimore": 5118,
      "Collection": 5119,
      "EE": 5120,
      "Plect": 5121,
      "Sant": 5122,
      "We": 5123,
      "action": 5124,
      "cus": 5125,
      "cle": 5126,
      "cop": 5127,
      "hl": 5128,
      "hard": 5129,
      "kes": 5130,
      "mit": 5131,
      "nae": 5132,
      "oidea": 5133,
      "Ã«": 5134,
      "ÄĮ": 5135,
      "Ġess": 5136,
      "Ġrad": 5137,
      "eren": 5138,
      "onica": 5139,
      "Ġtree": 5140,
      "inosa": 5141,
      "ĠSem": 5142,
      "ĠSche": 5143,
      "Ġleg": 5144,
      "ĠCy": 5145,
      "arn": 5146,
      "ĠRud": 5147,
      "ĠRome": 5148,
      "ĠRock": 5149,
      "ĠRonald": 5150,
      "ĠTrench": 5151,
      "icolle": 5152,
      "ĠPy": 5153,
      "Ġmil": 5154,
      "ĠMun": 5155,
      "ĠMeg": 5156,
      "ĠMethod": 5157,
      "ando": 5158,
      "ĠAD": 5159,
      "chir": 5160,
      "chiev": 5161,
      "Ġsk": 5162,
      "ĠCerf": 5163,
      "Ġpil": 5164,
      "Ġpot": 5165,
      "Ġprin": 5166,
      "Ġpiano": 5167,
      "Ġdim": 5168,
      "Ġ1919": 5169,
      "Ġ1912": 5170,
      "Ġ1917": 5171,
      "Ġ1956": 5172,
      "Ġ1925": 5173,
      "ĠGor": 5174,
      "omes": 5175,
      "ĠDam": 5176,
      "ĠDennis": 5177,
      "ĠNumber": 5178,
      "Ġaff": 5179,
      "Ġauthor": 5180,
      "Ġ(\"": 5181,
      "ĠWall": 5182,
      "ĠWith": 5183,
      "ĠFried": 5184,
      "ĠEgypt": 5185,
      "raethes": 5186,
      "ĠJun": 5187,
      "ctu": 5188,
      "ĠOctober": 5189,
      "ceph": 5190,
      "thuis": 5191,
      "áº±": 5192,
      "ĠStar": 5193,
      "aval": 5194,
      "allel": 5195,
      "iani": 5196,
      "quest": 5197,
      "Ġreference": 5198,
      "Ġformer": 5199,
      "ichte": 5200,
      "ellus": 5201,
      "iore": 5202,
      "rypt": 5203,
      "icalis": 5204,
      "Ġ29": 5205,
      "Ã©g": 5206,
      "ended": 5207,
      "ĠNews": 5208,
      "aeus": 5209,
      "ÃŃnh": 5210,
      "ĠJohnson": 5211,
      "issensch": 5212,
      "ampion": 5213,
      "Ġleast": 5214,
      "ĠphÃŃa": 5215,
      "inning": 5216,
      "cluding": 5217,
      "oeci": 5218,
      "ĠManfred": 5219,
      "ĠEngland": 5220,
      "Ġ1905": 5221,
      "ĠRevolution": 5222,
      "haus": 5223,
      "iá»ģ": 5224,
      "Ġsimilar": 5225,
      "ĠPeople": 5226,
      "ieval": 5227,
      "Ġguide": 5228,
      "ĠCastelnu": 5229,
      "ĠNotes": 5230,
      "ĠBernard": 5231,
      "ĠFelder": 5232,
      "ĠJeffrey": 5233,
      "ĠSecret": 5234,
      "ĠLatin": 5235,
      "ĠPolitical": 5236,
      "Ġsouthern": 5237,
      "Ġindividual": 5238,
      "Walter": 5239,
      "Ostedes": 5240,
      "ĠGulf": 5241,
      "Ġrenamed": 5242,
      "Cycn": 5243,
      "ceedings": 5244,
      "ĠCastelnuovo": 5245,
      ")\",": 5246,
      "Cor": 5247,
      "Hex": 5248,
      "Haw": 5249,
      "Mich": 5250,
      "PA": 5251,
      "Plat": 5252,
      "Published": 5253,
      "Rams": 5254,
      "Second": 5255,
      "Vel": 5256,
      "bes": 5257,
      "hy": 5258,
      "iques": 5259,
      "lications": 5260,
      "nitz": 5261,
      "po": 5262,
      "pus": 5263,
      "pent": 5264,
      "rate": 5265,
      "species": 5266,
      "yi": 5267,
      "Ã¸": 5268,
      "onym": 5269,
      "anh": 5270,
      "eday": 5271,
      "ators": 5272,
      "ĠcÅ": 5273,
      "Ġcost": 5274,
      "Ġlarg": 5275,
      "Ġlength": 5276,
      "ĠCrem": 5277,
      "ĠTour": 5278,
      "ĠLis": 5279,
      "ĠLiv": 5280,
      "ĠLight": 5281,
      "amobius": 5282,
      "Ġbo": 5283,
      "Ġbis": 5284,
      "Ġbooks": 5285,
      "itÃ©": 5286,
      "ĠMen": 5287,
      "ĠMeth": 5288,
      "ĠAff": 5289,
      "ĠAtt": 5290,
      "olic": 5291,
      "asia": 5292,
      "ĠBal": 5293,
      "ĠBand": 5294,
      "ĠBranch": 5295,
      "cha": 5296,
      "Ġpal": 5297,
      "Ġpass": 5298,
      "Ġposs": 5299,
      "Ġdif": 5300,
      "Ġ1914": 5301,
      "Ġ1936": 5302,
      "ingh": 5303,
      "etz": 5304,
      "etics": 5305,
      "ured": 5306,
      "ĠDev": 5307,
      "ĠWien": 5308,
      "Ġwestern": 5309,
      "Ġvaria": 5310,
      "igi": 5311,
      "ĠKo": 5312,
      "ĠVi": 5313,
      "agner": 5314,
      "Ġgia": 5315,
      "irth": 5316,
      "odice": 5317,
      "Ġ-\"": 5318,
      "ovÃ¬": 5319,
      "ĠSte": 5320,
      "ifera": 5321,
      "eps": 5322,
      "eppe": 5323,
      "udes": 5324,
      "ills": 5325,
      "ensen": 5326,
      "upation": 5327,
      "yll": 5328,
      "ompson": 5329,
      "Ġkey": 5330,
      "ansas": 5331,
      "itional": 5332,
      "Styl": 5333,
      "Chase": 5334,
      "ritz": 5335,
      "ĠSchaff": 5336,
      "ackp": 5337,
      "annel": 5338,
      "ĠWars": 5339,
      "uralis": 5340,
      "ĠConf": 5341,
      "ller": 5342,
      "aelia": 5343,
      "Ġ1940": 5344,
      "ĠkhÃ¡c": 5345,
      "Ġhel": 5346,
      "ĠGrant": 5347,
      "enaissance": 5348,
      "ragon": 5349,
      "hematics": 5350,
      "ĠRepublic": 5351,
      "Ġ1906": 5352,
      "ĠHenri": 5353,
      "ĠRussia": 5354,
      "ĠHolthuis": 5355,
      "Ġreprint": 5356,
      "Pseudocal": 5357,
      "ĠPrent": 5358,
      "Encyclopedia": 5359,
      "ĠNavy": 5360,
      "ĠBenj": 5361,
      "ĠSystematics": 5362,
      "omyia": 5363,
      "Ã£o": 5364,
      "ĠGoogle": 5365,
      "cticut": 5366,
      "ĠRenÃ©": 5367,
      "ĠPlanet": 5368,
      "ĠBarbara": 5369,
      "Ġhoáº·c": 5370,
      "opterus": 5371,
      "ĠMondovÃ¬": 5372,
      "ĠWorks": 5373,
      "ĠPraeger": 5374,
      "Ġochre": 5375,
      "ĠOntario": 5376,
      "ĠEconomics": 5377,
      "perience": 5378,
      "paperback": 5379,
      "ĠLindleyana": 5380,
      "Nihongi": 5381,
      "Æ°Æ¡ng": 5382,
      "Pseudocalamobius": 5383,
      ")==": 5384,
      "Co": 5385,
      "Dor": 5386,
      "ED": 5387,
      "Handbook": 5388,
      "NO": 5389,
      "Nov": 5390,
      "Og": 5391,
      "Pp": 5392,
      "Sa": 5393,
      "Some": 5394,
      "TV": 5395,
      "To": 5396,
      "ee": 5397,
      "fasci": 5398,
      "han": 5399,
      "lov": 5400,
      "last": 5401,
      "rine": 5402,
      "uor": 5403,
      "wh": 5404,
      "ying": 5405,
      "Äħ": 5406,
      "ãĢ": 5407,
      "ìĿ": 5408,
      "Ġ<": 5409,
      "eric": 5410,
      "onotus": 5411,
      "Ġten": 5412,
      "Ġtreat": 5413,
      "aton": 5414,
      "inum": 5415,
      "ĠSn": 5416,
      "ĠSite": 5417,
      "Ġcolor": 5418,
      "Ġcould": 5419,
      "reb": 5420,
      "Ġlá»": 5421,
      "Ġles": 5422,
      "Ġlast": 5423,
      "ĠCultural": 5424,
      "alo": 5425,
      "ĠTar": 5426,
      "ĠTibet": 5427,
      "ĠTatters": 5428,
      "ĠLod": 5429,
      "ĠLyn": 5430,
      "ĠIv": 5431,
      "amous": 5432,
      "Ġbase": 5433,
      "Ġbicolor": 5434,
      "ĠbÆ°á»Ľ": 5435,
      "ĠPiano": 5436,
      "Ġmount": 5437,
      "ĠMach": 5438,
      "Ã¡t": 5439,
      "asa": 5440,
      "asi": 5441,
      "ĠBBC": 5442,
      "Ġpers": 5443,
      "Ġplan": 5444,
      "Ġ1933": 5445,
      "Ġ1958": 5446,
      "etter": 5447,
      "ĠGust": 5448,
      "ĠHong": 5449,
      "ĠHart": 5450,
      "ĠHugh": 5451,
      "ĠWol": 5452,
      "ĠWang": 5453,
      "Ġwon": 5454,
      "Ġwing": 5455,
      "Ġwild": 5456,
      "ims": 5457,
      "Ġview": 5458,
      "adi": 5459,
      "agna": 5460,
      "emory": 5461,
      "liott": 5462,
      "like": 5463,
      "owell": 5464,
      "owski": 5465,
      "ĠStat": 5466,
      "allo": 5467,
      "ither": 5468,
      "Ġreach": 5469,
      "romerus": 5470,
      "ibus": 5471,
      "ĠPublication": 5472,
      "ĠArms": 5473,
      "ĠAllan": 5474,
      "ĠMarg": 5475,
      "ĠMarlborough": 5476,
      "ansha": 5477,
      "Ġareas": 5478,
      "ĠZim": 5479,
      "Char": 5480,
      "ĠRoz": 5481,
      "tsch": 5482,
      "ĠShin": 5483,
      "ĠIndiana": 5484,
      "arks": 5485,
      "ittatus": 5486,
      "Ġquá»ĳc": 5487,
      "Ġresources": 5488,
      "ĠHarry": 5489,
      "Ġunicolor": 5490,
      "ĠIsaac": 5491,
      "adei": 5492,
      "Ġ1943": 5493,
      "ietnam": 5494,
      "ĠAndre": 5495,
      "ĠSerge": 5496,
      "ĠQuart": 5497,
      "Ġevery": 5498,
      "ĠColomb": 5499,
      "ĠParnass": 5500,
      "ĠBouc": 5501,
      "escence": 5502,
      "Ġinclude": 5503,
      "Ġacross": 5504,
      "ĠCampa": 5505,
      "unctata": 5506,
      "ĠSuper": 5507,
      "anzer": 5508,
      "Ġpopular": 5509,
      "ĠAerospace": 5510,
      "ĠRandom": 5511,
      "Ġstrongly": 5512,
      "Universities": 5513,
      "ĠSadie": 5514,
      "Ġexample": 5515,
      "ĠObservatory": 5516,
      "ĠDivision": 5517,
      "ĠFrankfurt": 5518,
      "David": 5519,
      "Ġtemper": 5520,
      "Ġuntil": 5521,
      "Plectromerus": 5522,
      "ackpole": 5523,
      "ĠPrentice": 5524,
      "ĠTattersall": 5525,
      "ĠbÆ°á»Ľm": 5526,
      "674": 5527,
      "App": 5528,
      "Amp": 5529,
      "Band": 5530,
      "Bro": 5531,
      "Black": 5532,
      "Bebel": 5533,
      "Cer": 5534,
      "Cap": 5535,
      "Columbia": 5536,
      "Ec": 5537,
      "Eri": 5538,
      "Green": 5539,
      "German": 5540,
      "Her": 5541,
      "IR": 5542,
      "Land": 5543,
      "Ma": 5544,
      "Pra": 5545,
      "Pier": 5546,
      "Poeci": 5547,
      "Sim": 5548,
      "back": 5549,
      "eus": 5550,
      "equ": 5551,
      "hr": 5552,
      "jan": 5553,
      "long": 5554,
      "nÃ¡": 5555,
      "wig": 5556,
      "wide": 5557,
      "Ãī": 5558,
      "Ðº": 5559,
      "anis": 5560,
      "ances": 5561,
      "anks": 5562,
      "esia": 5563,
      "Ġtakes": 5564,
      "atures": 5565,
      "ĠSeg": 5566,
      "ciano": 5567,
      "rez": 5568,
      "Ġland": 5569,
      "ĠCe": 5570,
      "ĠComb": 5571,
      "arter": 5572,
      "orio": 5573,
      "ĠLeb": 5574,
      "aman": 5575,
      "amander": 5576,
      "icated": 5577,
      "icnae": 5578,
      "itation": 5579,
      "ĠPla": 5580,
      "ĠPass": 5581,
      "Ġmit": 5582,
      "Ġmaterial": 5583,
      "pex": 5584,
      "Ġhind": 5585,
      "ĠMir": 5586,
      "usion": 5587,
      "ĠBorm": 5588,
      "ĠBuch": 5589,
      "Ġpi": 5590,
      "Ġflood": 5591,
      "ĠGera": 5592,
      "ĠDim": 5593,
      "ĠDeb": 5594,
      "ente": 5595,
      "ĠWell": 5596,
      "ĠFont": 5597,
      "iva": 5598,
      "leg": 5599,
      "ĠEich": 5600,
      "raf": 5601,
      "ĠJew": 5602,
      "osed": 5603,
      "oster": 5604,
      "ulata": 5605,
      "ĠOt": 5606,
      "ote": 5607,
      "ĠKrist": 5608,
      "ĠVlad": 5609,
      "ube": 5610,
      "Ġgo": 5611,
      "Ġnar": 5612,
      "Ġneg": 5613,
      "ache": 5614,
      "ĠStyle": 5615,
      "ĠStackpole": 5616,
      "ianus": 5617,
      "arding": 5618,
      "ubleday": 5619,
      "ording": 5620,
      "rana": 5621,
      "ips": 5622,
      "Ġstrand": 5623,
      "Ã©d": 5624,
      "Ã©r": 5625,
      "ango": 5626,
      "iez": 5627,
      "essment": 5628,
      "ĠMarx": 5629,
      "ictus": 5630,
      "Ġchange": 5631,
      "Ġchanges": 5632,
      "Ġproduction": 5633,
      "Ġproduced": 5634,
      "ĠSankt": 5635,
      "Ã³w": 5636,
      "ographical": 5637,
      "Ġ448": 5638,
      "azzo": 5639,
      "issa": 5640,
      "Ġleuc": 5641,
      "attles": 5642,
      "Ã¼b": 5643,
      "Ġabstract": 5644,
      "Ġunderside": 5645,
      "cyph": 5646,
      "rative": 5647,
      "olaus": 5648,
      "ĠBrand": 5649,
      "ĠBrill": 5650,
      "ĠScrib": 5651,
      "ezz": 5652,
      "Ġevidence": 5653,
      "ydney": 5654,
      "Ġrecogn": 5655,
      "ĠSalmon": 5656,
      "ĠElBar": 5657,
      "Adults": 5658,
      "flu": 5659,
      "Ġarticles": 5660,
      "ĠPatrimo": 5661,
      "Ġsignif": 5662,
      "Ġmostly": 5663,
      "ĠDiego": 5664,
      "Ġrare": 5665,
      "áº¥t": 5666,
      "Ġpet": 5667,
      "ĠMaur": 5668,
      "ĠLibert": 5669,
      "Ġoccur": 5670,
      "ĠAcademic": 5671,
      "Ġemp": 5672,
      "ĠCostello": 5673,
      "When": 5674,
      "Ġfactors": 5675,
      "Ġretriev": 5676,
      "Ġblotch": 5677,
      "ĠOliv": 5678,
      "ĠSieg": 5679,
      "emorial": 5680,
      "ĠFinland": 5681,
      "Ġsocial": 5682,
      "ÄĲÃ´": 5683,
      "ĠSymphony": 5684,
      "Ġstandards": 5685,
      "Ġpredict": 5686,
      "ĠNaturels": 5687,
      "ĠCornell": 5688,
      "ĠIllustrated": 5689,
      "Ġfemales": 5690,
      "ĠâĢł": 5691,
      "ĠCouncil": 5692,
      "Amphicnae": 5693,
      "uroticism": 5694,
      "WWF": 5695,
      "Rosalba": 5696,
      "Ramsbury": 5697,
      "ĠBouchet": 5698,
      "Bebelis": 5699,
      "ĠBormida": 5700,
      "ĠElBaradei": 5701,
      "ĠPatrimoines": 5702,
      "Amphicnaeia": 5703,
      "Ass": 5704,
      "Acyph": 5705,
      "Cur": 5706,
      "Fa": 5707,
      "Harv": 5708,
      "Loph": 5709,
      "MA": 5710,
      "Mechanics": 5711,
      "Rio": 5712,
      "VI": 5713,
      "]*": 5714,
      "gs": 5715,
      "hart": 5716,
      "iy": 5717,
      "kim": 5718,
      "nov": 5719,
      "si": 5720,
      "Ã¯": 5721,
      "Å½": 5722,
      "Ð²": 5723,
      "Ġ,": 5724,
      "erland": 5725,
      "iness": 5726,
      "ĠSultan": 5727,
      "Ġcat": 5728,
      "cill": 5729,
      "rell": 5730,
      "ĠCÃ¡c": 5731,
      "arra": 5732,
      "arth": 5733,
      "ĠTri": 5734,
      "ĠTree": 5735,
      "ĠText": 5736,
      "ĠLittle": 5737,
      "ĠIS": 5738,
      "ĠIra": 5739,
      "ĠPS": 5740,
      "Ġmont": 5741,
      "Ġtrad": 5742,
      "ĠBu": 5743,
      "ĠBog": 5744,
      "Ġsources": 5745,
      "Ġprom": 5746,
      "Ġpower": 5747,
      "Ġdens": 5748,
      "Ġ1900": 5749,
      "Ġ1911": 5750,
      "Ġfr": 5751,
      "Ġfocus": 5752,
      "omson": 5753,
      "ĠHay": 5754,
      "ĠDiet": 5755,
      "idius": 5756,
      "enta": 5757,
      "ĠWace": 5758,
      "ĠFern": 5759,
      "ĠFacts": 5760,
      "ĠJin": 5761,
      "ĠJay": 5762,
      "uns": 5763,
      "unov": 5764,
      "uturalis": 5765,
      "Ġver": 5766,
      "Ġveins": 5767,
      "iga": 5768,
      "ĠOper": 5769,
      "ĠKl": 5770,
      "ĠKla": 5771,
      "ĠKay": 5772,
      "ĠVic": 5773,
      "uble": 5774,
      "oderus": 5775,
      "lier": 5776,
      "liqu": 5777,
      "ĠStr": 5778,
      "arden": 5779,
      "ineering": 5780,
      "ubles": 5781,
      "quilla": 5782,
      "abe": 5783,
      "range": 5784,
      "illo": 5785,
      "Ġdei": 5786,
      "aken": 5787,
      "ipenne": 5788,
      "Ġeduc": 5789,
      "ohr": 5790,
      "Ġ1882": 5791,
      "ĠArthrop": 5792,
      "erner": 5793,
      "mercial": 5794,
      "Ġrather": 5795,
      "ĠchÃŃnh": 5796,
      "International": 5797,
      "Stanley": 5798,
      "idad": 5799,
      "Ġprote": 5800,
      "Ġexist": 5801,
      "ĠFrances": 5802,
      "ĠGuinot": 5803,
      "ertain": 5804,
      "ĠGeoff": 5805,
      "Ġetc": 5806,
      "Ġcontrol": 5807,
      "Ġ1944": 5808,
      "ĠBiogeography": 5809,
      "cludes": 5810,
      "ĠGrove": 5811,
      "Ġconsists": 5812,
      "Ġparticular": 5813,
      "Ġallow": 5814,
      "Arnold": 5815,
      "ehicles": 5816,
      "ĠÃģ": 5817,
      "Ġdistinct": 5818,
      "ĠGlenn": 5819,
      "ĠRussell": 5820,
      "ĠHeritage": 5821,
      "pective": 5822,
      "ĠDelmer": 5823,
      "ĠKnopf": 5824,
      "Ġbecome": 5825,
      "Ġfeed": 5826,
      "Ġspecial": 5827,
      "Ġspecific": 5828,
      "Heter": 5829,
      "Ġoccurs": 5830,
      "oriolaus": 5831,
      "ributions": 5832,
      "ĠWaters": 5833,
      "ĠWatson": 5834,
      "ĠGallery": 5835,
      "Æ°á»Ŀn": 5836,
      "ĠSlam": 5837,
      "Ġfolds": 5838,
      "ripes": 5839,
      "Ġcondu": 5840,
      "Ġconditions": 5841,
      "á»§y": 5842,
      "ĠDomin": 5843,
      "Antodice": 5844,
      "perties": 5845,
      "hibition": 5846,
      "Ġespecially": 5847,
      "Accessed": 5848,
      "Ġdeveloped": 5849,
      "grave": 5850,
      "Ġpattern": 5851,
      "Ġscientific": 5852,
      "imelitta": 5853,
      "ĠNicholas": 5854,
      "Botley": 5855,
      "ynasty": 5856,
      "ĠConnecticut": 5857,
      "ĠMethuen": 5858,
      "Poecilo": 5859,
      "ĠScribner": 5860,
      "Acyphoderes": 5861,
      "'t": 5862,
      "034": 5863,
      "Act": 5864,
      "Brit": 5865,
      "Bulletin": 5866,
      "CR": 5867,
      "Cnem": 5868,
      "Eur": 5869,
      "Hem": 5870,
      "Idact": 5871,
      "Lo": 5872,
      "MO": 5873,
      "Mod": 5874,
      "Off": 5875,
      "Val": 5876,
      "Wood": 5877,
      "fort": 5878,
      "iers": 5879,
      "iÄį": 5880,
      "iá»ĩn": 5881,
      "kshire": 5882,
      "nik": 5883,
      "pan": 5884,
      "pur": 5885,
      "rÃ¡": 5886,
      "vert": 5887,
      "zon": 5888,
      "ĠÃł": 5889,
      "ered": 5890,
      "eria": 5891,
      "onic": 5892,
      "enÃ©e": 5893,
      "inter": 5894,
      "ises": 5895,
      "Ġothers": 5896,
      "Ġcirc": 5897,
      "cio": 5898,
      "oraci": 5899,
      "ĠRub": 5900,
      "ĠRio": 5901,
      "alm": 5902,
      "ĠTai": 5903,
      "ĠLincoln": 5904,
      "ĠIchir": 5905,
      "ĠPic": 5906,
      "ĠPDF": 5907,
      "Ġmales": 5908,
      "Ġmaps": 5909,
      "ĠMai": 5910,
      "uso": 5911,
      "Ã¡ch": 5912,
      "asion": 5913,
      "Ġski": 5914,
      "Ġsuccess": 5915,
      "ilyst": 5916,
      "Ġpor": 5917,
      "ĠfÃ¼r": 5918,
      "Ġfruit": 5919,
      "ĠGon": 5920,
      "ĠGood": 5921,
      "omber": 5922,
      "ĠHu": 5923,
      "ĠHub": 5924,
      "ĠHebrew": 5925,
      "urge": 5926,
      "ĠNuclear": 5927,
      "ĠWind": 5928,
      "ĠFun": 5929,
      "ĠFib": 5930,
      "ĠFile": 5931,
      "osi": 5932,
      "osystem": 5933,
      "utch": 5934,
      "Ġven": 5935,
      "ĠOcean": 5936,
      "otic": 5937,
      "ĠKam": 5938,
      "ĠVall": 5939,
      "ĠVÆ°á»Ŀn": 5940,
      "Ġnature": 5941,
      "ogy": 5942,
      "odow": 5943,
      "php": 5944,
      "lici": 5945,
      "acanth": 5946,
      "ĠStrateg": 5947,
      "ĠYou": 5948,
      "ĠInvent": 5949,
      "elling": 5950,
      "ĠTheod": 5951,
      "Ġwithout": 5952,
      "ylon": 5953,
      "ylind": 5954,
      "ologist": 5955,
      "ologies": 5956,
      "ologists": 5957,
      "ĠMarco": 5958,
      "olland": 5959,
      "Chlor": 5960,
      "ĠLeach": 5961,
      "ĠGuard": 5962,
      "ĠGuenÃ©e": 5963,
      "Æ°á»Ł": 5964,
      "ittia": 5965,
      "Ãªm": 5966,
      "ussian": 5967,
      "erview": 5968,
      "ĠConn": 5969,
      "ĠSpace": 5970,
      "ĠBercht": 5971,
      "alta": 5972,
      "risis": 5973,
      "Ġspraw": 5974,
      "ĠMonaster": 5975,
      "Ġseas": 5976,
      "Ġtransl": 5977,
      "3374": 5978,
      "Ġpublic": 5979,
      "schaft": 5980,
      "ixed": 5981,
      "699": 5982,
      "Ã¤r": 5983,
      "231": 5984,
      "Ġzu": 5985,
      "ĠAgric": 5986,
      "ehl": 5987,
      "ĠArchae": 5988,
      "manns": 5989,
      "ĠEconomic": 5990,
      "ĠTrust": 5991,
      "ĠRady": 5992,
      "ĠTerrit": 5993,
      "ĠTeil": 5994,
      "chthy": 5995,
      "Ġprovides": 5996,
      "Ġfactor": 5997,
      "Æ°á»Ŀng": 5998,
      "Biodiversity": 5999,
      "istration": 6000,
      "ĠNarodow": 6001,
      "Mimosybra": 6002,
      "Ġgenerally": 6003,
      "William": 6004,
      "Ġgraci": 6005,
      "Ġirreg": 6006,
      "ĠJohann": 6007,
      "Ġteam": 6008,
      "indsor": 6009,
      "ÅĦski": 6010,
      "Ġepidermis": 6011,
      "Lisson": 6012,
      "ĠIshida": 6013,
      "Ġbehavior": 6014,
      "European": 6015,
      "ĠStewart": 6016,
      "Hexoplon": 6017,
      "Ġ4483374": 6018,
      "Harvard": 6019,
      "Idactus": 6020,
      "ĠIchirÅį": 6021,
      "Æ°á»Łng": 6022,
      "Ġ448337491": 6023,
      "252": 6024,
      "579": 6025,
      "::": 6026,
      "Av": 6027,
      "Ath": 6028,
      "Bl": 6029,
      "By": 6030,
      "CE": 6031,
      "Cas": 6032,
      "Fish": 6033,
      "Lincoln": 6034,
      "MS": 6035,
      "Millan": 6036,
      "One": 6037,
      "Rob": 6038,
      "SA": 6039,
      "TP": 6040,
      "Windsor": 6041,
      "XX": 6042,
      "bs": 6043,
      "but": 6044,
      "dzen": 6045,
      "een": 6046,
      "eax": 6047,
      "ground": 6048,
      "hire": 6049,
      "iáº¿": 6050,
      "jo": 6051,
      "ku": 6052,
      "mod": 6053,
      "rust": 6054,
      "uj": 6055,
      "var": 6056,
      "western": 6057,
      "xim": 6058,
      "zÄħ": 6059,
      "ãĦ": 6060,
      "ancy": 6061,
      "Ġtim": 6062,
      "Ġtimes": 6063,
      "isk": 6064,
      "ĠSul": 6065,
      "ĠSound": 6066,
      "ĠSelf": 6067,
      "Ġcult": 6068,
      "Ġcare": 6069,
      "ciÃ³n": 6070,
      "ĠCond": 6071,
      "ĠCrist": 6072,
      "orata": 6073,
      "ĠRab": 6074,
      "ĠTol": 6075,
      "ĠTokyo": 6076,
      "ĠLak": 6077,
      "istan": 6078,
      "itarian": 6079,
      "ĠPor": 6080,
      "ĠPas": 6081,
      "ĠPsych": 6082,
      "Ġmen": 6083,
      "Ġhum": 6084,
      "ĠMann": 6085,
      "ĠThá»§y": 6086,
      "1970": 6087,
      "1974": 6088,
      "ĠAf": 6089,
      "olz": 6090,
      "elson": 6091,
      "chio": 6092,
      "Ġsix": 6093,
      "Ġself": 6094,
      "rod": 6095,
      "iline": 6096,
      "Ġpsych": 6097,
      "Ġdid": 6098,
      "Ġdiv": 6099,
      "Ġdnia": 6100,
      "Ġ1932": 6101,
      "Ġ1939": 6102,
      "Ġ1937": 6103,
      "Ġ1921": 6104,
      "etry": 6105,
      "Ġfall": 6106,
      "Ġfind": 6107,
      "Ġfood": 6108,
      "ĠGum": 6109,
      "ĠGut": 6110,
      "ĠGame": 6111,
      "omic": 6112,
      "ĠHandbook": 6113,
      "urity": 6114,
      "ĠDist": 6115,
      "ĠDover": 6116,
      "ĠDNA": 6117,
      "ĠNY": 6118,
      "ĠNu": 6119,
      "ĠNord": 6120,
      "Ġinternational": 6121,
      "ĠWrit": 6122,
      "ĠFamily": 6123,
      "ĠJust": 6124,
      "oser": 6125,
      "umat": 6126,
      "umann": 6127,
      "uni": 6128,
      "uts": 6129,
      "resh": 6130,
      "igion": 6131,
      "igli": 6132,
      "ĠUl": 6133,
      "ĠKy": 6134,
      "ĠVes": 6135,
      "aggio": 6136,
      "emon": 6137,
      "Ġgovernment": 6138,
      "Ġnumer": 6139,
      "laim": 6140,
      "ĠStanley": 6141,
      "isha": 6142,
      "ĠYoung": 6143,
      "ablen": 6144,
      "ocnem": 6145,
      "estion": 6146,
      "eca": 6147,
      "manuel": 6148,
      "Ġdefe": 6149,
      "lyn": 6150,
      "akov": 6151,
      "iple": 6152,
      "enson": 6153,
      "orem": 6154,
      "Ġ1848": 6155,
      "ĠMario": 6156,
      "ĠOrt": 6157,
      "Ġalthough": 6158,
      "ĠEdwin": 6159,
      "izz": 6160,
      "ects": 6161,
      "aurot": 6162,
      "seeded": 6163,
      "reeablen": 6164,
      "Ġphylogeny": 6165,
      "1982": 6166,
      "ĠBerkshire": 6167,
      "ĠEnter": 6168,
      "Ġdella": 6169,
      "ĠHoff": 6170,
      "ĠCastro": 6171,
      "ĠCastello": 6172,
      "ĠMcGraw": 6173,
      "ksand": 6174,
      "ĠBiodiversity": 6175,
      "ammals": 6176,
      "Ġflower": 6177,
      "ĠAbb": 6178,
      "ĠColon": 6179,
      "ĠColor": 6180,
      "ĠTorre": 6181,
      "Ġelong": 6182,
      "ĠPhilipp": 6183,
      "Ġcoast": 6184,
      "ĠMinas": 6185,
      "ĠMinistr": 6186,
      "Ġbasic": 6187,
      "Ġdoubles": 6188,
      "rachy": 6189,
      "porzÄħ": 6190,
      "umbers": 6191,
      "ĠParku": 6192,
      "Ġrepresent": 6193,
      "ĠRecord": 6194,
      "Ġdiscovered": 6195,
      "ĠFishes": 6196,
      "1977": 6197,
      "ĠSurrey": 6198,
      "cientious": 6199,
      "ĠLuis": 6200,
      "ĠNicol": 6201,
      "Epimelitta": 6202,
      "ĠRobinson": 6203,
      "Ġpaper": 6204,
      "ĠVenezuela": 6205,
      "Ġeconomic": 6206,
      "ĠDesign": 6207,
      "ĠItalian": 6208,
      "Ġinvol": 6209,
      "ĠVictoria": 6210,
      "Hippopsicon": 6211,
      "Ġrelationships": 6212,
      "Ġaccess": 6213,
      "Acanth": 6214,
      "Annapolis": 6215,
      "Ġdirect": 6216,
      "aspis": 6217,
      "ĠInsecta": 6218,
      "Ġindividuals": 6219,
      "Ġterrit": 6220,
      "ĠKenneth": 6221,
      "Origins": 6222,
      "ynamic": 6223,
      "ĠForeign": 6224,
      "Ġfunction": 6225,
      "ĠYears": 6226,
      "Ozineus": 6227,
      "ĠSommer": 6228,
      "phaerion": 6229,
      "Ġgallery": 6230,
      "Ġmunicipality": 6231,
      "ĠKodansha": 6232,
      "áº±m": 6233,
      "Michael": 6234,
      "ĠRozporzÄħ": 6235,
      "ĠQuartet": 6236,
      "ĠNarodowego": 6237,
      "dzenie": 6238,
      "reeableness": 6239,
      "ĠMinistrÃ³w": 6240,
      "ĠRozporzÄħdzenie": 6241,
      "After": 6242,
      "Aux": 6243,
      "Best": 6244,
      "Cons": 6245,
      "Cola": 6246,
      "DX": 6247,
      "Et": 6248,
      "Ery": 6249,
      "Fred": 6250,
      "IFA": 6251,
      "KO": 6252,
      "Li": 6253,
      "Many": 6254,
      "Ng": 6255,
      "Pr": 6256,
      "Spe": 6257,
      "SCO": 6258,
      "Two": 6259,
      "bol": 6260,
      "do": 6261,
      "dia": 6262,
      "fa": 6263,
      "gu": 6264,
      "ging": 6265,
      "hen": 6266,
      "low": 6267,
      "not": 6268,
      "set": 6269,
      "vin": 6270,
      "wor": 6271,
      "word": 6272,
      "yrus": 6273,
      "zt": 6274,
      "ãģ": 6275,
      "Ġ70": 6276,
      "á»Ŀ": 6277,
      "inations": 6278,
      "ising": 6279,
      "ĠSo": 6280,
      "ĠSong": 6281,
      "ĠChem": 6282,
      "ĠRow": 6283,
      "ĠRept": 6284,
      "ĠTrad": 6285,
      "ĠLow": 6286,
      "ĠLud": 6287,
      "ĠLate": 6288,
      "Ġbu": 6289,
      "Ġbirds": 6290,
      "istes": 6291,
      "ĠPul": 6292,
      "Ġmac": 6293,
      "Ġmorph": 6294,
      "ĠMap": 6295,
      "oleptus": 6296,
      "asca": 6297,
      "ĠBun": 6298,
      "ĠBros": 6299,
      "ĠBagn": 6300,
      "ĠlÃłng": 6301,
      "Ġsom": 6302,
      "Ġsound": 6303,
      "Ġsource": 6304,
      "Ġscience": 6305,
      "roge": 6306,
      "Ġ1910": 6307,
      "Ġ1916": 6308,
      "Ġ1927": 6309,
      "Ġfar": 6310,
      "Ġfew": 6311,
      "ĠGius": 6312,
      "ĠHas": 6313,
      "ĠHook": 6314,
      "ĠHome": 6315,
      "ĠNi": 6316,
      "ĠNeg": 6317,
      "Ġawards": 6318,
      "ĠFal": 6319,
      "ĠFox": 6320,
      "ĠFeder": 6321,
      "ĠFair": 6322,
      "ĠFighters": 6323,
      "ĠJung": 6324,
      "Ġwood": 6325,
      "unter": 6326,
      "uta": 6327,
      "opt": 6328,
      "igs": 6329,
      "igation": 6330,
      "ĠKon": 6331,
      "ados": 6332,
      "Ġgame": 6333,
      "Ġgrise": 6334,
      "Ġnáº±m": 6335,
      "thaca": 6336,
      "odia": 6337,
      "ĠStef": 6338,
      "ĠInf": 6339,
      "even": 6340,
      "bera": 6341,
      "ante": 6342,
      "Ġrefer": 6343,
      "ega": 6344,
      "oka": 6345,
      "rane": 6346,
      "ugn": 6347,
      "ugastor": 6348,
      "Ġdeath": 6349,
      "ension": 6350,
      "Ġ1852": 6351,
      "yles": 6352,
      "ief": 6353,
      "ained": 6354,
      "Ġalmost": 6355,
      "ucker": 6356,
      "Ġrole": 6357,
      "á»ĭch": 6358,
      "aea": 6359,
      "ikkim": 6360,
      "igno": 6361,
      "Ġwhat": 6362,
      "ĠEdwards": 6363,
      "ĠEditor": 6364,
      "ĠRouge": 6365,
      "loch": 6366,
      "ophis": 6367,
      "ĠReal": 6368,
      "icians": 6369,
      "159": 6370,
      "Ġleft": 6371,
      "Ġphot": 6372,
      "organ": 6373,
      "ermal": 6374,
      "Ã¶m": 6375,
      "ĠPeters": 6376,
      "Ġ60": 6377,
      "onomous": 6378,
      "333": 6379,
      "Ġ1946": 6380,
      "ĠAdam": 6381,
      "ĠMcK": 6382,
      "dea": 6383,
      "Ã¨ne": 6384,
      "ĠCommittee": 6385,
      "lato": 6386,
      "inking": 6387,
      "Arch": 6388,
      "rews": 6389,
      "Lee": 6390,
      "Ġobliqu": 6391,
      "áºŃt": 6392,
      "Ġsurv": 6393,
      "escu": 6394,
      "uttle": 6395,
      "ĠHerbert": 6396,
      "Ġformat": 6397,
      "ĠMedieval": 6398,
      "cidion": 6399,
      "Ġsuper": 6400,
      "ĠAssociates": 6401,
      "ĠBurton": 6402,
      "ĠMagazine": 6403,
      "Ġentire": 6404,
      "Ġoriginally": 6405,
      "ĠCamer": 6406,
      "ĠCommunity": 6407,
      "ĠLongman": 6408,
      "ubercul": 6409,
      "ĠOklah": 6410,
      "ĠMondey": 6411,
      "ĠKennedy": 6412,
      "iformis": 6413,
      "Ġcaus": 6414,
      "ĠJacob": 6415,
      "Ġcountries": 6416,
      "Westport": 6417,
      "ĠLyon": 6418,
      "ĠAbdul": 6419,
      "Ġissued": 6420,
      "Ġcollected": 6421,
      "ĠCadore": 6422,
      "Ġmembers": 6423,
      "Xylot": 6424,
      "parent": 6425,
      "ĠcÅ©ng": 6426,
      "Ġhelp": 6427,
      "ĠLodig": 6428,
      "ĠVladim": 6429,
      "Mechanicsburg": 6430,
      "ĠArthropoda": 6431,
      "Ġsprawie": 6432,
      "Auxa": 6433,
      "ĠOklahoma": 6434,
      "\";": 6435,
      "178": 6436,
      "BM": 6437,
      "CC": 6438,
      "Cri": 6439,
      "Delt": 6440,
      "Gold": 6441,
      "Im": 6442,
      "Log": 6443,
      "Mad": 6444,
      "Music": 6445,
      "Molecular": 6446,
      "Ott": 6447,
      "Phe": 6448,
      "Pant": 6449,
      "Pare": 6450,
      "Pupation": 6451,
      "Ro": 6452,
      "Sal": 6453,
      "Syn": 6454,
      "TÃªn": 6455,
      "TML": 6456,
      "With": 6457,
      "ape": 6458,
      "cas": 6459,
      "die": 6460,
      "fi": 6461,
      "fare": 6462,
      "family": 6463,
      "gether": 6464,
      "hardcover": 6465,
      "iat": 6466,
      "king": 6467,
      "lom": 6468,
      "ming": 6469,
      "nÄĽ": 6470,
      "rub": 6471,
      "rera": 6472,
      "side": 6473,
      "ye": 6474,
      "yda": 6475,
      "ÑĤ": 6476,
      "Ġ#": 6477,
      "anic": 6478,
      "anion": 6479,
      "eness": 6480,
      "Ġtend": 6481,
      "inent": 6482,
      "ĠSop": 6483,
      "Ġcop": 6484,
      "Ġcray": 6485,
      "reith": 6486,
      "Ġlip": 6487,
      "Ġlearning": 6488,
      "ĠCr": 6489,
      "aron": 6490,
      "arolo": 6491,
      "orial": 6492,
      "ĠRath": 6493,
      "ĠRenaissance": 6494,
      "ĠTre": 6495,
      "ĠTet": 6496,
      "ĠLib": 6497,
      "ĠLiterature": 6498,
      "ĠIts": 6499,
      "ĠIbra": 6500,
      "iche": 6501,
      "icant": 6502,
      "Ġbr": 6503,
      "Ġbeg": 6504,
      "Ġbody": 6505,
      "iten": 6506,
      "ĠPis": 6507,
      "ĠPian": 6508,
      "ĠPab": 6509,
      "ĠPana": 6510,
      "ĠPeriod": 6511,
      "Ġmy": 6512,
      "Ġmer": 6513,
      "Ġmill": 6514,
      "Ġmale": 6515,
      "Ġmacul": 6516,
      "Ġmollus": 6517,
      "Ġhard": 6518,
      "ĠMath": 6519,
      "ĠMÃ¼": 6520,
      "ĠMemorial": 6521,
      "uscript": 6522,
      "ĠAli": 6523,
      "Ã¡r": 6524,
      "olulu": 6525,
      "Ġtrav": 6526,
      "ĠBul": 6527,
      "ĠBob": 6528,
      "ĠBurg": 6529,
      "chus": 6530,
      "room": 6531,
      "rost": 6532,
      "Ġpra": 6533,
      "Ġpod": 6534,
      "Ġ1952": 6535,
      "Ġ1922": 6536,
      "ĠGill": 6537,
      "uria": 6538,
      "ĠDocument": 6539,
      "ĠNag": 6540,
      "Ġaudio": 6541,
      "ersch": 6542,
      "ivor": 6543,
      "rac": 6544,
      "iav": 6545,
      "Ġwest": 6546,
      "uli": 6547,
      "Ġvi": 6548,
      "igliano": 6549,
      "ĠOH": 6550,
      "ĠOm": 6551,
      "otion": 6552,
      "ĠKin": 6553,
      "ĠthÃªm": 6554,
      "ĠVa": 6555,
      "ĠVis": 6556,
      "Ġtogether": 6557,
      "ironom": 6558,
      "oga": 6559,
      "law": 6560,
      "lax": 6561,
      "laoschema": 6562,
      "ĠUnder": 6563,
      "aving": 6564,
      ").\"": 6565,
      "aped": 6566,
      "apons": 6567,
      "icht": 6568,
      "egh": 6569,
      "ellschaft": 6570,
      "aks": 6571,
      "Ġstem": 6572,
      "ylia": 6573,
      "ĠArts": 6574,
      "ĠArrow": 6575,
      "ĠArctic": 6576,
      "ĠAlas": 6577,
      "Ġrug": 6578,
      "Chinese": 6579,
      "Ġprob": 6580,
      "loyd": 6581,
      "tshire": 6582,
      "acea": 6583,
      "ĠSchles": 6584,
      "122": 6585,
      "ĠRead": 6586,
      "ĠPhot": 6587,
      "arek": 6588,
      "ĠConference": 6589,
      "Ġphyla": 6590,
      "erma": 6591,
      "Ġgenera": 6592,
      "ymn": 6593,
      "Ġshould": 6594,
      "Ġcomplete": 6595,
      "Ġyoung": 6596,
      "Ġdelle": 6597,
      "Ġspace": 6598,
      "Ġcontinu": 6599,
      "Ġ1941": 6600,
      "Ġpublication": 6601,
      "ĠPolicy": 6602,
      "393": 6603,
      "ĠGroÃŁ": 6604,
      "ĠAirlife": 6605,
      "lantic": 6606,
      "ĠAgency": 6607,
      "Leiden": 6608,
      "ĠOpera": 6609,
      "ĠBoard": 6610,
      "áº¡n": 6611,
      "uttata": 6612,
      "ĠTexts": 6613,
      "ĠHolly": 6614,
      "Ġrepro": 6615,
      "pects": 6616,
      "1971": 6617,
      "Ġperformance": 6618,
      "ygm": 6619,
      "Ġweasel": 6620,
      "ĠClassis": 6621,
      "Ġcentral": 6622,
      "Aglaoschema": 6623,
      "Ġ1864": 6624,
      "Ġbiography": 6625,
      "ĠConstantin": 6626,
      "oliops": 6627,
      "Ġpapers": 6628,
      "rella": 6629,
      "ĠServices": 6630,
      "ĠBroad": 6631,
      "cerpt": 6632,
      "Ġclassification": 6633,
      "Ġpoint": 6634,
      "ministration": 6635,
      "ĠSpecialty": 6636,
      "ĠAleksand": 6637,
      "Ġpresented": 6638,
      "Ġaquifer": 6639,
      "Ã¼nchen": 6640,
      "Ġvirid": 6641,
      "ĠAntonio": 6642,
      "Ġcritical": 6643,
      "Ġassociated": 6644,
      "ĠGregory": 6645,
      "ĠErnest": 6646,
      "Ġfauna": 6647,
      "Ġsequence": 6648,
      "ĠPeninsular": 6649,
      "Ġfrequ": 6650,
      "Ġutwor": 6651,
      "Anauxesis": 6652,
      "ĠCampaign": 6653,
      "Ġretrieval": 6654,
      "ĠKlaus": 6655,
      "ilysta": 6656,
      "Ġirregular": 6657,
      "aurotes": 6658,
      "ĠLodigiano": 6659,
      "Ġcrayfish": 6660,
      "Ġutworzen": 6661,
      ")**": 6662,
      "=\"": 6663,
      ">:": 6664,
      "Based": 6665,
      "CS": 6666,
      "Che": 6667,
      "Cle": 6668,
      "Comm": 6669,
      "EB": 6670,
      "Fall": 6671,
      "ID": 6672,
      "Library": 6673,
      "Os": 6674,
      "Piez": 6675,
      "Sang": 6676,
      "Sym": 6677,
      "Tim": 6678,
      "bel": 6679,
      "bidion": 6680,
      "cin": 6681,
      "ead": 6682,
      "ged": 6683,
      "gers": 6684,
      "gress": 6685,
      "gate": 6686,
      "graben": 6687,
      "hop": 6688,
      "mid": 6689,
      "mens": 6690,
      "mouth": 6691,
      "oa": 6692,
      "oice": 6693,
      "pond": 6694,
      "page": 6695,
      "rup": 6696,
      "rina": 6697,
      "rated": 6698,
      "time": 6699,
      "wings": 6700,
      "yk": 6701,
      "Åł": 6702,
      "ä¸": 6703,
      "åı": 6704,
      "Ġ===*": 6705,
      "esley": 6706,
      "enk": 6707,
      "isode": 6708,
      "ĠSv": 6709,
      "ĠSyn": 6710,
      "Ġcm": 6711,
      "Ġcin": 6712,
      "Ġcorn": 6713,
      "Ġcolum": 6714,
      "Ġcamp": 6715,
      "Ġcame": 6716,
      "Ġcover": 6717,
      "Ġcivil": 6718,
      "Ġlate": 6719,
      "ĠCis": 6720,
      "ĠCret": 6721,
      "ĠCliff": 6722,
      "ĠTX": 6723,
      "ĠTon": 6724,
      "ĠTest": 6725,
      "hew": 6726,
      "ĠLag": 6727,
      "ĠLink": 6728,
      "ĠLingu": 6729,
      "Ġbattle": 6730,
      "isticus": 6731,
      "itar": 6732,
      "ĠPur": 6733,
      "ĠPog": 6734,
      "ĠPont": 6735,
      "ĠPasc": 6736,
      "Ġhere": 6737,
      "ĠMill": 6738,
      "ĠMost": 6739,
      "ĠThomson": 6740,
      "dapt": 6741,
      "1978": 6742,
      "1976": 6743,
      "ĠBert": 6744,
      "Ġsemi": 6745,
      "roy": 6746,
      "ilus": 6747,
      "illi": 6748,
      "Ġpr": 6749,
      "Ġ1931": 6750,
      "omi": 6751,
      "omical": 6752,
      "ĠHann": 6753,
      "ĠHunt": 6754,
      "uries": 6755,
      "ĠDal": 6756,
      "ĠNy": 6757,
      "ĠNad": 6758,
      "ĠNev": 6759,
      "ĠNations": 6760,
      "Ġage": 6761,
      "idential": 6762,
      "enty": 6763,
      "entris": 6764,
      "ĠWissensch": 6765,
      "ĠFerm": 6766,
      "ĠFame": 6767,
      "ĠEs": 6768,
      "ĠEin": 6769,
      "ĠEqu": 6770,
      "ĠEurop": 6771,
      "ĠJar": 6772,
      "osign": 6773,
      "Ġwomen": 6774,
      "unc": 6775,
      "utive": 6776,
      "igera": 6777,
      "otal": 6778,
      "ĠKansas": 6779,
      "emn": 6780,
      "Ġnit": 6781,
      "ths": 6782,
      "ogan": 6783,
      "ovic": 6784,
      "liance": 6785,
      "ĠUniv": 6786,
      "ĠStand": 6787,
      "allis": 6788,
      "ables": 6789,
      "Ġrece": 6790,
      "ocene": 6791,
      "orders": 6792,
      "oke": 6793,
      "aste": 6794,
      "ĠÄĳáº¿n": 6795,
      "aku": 6796,
      "Ġstar": 6797,
      "Ġstate": 6798,
      "neo": 6799,
      "Ġ250": 6800,
      "obot": 6801,
      "ĠAlp": 6802,
      "Ġ32": 6803,
      "ĠMarie": 6804,
      "ĠMarcel": 6805,
      "mentary": 6806,
      "103": 6807,
      "orno": 6808,
      "iki": 6809,
      "igned": 6810,
      "Stud": 6811,
      "Stuttgart": 6812,
      "izing": 6813,
      "Ġorn": 6814,
      "Ġ491": 6815,
      "ĠFrancill": 6816,
      "Ãªu": 6817,
      "aften": 6818,
      "chetta": 6819,
      "ĠHarrison": 6820,
      "ĠEncyclop": 6821,
      "Ġseason": 6822,
      "306": 6823,
      "ĠBiota": 6824,
      "Ġhead": 6825,
      "ĠInstitut": 6826,
      "Å¡t": 6827,
      "Ġrot": 6828,
      "Ġconservation": 6829,
      "ĠExperim": 6830,
      "Äįice": 6831,
      "ĠCharl": 6832,
      "1968": 6833,
      "Ġ1904": 6834,
      "ĠBeat": 6835,
      "Ġ1896": 6836,
      "ĠEcu": 6837,
      "ĠDoubleday": 6838,
      "1975": 6839,
      "raversion": 6840,
      "ĠMurano": 6841,
      "ĠPrice": 6842,
      "ĠxÃ£": 6843,
      "oniidae": 6844,
      "Ã¬nh": 6845,
      "ĠnhÃł": 6846,
      "ĠRocc": 6847,
      "Philadelphia": 6848,
      "ĠHoward": 6849,
      "ĠSystems": 6850,
      "ĠRelations": 6851,
      "rogs": 6852,
      "ĠJoan": 6853,
      "ĠCollections": 6854,
      "Æ°á»Ŀi": 6855,
      "Ġfusc": 6856,
      "Ġhowever": 6857,
      "ĠTanaro": 6858,
      "Ġgroups": 6859,
      "Callidium": 6860,
      "Ġfishes": 6861,
      "Aneflus": 6862,
      "Ġrelating": 6863,
      "Ġposition": 6864,
      "Ã¦dia": 6865,
      "Recchia": 6866,
      "Ġawarded": 6867,
      "ĠNobel": 6868,
      "Ġangust": 6869,
      "áº¯c": 6870,
      "Ġapproach": 6871,
      "ĠMBTI": 6872,
      "tainment": 6873,
      "Christopher": 6874,
      "ependent": 6875,
      "Japanese": 6876,
      "ributed": 6877,
      "Ġappearance": 6878,
      "ĠBryan": 6879,
      "ĠJosÃ©": 6880,
      "Ġpreviously": 6881,
      "Ochraethes": 6882,
      "ĠEditore": 6883,
      "ĠBenjamin": 6884,
      "ĠCombat": 6885,
      "ĠIraq": 6886,
      "ĠFibiger": 6887,
      "ĠSommerfeld": 6888,
      "Ġutworzenia": 6889,
      "ĠFrancillon": 6890,
      "\")": 6891,
      "BA": 6892,
      "Book": 6893,
      "Curt": 6894,
      "Donald": 6895,
      "Doliops": 6896,
      "ES": 6897,
      "Gra": 6898,
      "Hall": 6899,
      "Nor": 6900,
      "Neal": 6901,
      "PR": 6902,
      "PS": 6903,
      "Rome": 6904,
      "Roy": 6905,
      "Sol": 6906,
      "Soci": 6907,
      "Silv": 6908,
      "Ter": 6909,
      "ben": 6910,
      "bun": 6911,
      "hu": 6912,
      "hat": 6913,
      "hand": 6914,
      "hood": 6915,
      "kau": 6916,
      "modera": 6917,
      "ser": 6918,
      "uka": 6919,
      "wang": 6920,
      "ê°": 6921,
      "ëĤ": 6922,
      "Ġ=": 6923,
      "Ġu": 6924,
      "Ġæ": 6925,
      "onent": 6926,
      "á»¥": 6927,
      "anica": 6928,
      "enice": 6929,
      "Ġtaxonomic": 6930,
      "atin": 6931,
      "atre": 6932,
      "iny": 6933,
      "ĠSor": 6934,
      "ĠSeb": 6935,
      "ĠSydney": 6936,
      "Ġopt": 6937,
      "Ġcylind": 6938,
      "Ġlab": 6939,
      "Ġlik": 6940,
      "ĠCT": 6941,
      "ĠCruz": 6942,
      "ĠRain": 6943,
      "alphus": 6944,
      "ĠTru": 6945,
      "ĠLad": 6946,
      "ĠLast": 6947,
      "ĠLoss": 6948,
      "ĠIng": 6949,
      "á»įi": 6950,
      "icester": 6951,
      "Ġbig": 6952,
      "Ġbang": 6953,
      "ĠPil": 6954,
      "ĠProp": 6955,
      "ĠPred": 6956,
      "ĠPresent": 6957,
      "Ġmor": 6958,
      "Ġmatch": 6959,
      "Ġmolecular": 6960,
      "Ġhol": 6961,
      "ĠMend": 6962,
      "ĠThompson": 6963,
      "usi": 6964,
      "ĠAuthor": 6965,
      "ask": 6966,
      "Ġlost": 6967,
      "Ġlook": 6968,
      "ĠBed": 6969,
      "ĠBird": 6970,
      "ĠBrem": 6971,
      "ĠBonn": 6972,
      "Ġsets": 6973,
      "Ġsize": 6974,
      "rous": 6975,
      "Ġprol": 6976,
      "Ġdig": 6977,
      "Ġdest": 6978,
      "Ġ1951": 6979,
      "ĠGes": 6980,
      "ĠGibb": 6981,
      "omec": 6982,
      "ĠHard": 6983,
      "ĠDess": 6984,
      "ĠDana": 6985,
      "ĠNow": 6986,
      "Ġauth": 6987,
      "ĠWald": 6988,
      "ĠFood": 6989,
      "ĠFrass": 6990,
      "ĠJud": 6991,
      "umi": 6992,
      "ules": 6993,
      "opp": 6994,
      "oples": 6995,
      "opontonia": 6996,
      "imo": 6997,
      "imum": 6998,
      "ĠOg": 6999,
      "ĠOx": 7000,
      "ĠOther": 7001,
      "ĠOwen": 7002,
      "otrop": 7003,
      "otype": 7004,
      "ĠKais": 7005,
      "ĠVald": 7006,
      "ĠVillan": 7007,
      "emp": 7008,
      "rik": 7009,
      "rici": 7010,
      "ovich": 7011,
      "ĠStructure": 7012,
      "ĠStreet": 7013,
      "ĠYam": 7014,
      "ĠChile": 7015,
      "ĠChurch": 7016,
      "berra": 7017,
      "quin": 7018,
      "Ġdeal": 7019,
      "Ġdeep": 7020,
      "lytus": 7021,
      "ĠÄĳÃ³": 7022,
      "nea": 7023,
      "Ã©c": 7024,
      "Ã©m": 7025,
      "upo": 7026,
      "Ġ1880": 7027,
      "ĠArbor": 7028,
      "ĠArita": 7029,
      "ĠAlice": 7030,
      "ieu": 7031,
      "ollo": 7032,
      "ostict": 7033,
      "iking": 7034,
      "Information": 7035,
      "Ġprot": 7036,
      "Ġproperties": 7037,
      "aceus": 7038,
      "ĠSchl": 7039,
      "ĠSchwar": 7040,
      "itsch": 7041,
      "annica": 7042,
      "ĠIndex": 7043,
      "ittkau": 7044,
      "ussels": 7045,
      "ĠPaolo": 7046,
      "uez": 7047,
      "Ã¶l": 7048,
      "Ġqua": 7049,
      "Ġresults": 7050,
      "Ġcomprehensive": 7051,
      "ricollis": 7052,
      "Ġflat": 7053,
      "uchi": 7054,
      "ĠIslam": 7055,
      "Ġtransvers": 7056,
      "Ġcontaining": 7057,
      "leton": 7058,
      "226": 7059,
      "Ġ80": 7060,
      "ĠScriv": 7061,
      "ĠResource": 7062,
      "Ġheld": 7063,
      "ĠCommand": 7064,
      "ÅĻice": 7065,
      "ĠManuel": 7066,
      "uft": 7067,
      "ĠWallace": 7068,
      "ĠHealth": 7069,
      "uthrie": 7070,
      "ĠElliott": 7071,
      "ĠGreenwood": 7072,
      "helictus": 7073,
      "1964": 7074,
      "1967": 7075,
      "ĠPoint": 7076,
      "Ġregions": 7077,
      "Ġsurvey": 7078,
      "ĠEcology": 7079,
      "ĠCasale": 7080,
      "baum": 7081,
      "Ġexplor": 7082,
      "1972": 7083,
      "á»ĳi": 7084,
      "ĠKnow": 7085,
      "ylogenetics": 7086,
      "ieve": 7087,
      "plus": 7088,
      "ĠAlexand": 7089,
      "brunn": 7090,
      "thropology": 7091,
      "Ã±a": 7092,
      "ĠAtlantic": 7093,
      "rechus": 7094,
      "ĠWebsite": 7095,
      "ASA": 7096,
      "Ġdepos": 7097,
      "Ġfolded": 7098,
      "ĠMadrid": 7099,
      "Ġincre": 7100,
      "ĠFilms": 7101,
      "Ġhonor": 7102,
      "Ġhonour": 7103,
      "Ġsemif": 7104,
      "Ġwarning": 7105,
      "phibia": 7106,
      "Ġadditional": 7107,
      "rsg": 7108,
      "ĠGÃ¶tt": 7109,
      "uilt": 7110,
      "entieth": 7111,
      "Tomopterus": 7112,
      "brook": 7113,
      "Ġoverview": 7114,
      "ĠPrize": 7115,
      "Ġdocumentary": 7116,
      "Austral": 7117,
      "Ġlevels": 7118,
      "Ġtitle": 7119,
      "ĠMotorb": 7120,
      "á»±c": 7121,
      "ĠPhilosophy": 7122,
      "ĠQueens": 7123,
      "Ġpolitical": 7124,
      "ĠLaboratory": 7125,
      "ĠAffairs": 7126,
      "Ġlá»Ľ": 7127,
      "Ġmountain": 7128,
      "Amphelictus": 7129,
      "ĠGerais": 7130,
      "ĠGeoffrey": 7131,
      "British": 7132,
      "ĠTeilband": 7133,
      "Athylia": 7134,
      "Xylotrechus": 7135,
      "ĠIbrah": 7136,
      "Sangaris": 7137,
      "ĠScrivia": 7138,
      "AM": 7139,
      "Air": 7140,
      "Diet": 7141,
      "EN": 7142,
      "Ele": 7143,
      "Ect": 7144,
      "FB": 7145,
      "Fals": 7146,
      "Hen": 7147,
      "Horn": 7148,
      "IC": 7149,
      "Ian": 7150,
      "Jones": 7151,
      "Ky": 7152,
      "My": 7153,
      "Mat": 7154,
      "Mel": 7155,
      "Pre": 7156,
      "Penguin": 7157,
      "Rad": 7158,
      "SP": 7159,
      "Sph": 7160,
      "Sov": 7161,
      "UN": 7162,
      "Western": 7163,
      "aet": 7164,
      "bau": 7165,
      "cs": 7166,
      "des": 7167,
      "fo": 7168,
      "histor": 7169,
      "ieg": 7170,
      "iidae": 7171,
      "kand": 7172,
      "lar": 7173,
      "light": 7174,
      "oj": 7175,
      "part": 7176,
      "pton": 7177,
      "sing": 7178,
      "tail": 7179,
      "uki": 7180,
      "ving": 7181,
      "yra": 7182,
      "year": 7183,
      "Äĥ": 7184,
      "Ġì": 7185,
      "eran": 7186,
      "á»ĥ": 7187,
      "edition": 7188,
      "ederal": 7189,
      "atell": 7190,
      "atodes": 7191,
      "ĠSix": 7192,
      "ĠSusan": 7193,
      "Ġori": 7194,
      "Ġcel": 7195,
      "reto": 7196,
      "Ġlaw": 7197,
      "ĠCD": 7198,
      "ĠCR": 7199,
      "ĠCin": 7200,
      "ĠCai": 7201,
      "ĠCare": 7202,
      "ĠCourt": 7203,
      "ĠRchb": 7204,
      "alle": 7205,
      "alia": 7206,
      "ĠTob": 7207,
      "ĠTax": 7208,
      "ĠLam": 7209,
      "ĠLog": 7210,
      "ĠLater": 7211,
      "ĠLaf": 7212,
      "ĠLisa": 7213,
      "Ġban": 7214,
      "Ġborn": 7215,
      "Ġbound": 7216,
      "Ġbird": 7217,
      "istical": 7218,
      "ĠPowell": 7219,
      "Ġmagn": 7220,
      "ĠMul": 7221,
      "ĠMall": 7222,
      "ĠMore": 7223,
      "ĠTham": 7224,
      "ĠThird": 7225,
      "Ã¡s": 7226,
      "oliv": 7227,
      "asio": 7228,
      "ĠtrÃªn": 7229,
      "ĠBla": 7230,
      "ĠBang": 7231,
      "ĠBah": 7232,
      "ĠBrew": 7233,
      "ĠBoy": 7234,
      "ĠBank": 7235,
      "Ġsu": 7236,
      "Ġsuturalis": 7237,
      "Ġpall": 7238,
      "Ġdepartment": 7239,
      "Ġ1924": 7240,
      "Ġfarm": 7241,
      "ĠGof": 7242,
      "ĠGorb": 7243,
      "ĠDog": 7244,
      "Ġaus": 7245,
      "Ġaffect": 7246,
      "Ġacademic": 7247,
      "idal": 7248,
      "ĠWel": 7249,
      "ĠFamil": 7250,
      "ĠFittkau": 7251,
      "lei": 7252,
      "ĠEg": 7253,
      "rack": 7254,
      "umn": 7255,
      "Ġwid": 7256,
      "utus": 7257,
      "respond": 7258,
      "ulic": 7259,
      "opa": 7260,
      "imals": 7261,
      "ĠOst": 7262,
      "oted": 7263,
      "otro": 7264,
      "otated": 7265,
      "otte": 7266,
      "ĠKi": 7267,
      "ĠKan": 7268,
      "ĠKur": 7269,
      "adem": 7270,
      "ĠVers": 7271,
      "ĠVietnam": 7272,
      "ager": 7273,
      "aged": 7274,
      "Ġgá»įi": 7275,
      "ogo": 7276,
      "odi": 7277,
      "Ġonce": 7278,
      "ifth": 7279,
      "ifasci": 7280,
      "evision": 7281,
      "quÃŃ": 7282,
      "abra": 7283,
      "ably": 7284,
      "Ġrequ": 7285,
      "Ġrept": 7286,
      "ocar": 7287,
      "ocrat": 7288,
      "eston": 7289,
      "elles": 7290,
      "ellig": 7291,
      "eces": 7292,
      "ecutive": 7293,
      "ĠÄĳÃ£": 7294,
      "ibes": 7295,
      "asso": 7296,
      "ensus": 7297,
      "Ġstory": 7298,
      "Ã©v": 7299,
      "obrachus": 7300,
      "sonby": 7301,
      "ylostern": 7302,
      "ĠArgentina": 7303,
      "Ġke": 7304,
      "eyond": 7305,
      "ĠOrder": 7306,
      "ĠOrquÃŃ": 7307,
      "onsin": 7308,
      "ternal": 7309,
      "ÃŃk": 7310,
      "Includes": 7311,
      "Ġ99": 7312,
      "enny": 7313,
      "ectures": 7314,
      "ritus": 7315,
      "ĠWiltshire": 7316,
      "rone": 7317,
      "123": 7318,
      "ĠLeo": 7319,
      "ĠLeiden": 7320,
      "othic": 7321,
      "ĠShaw": 7322,
      "Ġeas": 7323,
      "Ġeither": 7324,
      "158": 7325,
      "Ġ55": 7326,
      "ertebr": 7327,
      "ĠCarval": 7328,
      "ashimi": 7329,
      "ĠSpain": 7330,
      "Ã¶h": 7331,
      "174": 7332,
      "Ġabove": 7333,
      "165": 7334,
      "rico": 7335,
      "Ġderived": 7336,
      "Ġunknown": 7337,
      "Ġseeds": 7338,
      "Ġcontract": 7339,
      "isconsin": 7340,
      "ĠAnderson": 7341,
      "395": 7342,
      "Å¡ice": 7343,
      "namegh": 7344,
      "Ġconscientious": 7345,
      "Ġjo": 7346,
      "Ġevents": 7347,
      "ĠSalamander": 7348,
      "Although": 7349,
      "1963": 7350,
      "Ġregarding": 7351,
      "Ġobsc": 7352,
      "Ġ1907": 7353,
      "flict": 7354,
      "regon": 7355,
      "vanced": 7356,
      "Ġ1898": 7357,
      "Ġsimilis": 7358,
      "ĠFranklin": 7359,
      "Ġnigro": 7360,
      "Ġcreated": 7361,
      "ĠLucia": 7362,
      "Ġlocal": 7363,
      "Ġneuroticism": 7364,
      "ĠLiber": 7365,
      "ĠInterpret": 7366,
      "George": 7367,
      "uzzo": 7368,
      "throps": 7369,
      "Ġschool": 7370,
      "Ġentry": 7371,
      "echanism": 7372,
      "ummary": 7373,
      "ĠWinter": 7374,
      "Ġpictures": 7375,
      "ĠCommunications": 7376,
      "Ġcapt": 7377,
      "Microp": 7378,
      "ĠÅł": 7379,
      "obatrach": 7380,
      "Tetrag": 7381,
      "ĠLegend": 7382,
      "lipara": 7383,
      "ĠRueda": 7384,
      "casting": 7385,
      "Ġfourth": 7386,
      "ĠKeith": 7387,
      "ĠHeinemann": 7388,
      "English": 7389,
      "Ġprocessing": 7390,
      "Ġfemale": 7391,
      "ĠByz": 7392,
      "ĠBowman": 7393,
      "ĠOttoman": 7394,
      "ĠHarperCollins": 7395,
      "ĠEssays": 7396,
      "Derobrachus": 7397,
      "Ġnovel": 7398,
      "Boophis": 7399,
      "ĠCraig": 7400,
      "ĠOhio": 7401,
      "loomington": 7402,
      "Ġcycl": 7403,
      "ĠCrusade": 7404,
      "ĠPonsonby": 7405,
      "rushnamegh": 7406,
      "Ġfurther": 7407,
      "emoirs": 7408,
      "chievement": 7409,
      "Ġaffinis": 7410,
      "iá»ģn": 7411,
      "Cycnidolon": 7412,
      "Hawkes": 7413,
      "Styloleptus": 7414,
      "Charles": 7415,
      "ĠColombia": 7416,
      "Pierre": 7417,
      "Ġnarrow": 7418,
      "Ġsignificant": 7419,
      "Cnemolia": 7420,
      "ĠColorado": 7421,
      "Acanthoderes": 7422,
      "ĠReptiles": 7423,
      "ĠGiuseppe": 7424,
      "Phelipara": 7425,
      "ĠRathbun": 7426,
      "ĠAlaska": 7427,
      "ĠEcuador": 7428,
      "Nealcidion": 7429,
      "ĠGofas": 7430,
      "ĠOrquÃŃdea": 7431,
      "ĠCarvalho": 7432,
      "213": 7433,
      "813": 7434,
      "Af": 7435,
      "Ams": 7436,
      "Dan": 7437,
      "Del": 7438,
      "Fre": 7439,
      "GS": 7440,
      "Go": 7441,
      "Gang": 7442,
      "Gaurotes": 7443,
      "Hz": 7444,
      "Hel": 7445,
      "Hyd": 7446,
      "Il": 7447,
      "Ichthy": 7448,
      "Ithaca": 7449,
      "Krushnamegh": 7450,
      "Ly": 7451,
      "Leptodact": 7452,
      "Mart": 7453,
      "Pe": 7454,
      "Po": 7455,
      "Pot": 7456,
      "Pict": 7457,
      "Ram": 7458,
      "Van": 7459,
      "aud": 7460,
      "dy": 7461,
      "dish": 7462,
      "hota": 7463,
      "nic": 7464,
      "oceph": 7465,
      "published": 7466,
      "rict": 7467,
      "tz": 7468,
      "tel": 7469,
      "vat": 7470,
      "web": 7471,
      "xestia": 7472,
      "ych": 7473,
      "¨ì": 7474,
      "Ãļ": 7475,
      "Äģ": 7476,
      "åŃ": 7477,
      "enzo": 7478,
      "enza": 7479,
      "Ġtests": 7480,
      "Ġtrees": 7481,
      "aters": 7482,
      "atipennis": 7483,
      "ining": 7484,
      "inata": 7485,
      "ĠSri": 7486,
      "ĠSearch": 7487,
      "ĠSarg": 7488,
      "ĠSgar": 7489,
      "Ġcit": 7490,
      "Ġcru": 7491,
      "Ġcase": 7492,
      "reis": 7493,
      "Ġlive": 7494,
      "ĠCard": 7495,
      "ĠCult": 7496,
      "ĠCross": 7497,
      "ĠCrisis": 7498,
      "orax": 7499,
      "ĠRan": 7500,
      "ĠRet": 7501,
      "ĠReb": 7502,
      "ĠRoth": 7503,
      "ĠRaj": 7504,
      "ĠRAF": 7505,
      "alan": 7506,
      "ĠTV": 7507,
      "ĠTav": 7508,
      "hecia": 7509,
      "ĠLaelia": 7510,
      "icans": 7511,
      "Ġbond": 7512,
      "Ġbest": 7513,
      "itis": 7514,
      "ithea": 7515,
      "ĠPied": 7516,
      "Ġmo": 7517,
      "Ġmiá»ģn": 7518,
      "pez": 7519,
      "ĠMu": 7520,
      "ĠMind": 7521,
      "ĠThis": 7522,
      "1950": 7523,
      "1969": 7524,
      "ĠAS": 7525,
      "ĠAth": 7526,
      "ĠBet": 7527,
      "ĠBac": 7528,
      "ĠBlan": 7529,
      "ĠBeck": 7530,
      "elius": 7531,
      "Ġsong": 7532,
      "roud": 7533,
      "ilton": 7534,
      "Ġpan": 7535,
      "Ġprey": 7536,
      "Ġded": 7537,
      "Ġdocuments": 7538,
      "Ġfoot": 7539,
      "ĠGuthrie": 7540,
      "omel": 7541,
      "omaculata": 7542,
      "ĠHolland": 7543,
      "ĠDas": 7544,
      "ĠDia": 7545,
      "ĠNon": 7546,
      "ĠNation": 7547,
      "ĠNach": 7548,
      "ĠNico": 7549,
      "idler": 7550,
      "entino": 7551,
      "ĠWa": 7552,
      "ĠWard": 7553,
      "ĠWerner": 7554,
      "ĠFlag": 7555,
      "ivation": 7556,
      "ĠEis": 7557,
      "ĠEll": 7558,
      "raction": 7559,
      "ĠJa": 7560,
      "ĠJah": 7561,
      "Ġway": 7562,
      "unts": 7563,
      "ulo": 7564,
      "ulations": 7565,
      "igu": 7566,
      "ĠUm": 7567,
      "ĠKor": 7568,
      "ĠKit": 7569,
      "agan": 7570,
      "Ġgood": 7571,
      "irus": 7572,
      "ogel": 7573,
      "oglio": 7574,
      "odion": 7575,
      "sten": 7576,
      "lap": 7577,
      "oven": 7578,
      "ovittata": 7579,
      "lips": 7580,
      "ĠUnits": 7581,
      "aco": 7582,
      "acus": 7583,
      "ĠYang": 7584,
      "aper": 7585,
      "epenth": 7586,
      "berts": 7587,
      "antes": 7588,
      "Ġreaction": 7589,
      "occ": 7590,
      "oche": 7591,
      "oclet": 7592,
      "ichi": 7593,
      "ichl": 7594,
      "estival": 7595,
      "ranean": 7596,
      "undred": 7597,
      "iboeum": 7598,
      "Ġstyles": 7599,
      "Ġedge": 7600,
      "ohen": 7601,
      "Ġ1869": 7602,
      "ylla": 7603,
      "ĠAlm": 7604,
      "orts": 7605,
      "Ġ39": 7606,
      "ending": 7607,
      "eyer": 7608,
      "ession": 7609,
      "ĠMars": 7610,
      "Ġaltern": 7611,
      "yster": 7612,
      "urel": 7613,
      "106": 7614,
      "peror": 7615,
      "athus": 7616,
      "ĠRoad": 7617,
      "loud": 7618,
      "cope": 7619,
      "ĠSchw": 7620,
      "ĠSchne": 7621,
      "ĠOrchestra": 7622,
      "ierra": 7623,
      "Ġdial": 7624,
      "Ġ40": 7625,
      "azzano": 7626,
      "amps": 7627,
      "ightly": 7628,
      "ĠPhylogeny": 7629,
      "ĠProt": 7630,
      "ĠWarfare": 7631,
      "enger": 7632,
      "ertation": 7633,
      "ĠConstitution": 7634,
      "Ġconson": 7635,
      "Ġconcept": 7636,
      "Æ°á»Ľi": 7637,
      "ously": 7638,
      "ĠHarold": 7639,
      "ĠDeutsch": 7640,
      "ettig": 7641,
      "Ġspring": 7642,
      "ĠClub": 7643,
      "Ġcontin": 7644,
      "ĠBruno": 7645,
      "Ġ1942": 7646,
      "Ġimage": 7647,
      "ĠAdd": 7648,
      "lagi": 7649,
      "lenes": 7650,
      "weil": 7651,
      "ĠAndrÃ©": 7652,
      "ighter": 7653,
      "arsis": 7654,
      "Å¡ov": 7655,
      "ĠGross": 7656,
      "Ġconsist": 7657,
      "ĠGrub": 7658,
      "ÅĻe": 7659,
      "Ġevent": 7660,
      "ĠSmall": 7661,
      "Ġrecords": 7662,
      "ĠBritannica": 7663,
      "helm": 7664,
      "ĠSanto": 7665,
      "486": 7666,
      "jects": 7667,
      "alais": 7668,
      "ĠPeru": 7669,
      "intage": 7670,
      "agno": 7671,
      "Ġ1893": 7672,
      "ĠPatri": 7673,
      "Ġinterest": 7674,
      "ĠBelbo": 7675,
      "Ġassigned": 7676,
      "á»ĳng": 7677,
      "Ġextensive": 7678,
      "Ġhighly": 7679,
      "ĠnhÆ°": 7680,
      "ĠCollected": 7681,
      "Stenosph": 7682,
      "ĠHaime": 7683,
      "Ġhabitats": 7684,
      "ĠHowell": 7685,
      "ĠNguá»ĵn": 7686,
      "Ġscholar": 7687,
      "ĠBrook": 7688,
      "ĠMarcus": 7689,
      "Ġcommonly": 7690,
      "ĠAntiqu": 7691,
      "syrassa": 7692,
      "ĠTechnical": 7693,
      "ĠProfessor": 7694,
      "ĠLouisiana": 7695,
      "ĠLindl": 7696,
      "Ġclassic": 7697,
      "ĠTitsingh": 7698,
      "ĠPresident": 7699,
      "Ġrecorded": 7700,
      "Ġinteg": 7701,
      "Ġvalid": 7702,
      "Ġinflor": 7703,
      "cellent": 7704,
      "NESCO": 7705,
      "ĠHeinz": 7706,
      "ĠHyper": 7707,
      "ĠGerald": 7708,
      "Ġcalcul": 7709,
      "ĠGriehl": 7710,
      "ĠJerry": 7711,
      "Ġelectronic": 7712,
      "ontaine": 7713,
      "rowser": 7714,
      "uppy": 7715,
      "ĠZoology": 7716,
      "ĠPeninsula": 7717,
      "ĠRoland": 7718,
      "impson": 7719,
      "Ġphysical": 7720,
      "ĠFourth": 7721,
      "ĠConcord": 7722,
      "ĠIssue": 7723,
      "ĠBuddh": 7724,
      "astropod": 7725,
      "ĠLambro": 7726,
      "ĠDirect": 7727,
      "oretical": 7728,
      "ĠLarry": 7729,
      "ĠKunte": 7730,
      "ĠPicture": 7731,
      "Ġintroduced": 7732,
      "Ġdifference": 7733,
      "Prax": 7734,
      "ĠKristensen": 7735,
      "Ġcateg": 7736,
      "Poeciloxestia": 7737,
      "03460": 7738,
      "Official": 7739,
      "Lissonotus": 7740,
      "ĠVladimir": 7741,
      "Ottawa": 7742,
      "ĠWissenschaften": 7743,
      "obothea": 7744,
      "ëĤ¨ì": 7745,
      "ĠLosses": 7746,
      "Ġauthors": 7747,
      "ĠVillanova": 7748,
      "ĠGÃ¶ttingen": 7749,
      "Ecteness": 7750,
      "ĠGorbunov": 7751,
      "Tetraglenes": 7752,
      "Leptodactylus": 7753,
      "ĠSgarlato": 7754,
      "ocletian": 7755,
      "Stenosphenus": 7756,
      "120": 7757,
      "880": 7758,
      "Bloomington": 7759,
      "Com": 7760,
      "Colle": 7761,
      "Catal": 7762,
      "Disc": 7763,
      "EC": 7764,
      "Elect": 7765,
      "Field": 7766,
      "Jan": 7767,
      "Jack": 7768,
      "Jean": 7769,
      "LI": 7770,
      "Los": 7771,
      "Lou": 7772,
      "Later": 7773,
      "Mo": 7774,
      "Mu": 7775,
      "Mec": 7776,
      "Mone": 7777,
      "NÄĥm": 7778,
      "Pent": 7779,
      "Pod": 7780,
      "Sel": 7781,
      "Several": 7782,
      "Vill": 7783,
      "cont": 7784,
      "don": 7785,
      "iini": 7786,
      "iinae": 7787,
      "lich": 7788,
      "lÃ©": 7789,
      "less": 7790,
      "mi": 7791,
      "rug": 7792,
      "sim": 7793,
      "tit": 7794,
      "wil": 7795,
      "yer": 7796,
      "zona": 7797,
      "Å¯": 7798,
      "Ñĥ": 7799,
      "Ġë": 7800,
      "eration": 7801,
      "esino": 7802,
      "enka": 7803,
      "Ġtones": 7804,
      "inck": 7805,
      "ĠSy": 7806,
      "ĠSac": 7807,
      "ĠSaf": 7808,
      "ĠSutton": 7809,
      "Ġol": 7810,
      "Ġcity": 7811,
      "Ġcard": 7812,
      "Ġcrib": 7813,
      "Ġclaim": 7814,
      "rett": 7815,
      "Ġliterature": 7816,
      "ĠCurt": 7817,
      "arpe": 7818,
      "aras": 7819,
      "aridae": 7820,
      "ĠRhe": 7821,
      "ĠRid": 7822,
      "ĠRot": 7823,
      "ĠRav": 7824,
      "alem": 7825,
      "ĠTu": 7826,
      "ĠTen": 7827,
      "ĠTrib": 7828,
      "ĠTropical": 7829,
      "ĠLiter": 7830,
      "ĠLetters": 7831,
      "ĠIran": 7832,
      "icop": 7833,
      "Ġbur": 7834,
      "Ġbiá»": 7835,
      "Ġbirth": 7836,
      "iting": 7837,
      "ĠPel": 7838,
      "ĠPath": 7839,
      "ĠPerson": 7840,
      "ĠPract": 7841,
      "pei": 7842,
      "Ġhand": 7843,
      "Ġhold": 7844,
      "ĠMut": 7845,
      "andy": 7846,
      "andro": 7847,
      "andom": 7848,
      "dad": 7849,
      "1949": 7850,
      "ĠAN": 7851,
      "ĠAy": 7852,
      "ĠAus": 7853,
      "ĠAuck": 7854,
      "Ã¡k": 7855,
      "olph": 7856,
      "ĠBab": 7857,
      "ĠBure": 7858,
      "ĠBux": 7859,
      "ĠBenth": 7860,
      "ĠBaden": 7861,
      "Ġsed": 7862,
      "ilema": 7863,
      "Ġpract": 7864,
      "Ġpitch": 7865,
      "Ġdiff": 7866,
      "Ġ1955": 7867,
      "Ġ1953": 7868,
      "etation": 7869,
      "Ġfile": 7870,
      "Ġfair": 7871,
      "ĠGent": 7872,
      "ĠHem": 7873,
      "ĠHob": 7874,
      "ĠHyd": 7875,
      "ĠDur": 7876,
      "ĠDrew": 7877,
      "ĠDynasty": 7878,
      "ĠNick": 7879,
      "Ġau": 7880,
      "Ġadapt": 7881,
      "idden": 7882,
      "entity": 7883,
      "ĠWagner": 7884,
      "ĠWisconsin": 7885,
      "ĠFur": 7886,
      "ĠFul": 7887,
      "ĠFact": 7888,
      "ĠEmer": 7889,
      "rait": 7890,
      "rage": 7891,
      "ĠJen": 7892,
      "ĠJak": 7893,
      "opli": 7894,
      "imura": 7895,
      "Ġvs": 7896,
      "Ġvitt": 7897,
      "otto": 7898,
      "cea": 7899,
      "ĠKag": 7900,
      "ĠKir": 7901,
      "ĠKap": 7902,
      "Ġ179": 7903,
      "Ġthough": 7904,
      "ĠVor": 7905,
      "ĠVig": 7906,
      "ĠVign": 7907,
      "ĠVals": 7908,
      "ĠVirt": 7909,
      "Ġgrand": 7910,
      "Ġnever": 7911,
      "tha": 7912,
      "irie": 7913,
      "ogl": 7914,
      "lais": 7915,
      "ĠUnt": 7916,
      "ĠStatus": 7917,
      "ondrial": 7918,
      "ĠYuk": 7919,
      "iant": 7920,
      "Ġforest": 7921,
      "oco": 7922,
      "ocation": 7923,
      "estor": 7924,
      "ellen": 7925,
      "ecker": 7926,
      "illes": 7927,
      "Ġdeb": 7928,
      "iblast": 7929,
      "assa": 7930,
      "Ġ37": 7931,
      "Ġanal": 7932,
      "Ġancient": 7933,
      "erno": 7934,
      "ucci": 7935,
      "aires": 7936,
      "109": 7937,
      "Ġgiáº£i": 7938,
      "Ġchron": 7939,
      "Ins": 7940,
      "Inter": 7941,
      "Introduction": 7942,
      "Ġprox": 7943,
      "Ġorb": 7944,
      "auro": 7945,
      "006": 7946,
      "Ġ48": 7947,
      "azon": 7948,
      "Ġein": 7949,
      "117": 7950,
      "ĠGuy": 7951,
      "attley": 7952,
      "Ġphon": 7953,
      "unty": 7954,
      "ĠCompanion": 7955,
      "ysthea": 7956,
      "ochondrial": 7957,
      "ĠBerkeley": 7958,
      "Ġquantum": 7959,
      "Ġresult": 7960,
      "Ġaden": 7961,
      "ĠMonc": 7962,
      "ĠCoast": 7963,
      "Ġsea": 7964,
      "Ġ88": 7965,
      "ezd": 7966,
      "ĠAmber": 7967,
      "Åįky": 7968,
      "schlag": 7969,
      "ĠMacMillan": 7970,
      "Ġrocks": 7971,
      "ĠGround": 7972,
      "ĠGrote": 7973,
      "criptions": 7974,
      "Ġclose": 7975,
      "terfly": 7976,
      "ĠHeidler": 7977,
      "ĠValley": 7978,
      "ienemann": 7979,
      "Ã¢u": 7980,
      "ĠColin": 7981,
      "ĠAgord": 7982,
      "Ġscale": 7983,
      "Ġscores": 7984,
      "ĠMinor": 7985,
      "Leipzig": 7986,
      "Ġregister": 7987,
      "acific": 7988,
      "ĠParam": 7989,
      "Ġ1908": 7990,
      "Ġenvironment": 7991,
      "ĠBounty": 7992,
      "áºŃp": 7993,
      "Springer": 7994,
      "Ġdistrict": 7995,
      "agnis": 7996,
      "Ġincluded": 7997,
      "Ġ1890": 7998,
      "Ġ1895": 7999,
      "ĠWeber": 8000,
      "dactylus": 8001,
      "Ġagreeableness": 8002,
      "ĠHolt": 8003,
      "ijk": 8004,
      "Proc": 8005,
      "affe": 8006,
      "áº¥n": 8007,
      "ĠGarcia": 8008,
      "ĠClassics": 8009,
      "iterranean": 8010,
      "ĠTerry": 8011,
      "Shrews": 8012,
      "Ġbecame": 8013,
      "ĠInterview": 8014,
      "Ġguides": 8015,
      "ĠRocchetta": 8016,
      "Epiblast": 8017,
      "oplatus": 8018,
      "Ġactiv": 8019,
      "uven": 8020,
      "ĠGraf": 8021,
      "strÃ¶m": 8022,
      "hetto": 8023,
      "ĠUniversit": 8024,
      "uerto": 8025,
      "gesch": 8026,
      "Ġviolins": 8027,
      "Hyagnis": 8028,
      "Ġchildhood": 8029,
      "Papilio": 8030,
      "Ġtypically": 8031,
      "ĠMonguor": 8032,
      "Ġfinite": 8033,
      "Ġcolour": 8034,
      "ĠCassell": 8035,
      "Ġtechnology": 8036,
      "Ġservice": 8037,
      "Ġeffects": 8038,
      "Ġmusical": 8039,
      "Æ°á»Ľc": 8040,
      "Ġcombinations": 8041,
      "ĠMeyer": 8042,
      "ĠGriff": 8043,
      "ĠErnst": 8044,
      "ĠMohamm": 8045,
      "ĠMohamed": 8046,
      "Ġcomputer": 8047,
      "Ġapproxim": 8048,
      "Richard": 8049,
      "ĠSannio": 8050,
      "Ġrespons": 8051,
      "obiography": 8052,
      "Ġchemical": 8053,
      "Ġcompletely": 8054,
      "ĠCatholic": 8055,
      "Ġastron": 8056,
      "ĠBelgium": 8057,
      "ĠFriedrich": 8058,
      "ĠLiszt": 8059,
      "Ġstrandi": 8060,
      "Ġeducational": 8061,
      "Eurysthea": 8062,
      "Loeb": 8063,
      "Available": 8064,
      "Frederick": 8065,
      "ĠSebast": 8066,
      "Ġlikely": 8067,
      "Ġdeposited": 8068,
      "ĠMotorbooks": 8069,
      "ĠQueensland": 8070,
      "Ichthyodes": 8071,
      "Ġinflorescence": 8072,
      "Moneilema": 8073,
      "ĠAuckland": 8074,
      "ÅįkyÅį": 8075,
      "Shrewsbury": 8076,
      "Epiblastus": 8077,
      ",***\"": 8078,
      "312": 8079,
      "824": 8080,
      "Cra": 8081,
      "Camp": 8082,
      "Ceral": 8083,
      "Dr": 8084,
      "Dia": 8085,
      "Day": 8086,
      "Dip": 8087,
      "Dob": 8088,
      "Free": 8089,
      "Ho": 8090,
      "Hon": 8091,
      "Lan": 8092,
      "Law": 8093,
      "MC": 8094,
      "Med": 8095,
      "Mion": 8096,
      "Most": 8097,
      "Moscow": 8098,
      "Pop": 8099,
      "Rel": 8100,
      "Rod": 8101,
      "Russian": 8102,
      "Sk": 8103,
      "Sci": 8104,
      "Sup": 8105,
      "Wars": 8106,
      "WÃ¼r": 8107,
      "Young": 8108,
      "aus": 8109,
      "bk": 8110,
      "ball": 8111,
      "cone": 8112,
      "gov": 8113,
      "green": 8114,
      "icidae": 8115,
      "iosa": 8116,
      "iá»ĩ": 8117,
      "ju": 8118,
      "lication": 8119,
      "mus": 8120,
      "met": 8121,
      "oen": 8122,
      "pared": 8123,
      "ror": 8124,
      "rill": 8125,
      "rical": 8126,
      "rÃŃ": 8127,
      "vii": 8128,
      "yia": 8129,
      "yum": 8130,
      "zawa": 8131,
      "¤í": 8132,
      "Ã¥": 8133,
      "Ã°": 8134,
      "ĠÂ": 8135,
      "ĠÃ¼": 8136,
      "Ġ74": 8137,
      "Ġegg": 8138,
      "Ġê°": 8139,
      "ĢìĿ": 8140,
      "ĥĢìĿ": 8141,
      "Ĭ¤í": 8142,
      "ķëĤ¨ì": 8143,
      "ergy": 8144,
      "onis": 8145,
      "online": 8146,
      "onstr": 8147,
      "á»Ľi": 8148,
      "eden": 8149,
      "enda": 8150,
      "enburg": 8151,
      "Ġtake": 8152,
      "aten": 8153,
      "inction": 8154,
      "inete": 8155,
      "isation": 8156,
      "ĠSach": 8157,
      "ĠSici": 8158,
      "ĠSnow": 8159,
      "ĠSuccess": 8160,
      "Ġlittle": 8161,
      "ĠCP": 8162,
      "arina": 8163,
      "ĠRyan": 8164,
      "alac": 8165,
      "ĠTal": 8166,
      "ĠTul": 8167,
      "ĠTrav": 8168,
      "ĠTettig": 8169,
      "heel": 8170,
      "ĠLant": 8171,
      "ĠLamar": 8172,
      "ĠLuft": 8173,
      "ĠIN": 8174,
      "ament": 8175,
      "icism": 8176,
      "Ġbim": 8177,
      "Ġbip": 8178,
      "itter": 8179,
      "ĠPanzer": 8180,
      "Ġmig": 8181,
      "Ġmart": 8182,
      "Ġmust": 8183,
      "Ġmaking": 8184,
      "pea": 8185,
      "peus": 8186,
      "ĠMand": 8187,
      "ĠMason": 8188,
      "ĠMyth": 8189,
      "ĠMaterial": 8190,
      "ĠMoscow": 8191,
      "ĠMarek": 8192,
      "ĠThor": 8193,
      "andria": 8194,
      "ĠAero": 8195,
      "ĠAlain": 8196,
      "aso": 8197,
      "asu": 8198,
      "ĠBes": 8199,
      "ĠBod": 8200,
      "ĠBak": 8201,
      "ĠBeh": 8202,
      "ĠBattles": 8203,
      "elve": 8204,
      "change": 8205,
      "ilidae": 8206,
      "Ġpa": 8207,
      "Ġpara": 8208,
      "Ġparv": 8209,
      "Ġ1920": 8210,
      "Ġ1934": 8211,
      "Ġfac": 8212,
      "Ġfly": 8213,
      "ĠGamb": 8214,
      "ĠGrow": 8215,
      "oms": 8216,
      "ĠHyp": 8217,
      "ĠHimal": 8218,
      "ĠHÃ¼b": 8219,
      "ĠDuch": 8220,
      "ĠDmit": 8221,
      "ĠNether": 8222,
      "erse": 8223,
      "ĠWide": 8224,
      "ĠWitt": 8225,
      "ĠWink": 8226,
      "ĠFay": 8227,
      "ĠFoot": 8228,
      "ĠFlying": 8229,
      "ĠFIFA": 8230,
      "rap": 8231,
      "raisha": 8232,
      "iacom": 8233,
      "oso": 8234,
      "osquilla": 8235,
      "Ġwide": 8236,
      "utz": 8237,
      "opes": 8238,
      "Ġvow": 8239,
      "ĠviÃªn": 8240,
      "ige": 8241,
      "ĠOver": 8242,
      "oti": 8243,
      "othe": 8244,
      "terdam": 8245,
      "ĠKol": 8246,
      "ĠKamp": 8247,
      "ĠVerm": 8248,
      "ĠVehicles": 8249,
      "Ġgastropod": 8250,
      "Ġnom": 8251,
      "Ġnuclear": 8252,
      "Ġnumbers": 8253,
      "Ġtour": 8254,
      "Ġtook": 8255,
      "stone": 8256,
      "rior": 8257,
      "labor": 8258,
      "phere": 8259,
      "ĠStock": 8260,
      "ĠStimpson": 8261,
      "avy": 8262,
      "ĠYong": 8263,
      "ifrons": 8264,
      "ĠCho": 8265,
      "ĠChange": 8266,
      "quist": 8267,
      "antage": 8268,
      "abl": 8269,
      "ocyna": 8270,
      "udson": 8271,
      "exts": 8272,
      "esta": 8273,
      "eggio": 8274,
      "ecause": 8275,
      "ugu": 8276,
      "geb": 8277,
      "lyt": 8278,
      "ibal": 8279,
      "Ġstr": 8280,
      "orei": 8281,
      "upta": 8282,
      "Ġ1870": 8283,
      "Ġ1859": 8284,
      "angered": 8285,
      "ĠAllied": 8286,
      "Ġ36": 8287,
      "endrum": 8288,
      "Ġanother": 8289,
      "uca": 8290,
      "Ġrivers": 8291,
      "Ġrich": 8292,
      "onso": 8293,
      "102": 8294,
      "107": 8295,
      "Ġgiá»¯": 8296,
      "enno": 8297,
      "enner": 8298,
      "ĠZen": 8299,
      "Chen": 8300,
      "Ġpropos": 8301,
      "Ġproduct": 8302,
      "1890": 8303,
      "Ġexcerpt": 8304,
      "ĠSchÃ¶n": 8305,
      "rops": 8306,
      "away": 8307,
      "Thomas": 8308,
      "ynton": 8309,
      "ĠLeicester": 8310,
      "136": 8311,
      "leyi": 8312,
      "teenth": 8313,
      "ĠSher": 8314,
      "Ġeff": 8315,
      "Ġeight": 8316,
      "Ġeastern": 8317,
      "150": 8318,
      "157": 8319,
      "ialis": 8320,
      "amilton": 8321,
      "aily": 8322,
      "ailand": 8323,
      "unga": 8324,
      "Ġphil": 8325,
      "Ġphá»ĳ": 8326,
      "Ġphylogenetic": 8327,
      "===:": 8328,
      "chel": 8329,
      "chet": 8330,
      "rene": 8331,
      "Ġconne": 8332,
      "ttem": 8333,
      "braham": 8334,
      "ĠDeath": 8335,
      "160": 8336,
      "Ġadults": 8337,
      "Ġarg": 8338,
      "lora": 8339,
      "Ġsection": 8340,
      "ĠCastiglione": 8341,
      "Ġ1947": 8342,
      "Ġ1949": 8343,
      "ĠRobertson": 8344,
      "ĠAdrian": 8345,
      "rosophil": 8346,
      "Ġeditions": 8347,
      "ĠPaper": 8348,
      "cluded": 8349,
      "Ġrock": 8350,
      "297": 8351,
      "Parmen": 8352,
      "Ġclub": 8353,
      "Ġlonger": 8354,
      "ĠAbout": 8355,
      "Ġeleg": 8356,
      "Also": 8357,
      "uyá»": 8358,
      "ĠAssessment": 8359,
      "ĠPoynton": 8360,
      "Ġoblong": 8361,
      "armorata": 8362,
      "ĠMiche": 8363,
      "ĠParks": 8364,
      "ĠMathematical": 8365,
      "Ġinteractive": 8366,
      "pelopia": 8367,
      "ijing": 8368,
      "ĠPalgrave": 8369,
      "ĠControl": 8370,
      "ĠContinu": 8371,
      "ĠDelta": 8372,
      "Enes": 8373,
      "Ġrain": 8374,
      "Ġhigher": 8375,
      "mea": 8376,
      "Ġ1867": 8377,
      "Ġcomments": 8378,
      "Ġcompet": 8379,
      "Ġcommercial": 8380,
      "Ġspecif": 8381,
      "chenko": 8382,
      "ĠInterior": 8383,
      "Ġresearchers": 8384,
      "ĠMela": 8385,
      "Tropid": 8386,
      "Ġpaperback": 8387,
      "ĠAccount": 8388,
      "ĠFauna": 8389,
      "Ġcorre": 8390,
      "Ġmonths": 8391,
      "Ġequations": 8392,
      "Ġattack": 8393,
      "ĠSheet": 8394,
      "ĠHansen": 8395,
      "olnÃŃ": 8396,
      "ĠUSAF": 8397,
      "ĠSiber": 8398,
      "ĠIntel": 8399,
      "ciples": 8400,
      "Periboeum": 8401,
      "ĠTanks": 8402,
      "Ġshowing": 8403,
      "Harper": 8404,
      "ĠRenard": 8405,
      "ĠUniversal": 8406,
      "Ġsnail": 8407,
      "Æ¡n": 8408,
      "Ġ___": 8409,
      "Hyalin": 8410,
      "Ġmarkings": 8411,
      "Ġbehind": 8412,
      "Ġtypes": 8413,
      "Ġgrowth": 8414,
      "Ġterrest": 8415,
      "ĠPotsch": 8416,
      "ĠSpeech": 8417,
      "Ġserve": 8418,
      "ĠJacques": 8419,
      "Ġassociation": 8420,
      "ĠPrince": 8421,
      "ĠMikh": 8422,
      "Ġwinter": 8423,
      "Colobothea": 8424,
      "colm": 8425,
      "Ġexamples": 8426,
      "alytic": 8427,
      "ĠGardens": 8428,
      "Ġconcern": 8429,
      "ĠBosco": 8430,
      "ĠOvid": 8431,
      "Ġprimary": 8432,
      "ĠCastelletto": 8433,
      "ĠClarke": 8434,
      "Ġfiled": 8435,
      "ĠWayne": 8436,
      "ĠPlants": 8437,
      "ĠAeronautica": 8438,
      "ĠSakai": 8439,
      "allowtail": 8440,
      "ĠInvest": 8441,
      "Ġcommunity": 8442,
      "mbH": 8443,
      "ĠHungary": 8444,
      "ĠMountain": 8445,
      "ĠHendel": 8446,
      "Ġproblems": 8447,
      "hausen": 8448,
      "Velk": 8449,
      "Ġvariab": 8450,
      "ĠConfeder": 8451,
      "fasciata": 8452,
      "ĠParnassius": 8453,
      "Eriphus": 8454,
      "Lophop": 8455,
      "ĠPSY": 8456,
      "ĠJinbut": 8457,
      "ĠTaiwan": 8458,
      "ĠGonz": 8459,
      "ĠAgriculture": 8460,
      "Ġgracilis": 8461,
      "Logisticus": 8462,
      "ĠPablo": 8463,
      "ironomus": 8464,
      "Silva": 8465,
      "Ġsemifinal": 8466,
      "atellite": 8467,
      "Ġreptiles": 8468,
      "elligence": 8469,
      "obatrachium": 8470,
      "Amsterdam": 8471,
      "Gangnam": 8472,
      "Ġdedicated": 8473,
      "Mecometopus": 8474,
      "Ceralocyna": 8475,
      "Honolulu": 8476,
      "Mionochroma": 8477,
      "Ġê°ķëĤ¨ì": 8478,
      "ĥĢìĿ¼": 8479,
      "Ĭ¤íĥĢìĿ¼": 8480,
      "ĠTettigoniidae": 8481,
      "ĠNetherlands": 8482,
      "Parmenonta": 8483,
      "Hyalinobatrachium": 8484,
      "ĠJinbutsu": 8485,
      "Ġê°ķëĤ¨ìĬ¤íĥĢìĿ¼": 8486,
      "313": 8487,
      "400": 8488,
      "854": 8489,
      ":**": 8490,
      "?\"": 8491,
      "AC": 8492,
      "Bel": 8493,
      "Don": 8494,
      "ET": 8495,
      "Euch": 8496,
      "Elyt": 8497,
      "Gro": 8498,
      "Gramm": 8499,
      "HS": 8500,
      "Hal": 8501,
      "Hap": 8502,
      "Host": 8503,
      "Hrsg": 8504,
      "Hinck": 8505,
      "IP": 8506,
      "Ic": 8507,
      "Kim": 8508,
      "Long": 8509,
      "Naval": 8510,
      "Other": 8511,
      "Patt": 8512,
      "Print": 8513,
      "Paul": 8514,
      "Roman": 8515,
      "Ribes": 8516,
      "Sam": 8517,
      "Villa": 8518,
      "bis": 8519,
      "bow": 8520,
      "bell": 8521,
      "cing": 8522,
      "crow": 8523,
      "care": 8524,
      "cÃŃa": 8525,
      "dong": 8526,
      "fin": 8527,
      "fried": 8528,
      "gang": 8529,
      "hill": 8530,
      "horn": 8531,
      "iated": 8532,
      "lung": 8533,
      "lington": 8534,
      "lott": 8535,
      "mel": 8536,
      "mia": 8537,
      "mont": 8538,
      "rology": 8539,
      "sm": 8540,
      "von": 8541,
      "yph": 8542,
      "yly": 8543,
      "ymer": 8544,
      "zs": 8545,
      "Â°": 8546,
      "Äĥn": 8547,
      "Ġeth": 8548,
      "Ġumb": 8549,
      "ħn": 8550,
      "erano": 8551,
      "á»³": 8552,
      "anensis": 8553,
      "ede": 8554,
      "enstein": 8555,
      "Ġtip": 8556,
      "ĠtÃ¢y": 8557,
      "Ġtalk": 8558,
      "ints": 8559,
      "isse": 8560,
      "ĠSid": 8561,
      "ĠSig": 8562,
      "ĠSla": 8563,
      "ĠSars": 8564,
      "ĠSource": 8565,
      "ĠSÃ¦": 8566,
      "ĠSoftware": 8567,
      "Ġox": 8568,
      "Ġcu": 8569,
      "Ġcer": 8570,
      "Ġcrass": 8571,
      "Ġcode": 8572,
      "Ġclear": 8573,
      "cipe": 8574,
      "rete": 8575,
      "reille": 8576,
      "Ġlan": 8577,
      "Ġletters": 8578,
      "ĠClin": 8579,
      "ĠCather": 8580,
      "arro": 8581,
      "aring": 8582,
      "arius": 8583,
      "arterf": 8584,
      "oro": 8585,
      "ĠRag": 8586,
      "ĠRem": 8587,
      "ĠRivers": 8588,
      "ĠRose": 8589,
      "ĠRott": 8590,
      "ĠRights": 8591,
      "ĠRKO": 8592,
      "alif": 8593,
      "alination": 8594,
      "ĠTop": 8595,
      "ĠType": 8596,
      "heastern": 8597,
      "ĠLign": 8598,
      "ĠLomb": 8599,
      "ĠLane": 8600,
      "ĠLars": 8601,
      "ĠLibr": 8602,
      "amer": 8603,
      "Ġbar": 8604,
      "Ġbark": 8605,
      "Ġbates": 8606,
      "Ġbáº£n": 8607,
      "istance": 8608,
      "ĠPell": 8609,
      "ĠPieve": 8610,
      "Ġmass": 8611,
      "Ġmakes": 8612,
      "Ġmemory": 8613,
      "peplus": 8614,
      "Ġhom": 8615,
      "Ġhome": 8616,
      "ĠMes": 8617,
      "ĠMam": 8618,
      "ĠMomb": 8619,
      "ĠMajor": 8620,
      "ĠMollusca": 8621,
      "1912": 8622,
      "1901": 8623,
      "ĠAction": 8624,
      "ĠActor": 8625,
      "oline": 8626,
      "olitan": 8627,
      "Ġtrade": 8628,
      "Ġtráº¥n": 8629,
      "ĠBened": 8630,
      "ĠBag": 8631,
      "ĠBack": 8632,
      "ĠBrad": 8633,
      "elida": 8634,
      "Ġshel": 8635,
      "Ġsummer": 8636,
      "ambarus": 8637,
      "rob": 8638,
      "Ġple": 8639,
      "Ġpoll": 8640,
      "Ġpale": 8641,
      "Ġplat": 8642,
      "ĠdÃłi": 8643,
      "Ġdiversity": 8644,
      "Ġdry": 8645,
      "eties": 8646,
      "Ġfal": 8647,
      "Ġfiles": 8648,
      "Ġfemor": 8649,
      "Ġfamous": 8650,
      "ĠGree": 8651,
      "ĠGram": 8652,
      "ĠGray": 8653,
      "ĠGmbH": 8654,
      "omer": 8655,
      "omus": 8656,
      "ĠHand": 8657,
      "ĠHir": 8658,
      "ĠDiane": 8659,
      "ĠNap": 8660,
      "ĠNaz": 8661,
      "Ġinh": 8662,
      "idot": 8663,
      "idendrum": 8664,
      "entin": 8665,
      "ĠWer": 8666,
      "ĠWright": 8667,
      "ĠFors": 8668,
      "ĠFuture": 8669,
      "ivo": 8670,
      "rada": 8671,
      "rael": 8672,
      "opoda": 8673,
      "Ġvel": 8674,
      "Ġvarian": 8675,
      "igious": 8676,
      "ĠOut": 8677,
      "oting": 8678,
      "ĠKew": 8679,
      "ĠKah": 8680,
      "ĠKings": 8681,
      "adius": 8682,
      "ĠVo": 8683,
      "ĠVu": 8684,
      "agne": 8685,
      "aglia": 8686,
      "agher": 8687,
      "emet": 8688,
      "emonte": 8689,
      "Ġgla": 8690,
      "Ġglab": 8691,
      "Ġnob": 8692,
      "ĠnÃ³": 8693,
      "rif": 8694,
      "laci": 8695,
      "ĠUniti": 8696,
      "ĠSten": 8697,
      "ĠStation": 8698,
      "allas": 8699,
      "ĠIncluding": 8700,
      "ĠChild": 8701,
      "apicalis": 8702,
      "eport": 8703,
      "quet": 8704,
      "arts": 8705,
      "abilis": 8706,
      "rano": 8707,
      "astic": 8708,
      "lymp": 8709,
      "ĠÄĳáº§u": 8710,
      "ĠTheir": 8711,
      "unders": 8712,
      "ibility": 8713,
      "Ġeditors": 8714,
      "Ã©rie": 8715,
      "ohl": 8716,
      "ĠAnthropology": 8717,
      "Ġ1873": 8718,
      "ortic": 8719,
      "ologica": 8720,
      "Ġknow": 8721,
      "Ġrat": 8722,
      "108": 8723,
      "ption": 8724,
      "Ġwhose": 8725,
      "Ste": 8726,
      "ennes": 8727,
      "izioni": 8728,
      "ouk": 8729,
      "ouch": 8730,
      "Choriolaus": 8731,
      "ritten": 8732,
      "ronze": 8733,
      "aceous": 8734,
      "auer": 8735,
      "Ġexperience": 8736,
      "counts": 8737,
      "Anton": 8738,
      "Ġ42": 8739,
      "teen": 8740,
      "ĠShores": 8741,
      "clus": 8742,
      "index": 8743,
      "ĠFranz": 8744,
      "ĠFranco": 8745,
      "ĠWarren": 8746,
      "153": 8747,
      "ussa": 8748,
      "shaped": 8749,
      "arison": 8750,
      "ĠConquest": 8751,
      "Pha": 8752,
      "PhÃ¢n": 8753,
      "burn": 8754,
      "oleus": 8755,
      "chell": 8756,
      "ĠSpring": 8757,
      "Ġconference": 8758,
      "formed": 8759,
      "Ġquick": 8760,
      "Ġquarterf": 8761,
      "ĠNative": 8762,
      "Ġrest": 8763,
      "Ġresemb": 8764,
      "ĠPaulo": 8765,
      "Ġadol": 8766,
      "ĠngÆ°á»Ŀi": 8767,
      "ĠCooper": 8768,
      "ĠIskand": 8769,
      "otta": 8770,
      "337": 8771,
      "228": 8772,
      "Ġ84": 8773,
      "ĠAdministration": 8774,
      "Ġpublications": 8775,
      "ĠAndreas": 8776,
      "Ġlaev": 8777,
      "Ġhealth": 8778,
      "Ġuses": 8779,
      "8047": 8780,
      "oulder": 8781,
      "ĠMacDi": 8782,
      "roleptus": 8783,
      "inalis": 8784,
      "ÅĻeb": 8785,
      "ÅĻez": 8786,
      "ĠMilan": 8787,
      "Ġplaced": 8788,
      "ĠWales": 8789,
      "ometry": 8790,
      "ĠForum": 8791,
      "Beraba": 8792,
      "ĠGiust": 8793,
      "Ġrevision": 8794,
      "ĠTimothy": 8795,
      "ĠRichardson": 8796,
      "1962": 8797,
      "1966": 8798,
      "ĠMalcolm": 8799,
      "Spalac": 8800,
      "Ġ1892": 8801,
      "ĠEcosystem": 8802,
      "ĠSwallowtail": 8803,
      "armid": 8804,
      "Ġmodels": 8805,
      "Ġaccept": 8806,
      "Ġformation": 8807,
      "Ġfounded": 8808,
      "Ġreprinted": 8809,
      "pectives": 8810,
      "Ġdays": 8811,
      "Ġopenness": 8812,
      "ĠGarland": 8813,
      "unctatus": 8814,
      "ĠEmmanuel": 8815,
      "Ġbecomes": 8816,
      "ĠMush": 8817,
      "ĠMusical": 8818,
      "Atimura": 8819,
      "Ġorchestra": 8820,
      "Ġneigh": 8821,
      "ĠRobb": 8822,
      "ĠRobin": 8823,
      "Ġmanuscript": 8824,
      "uggle": 8825,
      "relim": 8826,
      "ĠVenice": 8827,
      "petes": 8828,
      "apping": 8829,
      "IST": 8830,
      "ĠGallagher": 8831,
      "Ġcapital": 8832,
      "ripennis": 8833,
      "Micro": 8834,
      "Ġshows": 8835,
      "Ġrecording": 8836,
      "ĠRandall": 8837,
      "Ġvarieg": 8838,
      "Ġarchit": 8839,
      "Ġleading": 8840,
      "Ġdirector": 8841,
      "Ġstandard": 8842,
      "Ġannotated": 8843,
      "Ġhydroge": 8844,
      "Ġmedium": 8845,
      "Ġsituated": 8846,
      "phibians": 8847,
      "igenous": 8848,
      "ĠForez": 8849,
      "ĠExplor": 8850,
      "ĠLanka": 8851,
      "Ġbelow": 8852,
      "Notes": 8853,
      "ĠPopular": 8854,
      "ĠElectronic": 8855,
      "Research": 8856,
      "ĠBorgo": 8857,
      "Ġprofile": 8858,
      "Ġadvance": 8859,
      "ĠAshgate": 8860,
      "ĠGilbert": 8861,
      "ĠHorse": 8862,
      "ĠArizona": 8863,
      "onstruction": 8864,
      "Ġreleased": 8865,
      "Ġissues": 8866,
      "ĠEnvironmental": 8867,
      "Ġmeasure": 8868,
      "erdin": 8869,
      "ĠRaymond": 8870,
      "ĠOriginal": 8871,
      "Ancylistes": 8872,
      "ĠProvince": 8873,
      "ĠCzech": 8874,
      "ĠHonor": 8875,
      "Ġsolutions": 8876,
      "Ġpupa": 8877,
      "Ġindicates": 8878,
      "Ġsuggested": 8879,
      "Ġexplanation": 8880,
      "Ġseparate": 8881,
      "Ġmilitary": 8882,
      "Ġpossible": 8883,
      "ĠDevon": 8884,
      "ĠSergei": 8885,
      "ĠFontan": 8886,
      "ĠEicher": 8887,
      "Ġparticularly": 8888,
      "ĠWritings": 8889,
      "reshwater": 8890,
      "aggiore": 8891,
      "Ġnumerical": 8892,
      "ĠPhilippines": 8893,
      "Ġterritory": 8894,
      "Ġsomew": 8895,
      "Deltaspis": 8896,
      "Parep": 8897,
      "ĠSopra": 8898,
      "hopalus": 8899,
      "midt": 8900,
      "Ġreceived": 8901,
      "ĠKaiser": 8902,
      "Ġcyclase": 8903,
      "Praxithea": 8904,
      "Ectenessa": 8905,
      "Jackson": 8906,
      "icoptus": 8907,
      "Ġgiá»¯a": 8908,
      "Elytroleptus": 8909,
      "Hinckley": 8910,
      "ĠSÃ¦ther": 8911,
      "ĠLignon": 8912,
      "ĠMacDiarmid": 8913,
      "Spalacopsis": 8914,
      "112": 8915,
      "500": 8916,
      "Aeg": 8917,
      "Alex": 8918,
      "Aeren": 8919,
      "Bas": 8920,
      "Bonn": 8921,
      "Because": 8922,
      "Das": 8923,
      "DolnÃŃ": 8924,
      "Em": 8925,
      "Est": 8926,
      "East": 8927,
      "Hong": 8928,
      "HTML": 8929,
      "Jul": 8930,
      "June": 8931,
      "Karl": 8932,
      "MI": 8933,
      "Mer": 8934,
      "Mur": 8935,
      "Mark": 8936,
      "OS": 8937,
      "October": 8938,
      "Oeax": 8939,
      "Pan": 8940,
      "Pres": 8941,
      "Publ": 8942,
      "Pont": 8943,
      "Pygm": 8944,
      "Ret": 8945,
      "Reg": 8946,
      "Rept": 8947,
      "Sing": 8948,
      "South": 8949,
      "Since": 8950,
      "Tr": 8951,
      "Time": 8952,
      "TÅįkyÅį": 8953,
      "VA": 8954,
      "VD": 8955,
      "Xyst": 8956,
      "actions": 8957,
      "bana": 8958,
      "buch": 8959,
      "cens": 8960,
      "cole": 8961,
      "ditions": 8962,
      "fall": 8963,
      "gl": 8964,
      "gence": 8965,
      "har": 8966,
      "hoe": 8967,
      "iens": 8968,
      "ipel": 8969,
      "jin": 8970,
      "lon": 8971,
      "pat": 8972,
      "pper": 8973,
      "perside": 8974,
      "qing": 8975,
      "rh": 8976,
      "rice": 8977,
      "vÃł": 8978,
      "vet": 8979,
      "wyn": 8980,
      "Ð»": 8981,
      "Ġzo": 8982,
      "erry": 8983,
      "ono": 8984,
      "onot": 8985,
      "oney": 8986,
      "edon": 8987,
      "Ġtotal": 8988,
      "atter": 8989,
      "atem": 8990,
      "inth": 8991,
      "ĠSin": 8992,
      "ĠSoph": 8993,
      "ĠSierra": 8994,
      "ĠcÃ¹ng": 8995,
      "ciple": 8996,
      "rec": 8997,
      "reams": 8998,
      "Ġly": 8999,
      "Ġlecture": 9000,
      "ĠCes": 9001,
      "ĠCreat": 9002,
      "ĠCun": 9003,
      "orig": 9004,
      "ĠRat": 9005,
      "ĠRise": 9006,
      "ĠTic": 9007,
      "ĠTch": 9008,
      "ĠTag": 9009,
      "ĠTert": 9010,
      "ĠTomb": 9011,
      "ĠTuttle": 9012,
      "ĠLove": 9013,
      "ĠLanguages": 9014,
      "ĠLhota": 9015,
      "á»įc": 9016,
      "amo": 9017,
      "icz": 9018,
      "icine": 9019,
      "icata": 9020,
      "icola": 9021,
      "icorne": 9022,
      "Ġband": 9023,
      "Ġbuilt": 9024,
      "itung": 9025,
      "itude": 9026,
      "itarsis": 9027,
      "ĠPace": 9028,
      "Ġmis": 9029,
      "Ġhov": 9030,
      "Ġhiá»ĩn": 9031,
      "ĠMing": 9032,
      "ĠMig": 9033,
      "ĠMast": 9034,
      "ĠMorn": 9035,
      "ĠMagn": 9036,
      "ĠMaps": 9037,
      "ĠMoths": 9038,
      "ĠMTV": 9039,
      "ĠMorgan": 9040,
      "ĠThienemann": 9041,
      "ĠThailand": 9042,
      "1958": 9043,
      "1956": 9044,
      "1905": 9045,
      "ĠAnh": 9046,
      "oles": 9047,
      "Ġlos": 9048,
      "Ġloáº¡i": 9049,
      "ĠBib": 9050,
      "ĠBenn": 9051,
      "ĠBrief": 9052,
      "Ġsus": 9053,
      "Ġsens": 9054,
      "amburg": 9055,
      "ilder": 9056,
      "Ġpast": 9057,
      "Ġptych": 9058,
      "Ġdent": 9059,
      "Ġdate": 9060,
      "Ġ1918": 9061,
      "Ġ1928": 9062,
      "etes": 9063,
      "ĠGol": 9064,
      "ĠGav": 9065,
      "ĠHit": 9066,
      "ĠHum": 9067,
      "ĠHorn": 9068,
      "ĠHero": 9069,
      "ĠHistoire": 9070,
      "ĠHashimi": 9071,
      "urb": 9072,
      "ĠDj": 9073,
      "ĠDuda": 9074,
      "ĠDocuments": 9075,
      "ĠDuke": 9076,
      "ĠDutch": 9077,
      "ĠNak": 9078,
      "Ġinflu": 9079,
      "Ġacid": 9080,
      "idum": 9081,
      "ĠWein": 9082,
      "ĠFu": 9083,
      "ĠFol": 9084,
      "ĠFord": 9085,
      "ĠFinn": 9086,
      "iventris": 9087,
      "lem": 9088,
      "rah": 9089,
      "ĠJess": 9090,
      "ĠJoe": 9091,
      "osition": 9092,
      "osoma": 9093,
      "oshi": 9094,
      "Ġwind": 9095,
      "Ġwww": 9096,
      "ulp": 9097,
      "ulen": 9098,
      "ullian": 9099,
      "ctes": 9100,
      "oplax": 9101,
      "iment": 9102,
      "imation": 9103,
      "Ġvict": 9104,
      "ĠváºŃt": 9105,
      "ĠOF": 9106,
      "ĠOregon": 9107,
      "otis": 9108,
      "ĠUb": 9109,
      "ĠUt": 9110,
      "ĠKas": 9111,
      "ĠKil": 9112,
      "ĠKaz": 9113,
      "ĠKare": 9114,
      "ĠKÃ¶n": 9115,
      "ader": 9116,
      "Ġthick": 9117,
      "ĠVit": 9118,
      "ĠVel": 9119,
      "ĠVolumes": 9120,
      "Ġgran": 9121,
      "Ġgrass": 9122,
      "Ġgutt": 9123,
      "Ġnel": 9124,
      "stadt": 9125,
      "rique": 9126,
      "rift": 9127,
      "lac": 9128,
      "lau": 9129,
      "phon": 9130,
      "lius": 9131,
      "aces": 9132,
      "owers": 9133,
      "ĠYe": 9134,
      "evier": 9135,
      "ianum": 9136,
      "ĠChand": 9137,
      "ĠChamp": 9138,
      "ĠChamber": 9139,
      "antium": 9140,
      "arta": 9141,
      "udi": 9142,
      "ichroma": 9143,
      "Ġisland": 9144,
      "elly": 9145,
      "uga": 9146,
      "mans": 9147,
      "rome": 9148,
      "illed": 9149,
      "ĠTheatre": 9150,
      "ipment": 9151,
      "ioides": 9152,
      "ibialis": 9153,
      "asser": 9154,
      "tone": 9155,
      "Ġstems": 9156,
      "ohol": 9157,
      "ĠAnne": 9158,
      "Ġ1815": 9159,
      "Ġ1833": 9160,
      "Ġ1860": 9161,
      "Ġ1851": 9162,
      "ĠArn": 9163,
      "ĠAlf": 9164,
      "ĠAlkan": 9165,
      "Ġkept": 9166,
      "endipes": 9167,
      "ĠOrn": 9168,
      "Ġanimal": 9169,
      "uced": 9170,
      "achim": 9171,
      "Ġrh": 9172,
      "101": 9173,
      "Ġchapter": 9174,
      "Instit": 9175,
      "inski": 9176,
      "insky": 9177,
      "ideos": 9178,
      "toine": 9179,
      "China": 9180,
      "Ġprop": 9181,
      "180": 9182,
      "181": 9183,
      "loy": 9184,
      "erei": 9185,
      "erez": 9186,
      "Ġexperim": 9187,
      "ferred": 9188,
      "ropoda": 9189,
      "ThÃ¡ng": 9190,
      "ĠLeipzig": 9191,
      "see": 9192,
      "issen": 9193,
      "inde": 9194,
      "ĠPhoto": 9195,
      "ĠPhotos": 9196,
      "icity": 9197,
      "ĠNoctu": 9198,
      "enga": 9199,
      "ittor": 9200,
      "Ġ57": 9201,
      "Ġ500": 9202,
      "Phym": 9203,
      "146": 9204,
      "Ġphen": 9205,
      "Ġphoto": 9206,
      "ĠComput": 9207,
      "ĠSpar": 9208,
      "Ã¶tt": 9209,
      "caph": 9210,
      "General": 9211,
      "Ġnote": 9212,
      "Ġshape": 9213,
      "idaceae": 9214,
      "etti": 9215,
      "Ġadult": 9216,
      "Ġunseeded": 9217,
      "Ġsee": 9218,
      "Ġtransport": 9219,
      "United": 9220,
      "lets": 9221,
      "ĠBrig": 9222,
      "ĠAdv": 9223,
      "ĠBiol": 9224,
      "ĠBiological": 9225,
      "Ġsubspecies": 9226,
      "ĠQuarter": 9227,
      "arsus": 9228,
      "Ã¨re": 9229,
      "ossa": 9230,
      "msaki": 9231,
      "Ġroad": 9232,
      "Parac": 9233,
      "oxys": 9234,
      "Ġupperside": 9235,
      "Ġclos": 9236,
      "ĠMilit": 9237,
      "566": 9238,
      "ĠManchester": 9239,
      "ĠAustin": 9240,
      "ĠHead": 9241,
      "ometes": 9242,
      "Leptoc": 9243,
      "ĠButler": 9244,
      "ĠEls": 9245,
      "ragus": 9246,
      "rague": 9247,
      "ĠColoma": 9248,
      "oyle": 9249,
      "itzerland": 9250,
      "Alb": 9251,
      "ederus": 9252,
      "Ġnews": 9253,
      "ĠReprint": 9254,
      "ĠReprinted": 9255,
      "ĠJulian": 9256,
      "Add": 9257,
      "acional": 9258,
      "Ġ1909": 9259,
      "Ġenergy": 9260,
      "ĠBois": 9261,
      "Ġdistributed": 9262,
      "ĠSwitzerland": 9263,
      "ÄĽt": 9264,
      "ĠTransport": 9265,
      "ĠTranslated": 9266,
      "Proceedings": 9267,
      "ĠCampo": 9268,
      "ozineus": 9269,
      "ĠMedical": 9270,
      "ĠMediterranean": 9271,
      "aliph": 9272,
      "ĠCapt": 9273,
      "cidental": 9274,
      "ĠSimp": 9275,
      "Ġfeatures": 9276,
      "Ġlateral": 9277,
      "ĠMuslim": 9278,
      "Ġbiological": 9279,
      "ĠAvro": 9280,
      "ergus": 9281,
      "ĠBasil": 9282,
      "ĠBurma": 9283,
      "Ġoccup": 9284,
      "Ġpapyrus": 9285,
      "Ġmanagement": 9286,
      "Ġadded": 9287,
      "ĠAcqu": 9288,
      "Ġprovid": 9289,
      "Ġprovide": 9290,
      "Ġdeterm": 9291,
      "ĠReligion": 9292,
      "Ġactivity": 9293,
      "Ġcoral": 9294,
      "Ġorigin": 9295,
      "Trichoxys": 9296,
      "ĠGraham": 9297,
      "ĠJoachim": 9298,
      "Ġremains": 9299,
      "inctus": 9300,
      "Ġidentif": 9301,
      "Ġlinear": 9302,
      "board": 9303,
      "ĠIntelligence": 9304,
      "Ġchemsaki": 9305,
      "khine": 9306,
      "ĠMetro": 9307,
      "ĠSavas": 9308,
      "Exalphus": 9309,
      "Ġvariety": 9310,
      "ĠAlekhine": 9311,
      "Ġimpression": 9312,
      "ĠEthics": 9313,
      "Nyssodrysina": 9314,
      "ĠPerspectives": 9315,
      "California": 9316,
      "Engyum": 9317,
      "ĠImpact": 9318,
      "Ġglobal": 9319,
      "Original": 9320,
      "Ã§ois": 9321,
      "ĠLeonard": 9322,
      "April": 9323,
      "France": 9324,
      "Manchester": 9325,
      "Ġbelong": 9326,
      "ĠDenis": 9327,
      "ĠNikol": 9328,
      "Ġdesignation": 9329,
      "rophys": 9330,
      "Ġepisode": 9331,
      "ĠMosso": 9332,
      "ĠBorghetto": 9333,
      "Ġdomin": 9334,
      "ĠKenya": 9335,
      "zhong": 9336,
      "Artelida": 9337,
      "Ġobserved": 9338,
      "eschichte": 9339,
      "ĠAhmed": 9340,
      "Ġrelease": 9341,
      "iÃ¨re": 9342,
      "ĠSibley": 9343,
      "Ploca": 9344,
      "ĠAeronautical": 9345,
      "ĠGabriel": 9346,
      "ĠCambaridae": 9347,
      "Ischasia": 9348,
      "Ġlimited": 9349,
      "ĠTwentieth": 9350,
      "ĠOrganization": 9351,
      "Ġmagazine": 9352,
      "Ġconstruct": 9353,
      "Ġcastane": 9354,
      "Ġcatalog": 9355,
      "ĠRafael": 9356,
      "ĠBusiness": 9357,
      "Ġproblem": 9358,
      "ĠJewish": 9359,
      "Ġconducted": 9360,
      "oracibidion": 9361,
      "iáº¿ng": 9362,
      "ĠEntertainment": 9363,
      "ĠPetersburg": 9364,
      "ĠHollywood": 9365,
      "Fallbrook": 9366,
      "Ġcorner": 9367,
      "Ġcivilizations": 9368,
      "ĠPascal": 9369,
      "ĠEncyclopÃ¦dia": 9370,
      "ĠGesellschaft": 9371,
      "ĠIbrahim": 9372,
      "Kyoto": 9373,
      "Soviet": 9374,
      "ocratic": 9375,
      "Ġconscientiousness": 9376,
      "Ġconsonants": 9377,
      "ĠJenkins": 9378,
      "attleya": 9379,
      "WÃ¼rttem": 9380,
      "ĠÃ¼ber": 9381,
      "ĠSicilia": 9382,
      "ĠHÃ¼bner": 9383,
      "iacomo": 9384,
      "Tropidozineus": 9385,
      "Ġterrestrial": 9386,
      "Lophopoeum": 9387,
      "ĠIskandar": 9388,
      "Ġsomewhat": 9389,
      "Reptilia": 9390,
      "Ġhovorei": 9391,
      "Ġptychonomous": 9392,
      "Phymatodes": 9393,
      "Plocaederus": 9394,
      "WÃ¼rttemberg": 9395,
      ")\".": 9396,
      ".\".": 9397,
      "110": 9398,
      "216": 9399,
      "470": 9400,
      "631": 9401,
      "AP": 9402,
      "Born": 9403,
      "BÅĻez": 9404,
      "CT": 9405,
      "Cross": 9406,
      "Document": 9407,
      "Far": 9408,
      "GC": 9409,
      "Gly": 9410,
      "Hein": 9411,
      "Histor": 9412,
      "Kl": 9413,
      "Ko": 9414,
      "King": 9415,
      "LA": 9416,
      "Lu": 9417,
      "Lob": 9418,
      "Me": 9419,
      "Mor": 9420,
      "Mos": 9421,
      "Meph": 9422,
      "MIT": 9423,
      "Oopsis": 9424,
      "Pat": 9425,
      "Person": 9426,
      "Routledge": 9427,
      "Su": 9428,
      "Sec": 9429,
      "Scaph": 9430,
      "TE": 9431,
      "Te": 9432,
      "Taylor": 9433,
      "Ven": 9434,
      "Video": 9435,
      "Wing": 9436,
      "Water": 9437,
      "bre": 9438,
      "bourn": 9439,
      "bek": 9440,
      "cro": 9441,
      "color": 9442,
      "ection": 9443,
      "fran": 9444,
      "fact": 9445,
      "ipe": 9446,
      "more": 9447,
      "mitt": 9448,
      "rast": 9449,
      "rica": 9450,
      "tford": 9451,
      "tax": 9452,
      "uw": 9453,
      "vel": 9454,
      "wich": 9455,
      "wise": 9456,
      "waffe": 9457,
      "zy": 9458,
      "zzano": 9459,
      "Ä±": 9460,
      "åħ": 9461,
      "æĸ": 9462,
      "ï¼": 9463,
      "Ġong": 9464,
      "ĠÃ´ng": 9465,
      "onisi": 9466,
      "anum": 9467,
      "anne": 9468,
      "edom": 9469,
      "esp": 9470,
      "esian": 9471,
      "ener": 9472,
      "enan": 9473,
      "enia": 9474,
      "ĠtÃ´": 9475,
      "Ġtanks": 9476,
      "Ġtubercul": 9477,
      "ativity": 9478,
      "ĠSz": 9479,
      "ĠSed": 9480,
      "ĠSug": 9481,
      "ĠSens": 9482,
      "ĠSold": 9483,
      "ĠShel": 9484,
      "ĠSpect": 9485,
      "ĠSources": 9486,
      "Ġcant": 9487,
      "Ġculture": 9488,
      "Ġcyan": 9489,
      "Ġcultural": 9490,
      "ĠlÆ°á»Ľi": 9491,
      "ĠCE": 9492,
      "ĠCu": 9493,
      "ĠCiv": 9494,
      "ĠCow": 9495,
      "ĠCave": 9496,
      "206": 9497,
      "arov": 9498,
      "arily": 9499,
      "orch": 9500,
      "ĠRing": 9501,
      "ĠRum": 9502,
      "ĠRip": 9503,
      "ĠRey": 9504,
      "ĠRica": 9505,
      "alax": 9506,
      "alities": 9507,
      "ĠTome": 9508,
      "ĠLas": 9509,
      "ĠLif": 9510,
      "ĠLund": 9511,
      "ĠLakes": 9512,
      "ĠLloyd": 9513,
      "ĠLectures": 9514,
[...]
