{
  "version": "1.0",
  "truncation": null,
  "padding": null,
  "added_tokens": [
    {
      "id": 0,
      "content": "[UNK]",
      "single_word": false,
      "lstrip": false,
      "rstrip": false,
      "normalized": false,
      "special": true
    },
    {
      "id": 1,
      "content": "[PAD]",
      "single_word": false,
      "lstrip": false,
      "rstrip": false,
      "normalized": false,
      "special": true
    },
    {
      "id": 2,
      "content": "[EOS]",
      "single_word": false,
      "lstrip": false,
      "rstrip": false,
      "normalized": false,
      "special": true
    },
    {
      "id": 3,
      "content": "[SOS]",
      "single_word": false,
      "lstrip": false,
      "rstrip": false,
      "normalized": false,
      "special": true
    },
    {
      "id": 4,
      "content": "[MASK]",
      "single_word": false,
      "lstrip": false,
      "rstrip": false,
      "normalized": false,
      "special": true
    },
    {
      "id": 5,
      "content": "[CLS]",
      "single_word": false,
      "lstrip": false,
      "rstrip": false,
      "normalized": false,
      "special": true
    }
  ],
  "normalizer": null,
  "pre_tokenizer": {
    "type": "ByteLevel",
    "add_prefix_space": false,
    "trim_offsets": true,
    "use_regex": true
  },
  "post_processor": {
    "type": "ByteLevel",
    "add_prefix_space": true,
    "trim_offsets": false,
    "use_regex": true
  },
  "decoder": {
    "type": "ByteLevel",
    "add_prefix_space": true,
    "trim_offsets": true,
    "use_regex": true
  },
  "model": {
    "type": "BPE",
    "dropout": null,
    "unk_token": null,
    "continuing_subword_prefix": null,
    "end_of_word_suffix": null,
    "fuse_unk": false,
    "byte_fallback": false,
    "ignore_merges": false,
    "vocab": {
      "[UNK]": 0,
      "[PAD]": 1,
      "[EOS]": 2,
      "[SOS]": 3,
      "[MASK]": 4,
      "[CLS]": 5,
      "!": 6,
      "\"": 7,
      "#": 8,
      "$": 9,
      "%": 10,
      "&": 11,
      "'": 12,
      "(": 13,
      ")": 14,
      "*": 15,
      "+": 16,
      ",": 17,
      "-": 18,
      ".": 19,
      "/": 20,
      "0": 21,
      "1": 22,
      "2": 23,
      "3": 24,
      "4": 25,
      "5": 26,
      "6": 27,
      "7": 28,
      "8": 29,
      "9": 30,
      ":": 31,
      ";": 32,
      "<": 33,
      "=": 34,
      ">": 35,
      "?": 36,
      "@": 37,
      "A": 38,
      "B": 39,
      "C": 40,
      "D": 41,
      "E": 42,
      "F": 43,
      "G": 44,
      "H": 45,
      "I": 46,
      "J": 47,
      "K": 48,
      "L": 49,
      "M": 50,
      "N": 51,
      "O": 52,
      "P": 53,
      "Q": 54,
      "R": 55,
      "S": 56,
      "T": 57,
      "U": 58,
      "V": 59,
      "W": 60,
      "X": 61,
      "Y": 62,
      "Z": 63,
      "[": 64,
      "]": 65,
      "^": 66,
      "_": 67,
      "a": 68,
      "b": 69,
      "c": 70,
      "d": 71,
      "e": 72,
      "f": 73,
      "g": 74,
      "h": 75,
      "i": 76,
      "j": 77,
      "k": 78,
      "l": 79,
      "m": 80,
      "n": 81,
      "o": 82,
      "p": 83,
      "q": 84,
      "r": 85,
      "s": 86,
      "t": 87,
      "u": 88,
      "v": 89,
      "w": 90,
      "x": 91,
      "y": 92,
      "z": 93,
      "{": 94,
      "}": 95,
      "~": 96,
      "¡": 97,
      "¢": 98,
      "£": 99,
      "¤": 100,
      "¥": 101,
      "¦": 102,
      "§": 103,
      "¨": 104,
      "©": 105,
      "ª": 106,
      "«": 107,
      "¬": 108,
      "®": 109,
      "¯": 110,
      "°": 111,
      "±": 112,
      "²": 113,
      "³": 114,
      "´": 115,
      "µ": 116,
      "¶": 117,
      "·": 118,
      "¸": 119,
      "¹": 120,
      "º": 121,
      "»": 122,
      "¼": 123,
      "½": 124,
      "¾": 125,
      "¿": 126,
      "Â": 127,
      "Ã": 128,
      "Ä": 129,
      "Å": 130,
      "Æ": 131,
      "È": 132,
      "Ê": 133,
      "Î": 134,
      "Ï": 135,
      "Ð": 136,
      "Ñ": 137,
      "Ó": 138,
      "Ø": 139,
      "Ù": 140,
      "Û": 141,
      "á": 142,
      "â": 143,
      "ã": 144,
      "ä": 145,
      "å": 146,
      "æ": 147,
      "ç": 148,
      "è": 149,
      "é": 150,
      "ê": 151,
      "ë": 152,
      "ì": 153,
      "í": 154,
      "ï": 155,
      "Ġ": 156,
      "Ģ": 157,
      "ģ": 158,
      "Ĥ": 159,
      "ĥ": 160,
      "Ħ": 161,
      "ħ": 162,
      "Ĩ": 163,
      "ĩ": 164,
      "Ī": 165,
      "ī": 166,
      "Ĭ": 167,
      "ĭ": 168,
      "Į": 169,
      "į": 170,
      "İ": 171,
      "ı": 172,
      "Ĳ": 173,
      "ĳ": 174,
      "Ĵ": 175,
      "ĵ": 176,
      "Ķ": 177,
      "ķ": 178,
      "ĸ": 179,
      "Ĺ": 180,
      "ĺ": 181,
      "Ļ": 182,
      "ļ": 183,
      "Ľ": 184,
      "ľ": 185,
      "Ŀ": 186,
      "ŀ": 187,
      "Ł": 188,
      "ł": 189,
      "Ń": 190,
      "er": 191,
      "es": 192,
      "in": 193,
      "is": 194,
      "an": 195,
      "Ġo": 196,
      "ed": 197,
      "ci": 198,
      "en": 199,
      "Ġof": 200,
      "th": 201,
      "on": 202,
      "at": 203,
      "ĠS": 204,
      "am": 205,
      "Ġth": 206,
      "re": 207,
      "pe": 208,
      "Ġthe": 209,
      "ĠC": 210,
      "peci": 211,
      "pecies": 212,
      "20": 213,
      "or": 214,
      "al": 215,
      "ar": 216,
      "200": 217,
      "ĠR": 218,
      "ĠT": 219,
      "ĠL": 220,
      "Ġs": 221,
      "Ġf": 222,
      "il": 223,
      "ĠI": 224,
      "Ġa": 225,
      "le": 226,
      "Ġin": 227,
      "ic": 228,
      "Ġb": 229,
      "ist": 230,
      "ĠP": 231,
      "et": 232,
      "and": 233,
      "ĠTh": 234,
      "it": 235,
      "ĠM": 236,
      "da": 237,
      "us": 238,
      "2006": 239,
      "reat": 240,
      "Ġis": 241,
      "ĠSpecies": 242,
      "ened": 243,
      "19": 244,
      "ĠRed": 245,
      "UC": 246,
      "reatened": 247,
      "UCN": 248,
      "ĠList": 249,
      "ĠA": 250,
      "ĠIUCN": 251,
      "ĠThreatened": 252,
      "ol": 253,
      "Ġand": 254,
      "ion": 255,
      "ch": 256,
      "ro": 257,
      "amil": 258,
      "dae": 259,
      "ĠB": 260,
      "Ġspecies": 261,
      "as": 262,
      "el": 263,
      "amily": 264,
      "Ġbe": 265,
      "Ġfamily": 266,
      "amb": 267,
      "ĠCer": 268,
      "Ġbeet": 269,
      "cidae": 270,
      "amby": 271,
      "Ġbeetle": 272,
      "ambycidae": 273,
      "ĠCerambycidae": 274,
      "ing": 275,
      "Ġp": 276,
      "Ġd": 277,
      "Ġ19": 278,
      "ĠG": 279,
      "om": 280,
      "ur": 281,
      "ers": 282,
      "ĠH": 283,
      "ĠD": 284,
      "Ġt": 285,
      "ĠN": 286,
      "un": 287,
      "Ġc": 288,
      "id": 289,
      "Ġm": 290,
      "ra": 291,
      "Ġ(": 292,
      "ĠW": 293,
      "ĠF": 294,
      "iv": 295,
      "ent": 296,
      "ĠE": 297,
      "ĠJ": 298,
      "ia": 299,
      "os": 300,
      "Ġw": 301,
      "um": 302,
      "ation": 303,
      "res": 304,
      "ul": 305,
      "ct": 306,
      "he": 307,
      "ter": 308,
      "op": 309,
      "im": 310,
      "ig": 311,
      "Ġ200": 312,
      "la": 313,
      "ĠO": 314,
      "ut": 315,
      "ce": 316,
      "ĠU": 317,
      "lo": 318,
      "ĠK": 319,
      "em": 320,
      "Ġ1": 321,
      "ress": 322,
      "ad": 323,
      "ub": 324,
      "ĠV": 325,
      "Ġto": 326,
      "Ġ\"": 327,
      "The": 328,
      "Ġh": 329,
      "ew": 330,
      "ot": 331,
      "ri": 332,
      "ity": 333,
      "st": 334,
      "od": 335,
      "âĢ": 336,
      "==": 337,
      "ir": 338,
      "Ġn": 339,
      "ag": 340,
      "og": 341,
      "li": 342,
      "ĠPress": 343,
      "ph": 344,
      "Ġ-": 345,
      "ĠUn": 346,
      "ord": 347,
      "âĢĵ": 348,
      "ov": 349,
      "ivers": 350,
      ".,": 351,
      "ish": 352,
      "ĠSt": 353,
      "BN": 354,
      "SBN": 355,
      "Ġon": 356,
      "*\"": 357,
      "ac": 358,
      "av": 359,
      "ond": 360,
      ").": 361,
      "Ġg": 362,
      "Ġl": 363,
      "ĠIn": 364,
      "ĠY": 365,
      "Ġv": 366,
      "Ġ199": 367,
      "iversity": 368,
      "ian": 369,
      "ard": 370,
      "ran": 371,
      "ine": 372,
      "if": 373,
      "ies": 374,
      "ap": 375,
      "ev": 376,
      "199": 377,
      "ly": 378,
      "Ġby": 379,
      "ĠCh": 380,
      "ber": 381,
      "ith": 382,
      "ubl": 383,
      "ep": 384,
      "Ġre": 385,
      "art": 386,
      "Ġfor": 387,
      "ĠUniversity": 388,
      "ab": 389,
      "ow": 390,
      "ud": 391,
      "ich": 392,
      "ork": 393,
      "ant": 394,
      "est": 395,
      "qu": 396,
      "ex": 397,
      "ay": 398,
      "ge": 399,
      "ok": 400,
      "Ġfro": 401,
      "oc": 402,
      "ou": 403,
      "man": 404,
      "Ġde": 405,
      "ont": 406,
      "low": 407,
      "ondon": 408,
      "eg": 409,
      "und": 410,
      "all": 411,
      "ary": 412,
      "ast": 413,
      "2004": 414,
      "\",": 415,
      "ec": 416,
      "ĠYork": 417,
      "ory": 418,
      "io": 419,
      "Ġ0": 420,
      "ak": 421,
      "ell": 422,
      "ip": 423,
      "\".": 424,
      "ĠThe": 425,
      "ton": 426,
      "ical": 427,
      "ĠAn": 428,
      "ens": 429,
      "ĠPubl": 430,
      "ib": 431,
      "Ġst": 432,
      "ong": 433,
      "ne": 434,
      "ill": 435,
      "ry": 436,
      "ici": 437,
      "**": 438,
      "Ġed": 439,
      "era": 440,
      "Ġ2": 441,
      "ass": 442,
      "up": 443,
      "Ġwith": 444,
      "1998": 445,
      "ISBN": 446,
      "Ġas": 447,
      "Ġat": 448,
      "our": 449,
      "ore": 450,
      "Ã©": 451,
      "Ġ198": 452,
      "London": 453,
      "New": 454,
      "oh": 455,
      "Ġ&": 456,
      "ug": 457,
      "ain": 458,
      "son": 459,
      "ff": 460,
      "Ġ18": 461,
      "ust": 462,
      "Ġfrom": 463,
      "ie": 464,
      "ations": 465,
      "ata": 466,
      "ts": 467,
      "ook": 468,
      "ang": 469,
      "ĠISBN": 470,
      "ĠAr": 471,
      "Ġ2004": 472,
      "ae": 473,
      "omp": 474,
      "tern": 475,
      "ĠAl": 476,
      "Ġal": 477,
      "ica": 478,
      "olog": 479,
      "end": 480,
      "ate": 481,
      "ob": 482,
      "Ġ3": 483,
      "ment": 484,
      "'s": 485,
      "ive": 486,
      "ice": 487,
      "eb": 488,
      "ess": 489,
      "mer": 490,
      "idae": 491,
      "ĠMar": 492,
      "ach": 493,
      "ern": 494,
      "Ġan": 495,
      "ort": 496,
      "ĠOr": 497,
      "Ġ197": 498,
      "ys": 499,
      "ction": 500,
      "ition": 501,
      "ost": 502,
      "ĠPublish": 503,
      "ear": 504,
      "yl": 505,
      "ĠRo": 506,
      "ict": 507,
      "Ġfol": 508,
      "land": 509,
      "Ġpp": 510,
      "Ġare": 511,
      "ities": 512,
      "uc": 513,
      "ons": 514,
      "pt": 515,
      "ure": 516,
      "ina": 517,
      "10": 518,
      "ford": 519,
      "igh": 520,
      "pal": 521,
      "),": 522,
      "ld": 523,
      "ĠNew": 524,
      "orn": 525,
      "fer": 526,
      "ence": 527,
      "In": 528,
      "ohn": 529,
      "ey": 530,
      "ru": 531,
      "Ġpro": 532,
      "ano": 533,
      "oci": 534,
      "ated": 535,
      "istory": 536,
      "Ġwh": 537,
      "ign": 538,
      "Ġor": 539,
      "orm": 540,
      "unici": 541,
      "unicipal": 542,
      "Ġfollow": 543,
      "ida": 544,
      "Ġbord": 545,
      "Ġmunicipal": 546,
      "St": 547,
      "ins": 548,
      "per": 549,
      "Ġ9": 550,
      "ĠZ": 551,
      "to": 552,
      "ide": 553,
      "ĠEd": 554,
      "iz": 555,
      "les": 556,
      "Ġfollowing": 557,
      "ere": 558,
      "It": 559,
      "ik": 560,
      "enn": 561,
      "ĠWil": 562,
      "ath": 563,
      "oll": 564,
      "rit": 565,
      "rin": 566,
      "Ġmunicipalities": 567,
      "ces": 568,
      "se": 569,
      "Ġe": 570,
      "rans": 571,
      "Ġle": 572,
      "Ġborders": 573,
      "ks": 574,
      "ite": 575,
      ")*": 576,
      "ational": 577,
      "te": 578,
      "ley": 579,
      "18": 580,
      "use": 581,
      "Ġch": 582,
      "raph": 583,
      "Ch": 584,
      "co": 585,
      "rop": 586,
      "ooks": 587,
      "Ġex": 588,
      ".\"": 589,
      "ron": 590,
      "ai": 591,
      "ĠSch": 592,
      "An": 593,
      "78": 594,
      "orld": 595,
      "ace": 596,
      "Ġr": 597,
      "ĠSan": 598,
      "olum": 599,
      "ics": 600,
      "oph": 601,
      "Ġ196": 602,
      "Ġwas": 603,
      "omm": 604,
      "ĠOrch": 605,
      "Ġit": 606,
      "ograph": 607,
      "ana": 608,
      "ese": 609,
      "ĠPublishing": 610,
      "au": 611,
      "yn": 612,
      "ÃŃ": 613,
      "00": 614,
      "ĠLe": 615,
      "ĠEn": 616,
      "12": 617,
      "ah": 618,
      "ited": 619,
      "ĠRe": 620,
      "cl": 621,
      "atus": 622,
      "tt": 623,
      "aw": 624,
      "ĠSh": 625,
      "ther": 626,
      "ier": 627,
      "rib": 628,
      "ĠBooks": 629,
      "ĠJohn": 630,
      "xford": 631,
      "age": 632,
      "ĠHistory": 633,
      "13": 634,
      "ater": 635,
      "Ġthat": 636,
      "ric": 637,
      "ann": 638,
      "Ã¡": 639,
      "ames": 640,
      "ss": 641,
      "ĠInd": 642,
      "Ġ4": 643,
      "ans": 644,
      "lin": 645,
      "ial": 646,
      "ĠPro": 647,
      "ack": 648,
      "iss": 649,
      "amp": 650,
      "az": 651,
      "ke": 652,
      "ult": 653,
      "ire": 654,
      "any": 655,
      "ound": 656,
      "one": 657,
      "ung": 658,
      "ind": 659,
      "ĠGu": 660,
      "ural": 661,
      "ĠFran": 662,
      "Ġfrog": 663,
      "own": 664,
      "ology": 665,
      "row": 666,
      "2005": 667,
      "ĠNo": 668,
      "bert": 669,
      "11": 670,
      "ĠWar": 671,
      "ward": 672,
      "eng": 673,
      "ara": 674,
      "orth": 675,
      "Th": 676,
      "pp": 677,
      "ius": 678,
      "iel": 679,
      "ĠPh": 680,
      "itt": 681,
      "Ġ2007": 682,
      "red": 683,
      "ral": 684,
      "ates": 685,
      "uss": 686,
      "ald": 687,
      "ree": 688,
      "ver": 689,
      "):": 690,
      "15": 691,
      "berg": 692,
      "ark": 693,
      "ck": 694,
      "oth": 695,
      "ĠPa": 696,
      "ĠDav": 697,
      "Ġ5": 698,
      "ome": 699,
      "Ġk": 700,
      "ale": 701,
      "ail": 702,
      "Ġ20": 703,
      "Ġdes": 704,
      "ino": 705,
      "ution": 706,
      "rid": 707,
      "ications": 708,
      "ight": 709,
      "ĠCar": 710,
      "ase": 711,
      "===": 712,
      "ca": 713,
      "olle": 714,
      "ĠSoci": 715,
      "ĠWorld": 716,
      "aris": 717,
      "unt": 718,
      "ue": 719,
      "erv": 720,
      "ĠCon": 721,
      "att": 722,
      "ax": 723,
      "Ġgen": 724,
      "ole": 725,
      "ash": 726,
      "Ġ2005": 727,
      "ood": 728,
      "ĠCal": 729,
      "gh": 730,
      "ame": 731,
      "ings": 732,
      "Ph": 733,
      "Ġsh": 734,
      "ner": 735,
      "als": 736,
      "Ġdi": 737,
      "14": 738,
      "Ã¼": 739,
      "bur": 740,
      "outh": 741,
      "ick": 742,
      "ĠBer": 743,
      "Ġ2003": 744,
      "ect": 745,
      "och": 746,
      "ĠBar": 747,
      "198": 748,
      "Ġla": 749,
      "ĠGe": 750,
      "are": 751,
      "out": 752,
      "ile": 753,
      "ren": 754,
      "ors": 755,
      "ĠAmer": 756,
      "Ã¶": 757,
      "Ġ978": 758,
      ".)": 759,
      "ept": 760,
      "af": 761,
      "ĠSp": 762,
      "ĠComp": 763,
      "eter": 764,
      "ĠDavid": 765,
      "org": 766,
      "ave": 767,
      "sh": 768,
      "ris": 769,
      "alt": 770,
      "Ġcon": 771,
      "liam": 772,
      "uro": 773,
      "bra": 774,
      "ki": 775,
      "ican": 776,
      "ety": 777,
      "ert": 778,
      "yst": 779,
      "Ġet": 780,
      "Ġhas": 781,
      "Gen": 782,
      "ĠPit": 783,
      "Ed": 784,
      "Ġab": 785,
      "form": 786,
      "ech": 787,
      "rist": 788,
      "ram": 789,
      "of": 790,
      "ous": 791,
      "ym": 792,
      "olume": 793,
      "eth": 794,
      "ein": 795,
      "Ġnot": 796,
      "ĠNat": 797,
      "17": 798,
      "du": 799,
      "ium": 800,
      "Ġcomp": 801,
      "cy": 802,
      "ĠâĢĵ": 803,
      "erm": 804,
      "erman": 805,
      "ĠDe": 806,
      "ops": 807,
      "ensis": 808,
      "ĠPitman": 809,
      "50": 810,
      "Ġy": 811,
      "Ġund": 812,
      "illa": 813,
      "Ġres": 814,
      "omb": 815,
      "act": 816,
      "td": 817,
      "ĠQ": 818,
      "arum": 819,
      "ugh": 820,
      "earch": 821,
      "old": 822,
      "Ġse": 823,
      "idace": 824,
      "ĠWilliam": 825,
      "rat": 826,
      "uch": 827,
      "vi": 828,
      "eral": 829,
      "ĠLtd": 830,
      "ĠHar": 831,
      "ĠCent": 832,
      "onom": 833,
      "ane": 834,
      "Ġsp": 835,
      "==*": 836,
      "ransl": 837,
      "rom": 838,
      "16": 839,
      "line": 840,
      "Ġ6": 841,
      "Ġad": 842,
      "its": 843,
      "ola": 844,
      "ĠIs": 845,
      "52": 846,
      "ides": 847,
      "Genera": 848,
      "ĠPublications": 849,
      "ography": 850,
      "ĠOrchidace": 851,
      "ĠPaul": 852,
      "ĠSociety": 853,
      "lor": 854,
      "ington": 855,
      "Ġdel": 856,
      "Ġcont": 857,
      "ka": 858,
      "reen": 859,
      "rey": 860,
      "ĠOrchidacearum": 861,
      "Ġ2002": 862,
      "so": 863,
      "idion": 864,
      "Ġ2006": 865,
      "Ġun": 866,
      "ences": 867,
      "ona": 868,
      "ĠSci": 869,
      "Ġ.": 870,
      "Ġder": 871,
      "lag": 872,
      "Ġar": 873,
      "ime": 874,
      "ual": 875,
      "Ġph": 876,
      "ose": 877,
      "over": 878,
      "ĠMon": 879,
      "ĠCo": 880,
      "com": 881,
      "de": 882,
      "ett": 883,
      "stit": 884,
      "01": 885,
      "gl": 886,
      "entif": 887,
      "clud": 888,
      "Un": 889,
      "usic": 890,
      "iction": 891,
      "33": 892,
      "ĠCast": 893,
      "ago": 894,
      "isc": 895,
      "irst": 896,
      "ini": 897,
      "ĠUK": 898,
      "ybra": 899,
      "inal": 900,
      "ĠSe": 901,
      "ication": 902,
      "Ġ194": 903,
      "wo": 904,
      "Ġlin": 905,
      "ll": 906,
      "ĠCl": 907,
      "ĠAs": 908,
      "Ġ2001": 909,
      "ridge": 910,
      "inn": 911,
      "tera": 912,
      "ages": 913,
      "rint": 914,
      "22": 915,
      "we": 916,
      "ĠLondon": 917,
      "ance": 918,
      "ww": 919,
      "ĠMich": 920,
      "ros": 921,
      "ular": 922,
      "Ġ2008": 923,
      "ished": 924,
      "iforn": 925,
      "ough": 926,
      "ĠRobert": 927,
      "ten": 928,
      "Ġim": 929,
      "der": 930,
      "ĠBr": 931,
      "Press": 932,
      "ifornia": 933,
      "ael": 934,
      "ĠII": 935,
      "cc": 936,
      "port": 937,
      "erson": 938,
      "30": 939,
      "Ġpubl": 940,
      "sp": 941,
      "ella": 942,
      "Ġmine": 943,
      "ĠOxford": 944,
      "Ġhave": 945,
      "Ġedition": 946,
      "ism": 947,
      "ĠEx": 948,
      "oss": 949,
      "54": 950,
      "sch": 951,
      "ĠAd": 952,
      "able": 953,
      "32": 954,
      "ĠMc": 955,
      "ade": 956,
      "Ġ1998": 957,
      "Ġ8": 958,
      "ute": 959,
      "ene": 960,
      "ĠRes": 961,
      "70": 962,
      "que": 963,
      "ĠAnd": 964,
      "lan": 965,
      "ersion": 966,
      "Oxford": 967,
      "fe": 968,
      "Ġro": 969,
      "ĠSc": 970,
      "ĠAm": 971,
      "ĠInc": 972,
      "ĠCalifornia": 973,
      "ictionary": 974,
      "ve": 975,
      "Ġsub": 976,
      "Åį": 977,
      "\"*\"": 978,
      "iet": 979,
      "ty": 980,
      "ery": 981,
      "ya": 982,
      "ĠSer": 983,
      "ĠGerman": 984,
      "ents": 985,
      "79": 986,
      "gen": 987,
      "Ġcomm": 988,
      "led": 989,
      "Ġli": 990,
      "ĠPol": 991,
      "ĠBi": 992,
      "ĠNational": 993,
      "osa": 994,
      "Ġtheir": 995,
      "rys": 996,
      "zz": 997,
      "Ġhis": 998,
      "Ġits": 999,
      "formation": 1000,
      "ars": 1001,
      "let": 1002,
      "ĠPap": 1003,
      "Sybra": 1004,
      "Ġus": 1005,
      "ott": 1006,
      "Ġwhich": 1007,
      "ĠAmerican": 1008,
      "aj": 1009,
      "ystem": 1010,
      "59": 1011,
      "ler": 1012,
      "terf": 1013,
      "Ġlo": 1014,
      "Ġbut": 1015,
      "olution": 1016,
      "Ġcons": 1017,
      "60": 1018,
      "ones": 1019,
      "Ġvol": 1020,
      ".;": 1021,
      "39": 1022,
      "rus": 1023,
      "istor": 1024,
      "useum": 1025,
      "80": 1026,
      "cri": 1027,
      "ras": 1028,
      "ĠMart": 1029,
      "Ġlinks": 1030,
      "74": 1031,
      "atal": 1032,
      "Ġthis": 1033,
      "oul": 1034,
      "uk": 1035,
      "Ġfound": 1036,
      "ĠNorth": 1037,
      "Ġ2000": 1038,
      "Ã¨": 1039,
      "ĠGro": 1040,
      "ĠOrchid": 1041,
      "34": 1042,
      "ix": 1043,
      "Ġup": 1044,
      "ico": 1045,
      "iver": 1046,
      "apan": 1047,
      "oe": 1048,
      "Ġqu": 1049,
      "amm": 1050,
      "ely": 1051,
      "lay": 1052,
      "Ġ1999": 1053,
      "Å¡": 1054,
      "ena": 1055,
      "Ġdist": 1056,
      "Ġno": 1057,
      "ĠInstit": 1058,
      "evel": 1059,
      "Ã³": 1060,
      "ari": 1061,
      "ĠMont": 1062,
      "Ġpart": 1063,
      "ird": 1064,
      "ternal": 1065,
      "**\"": 1066,
      "24": 1067,
      "ox": 1068,
      "orf": 1069,
      "els": 1070,
      "ĠQu": 1071,
      "nam": 1072,
      "lect": 1073,
      "ĠMac": 1074,
      "Par": 1075,
      "ourn": 1076,
      "29": 1077,
      "oy": 1078,
      "ĠSouth": 1079,
      "une": 1080,
      "ĠCan": 1081,
      "olo": 1082,
      "Ex": 1083,
      "lat": 1084,
      "isch": 1085,
      "ĠComm": 1086,
      "ternational": 1087,
      "58": 1088,
      "ms": 1089,
      "ÅĻ": 1090,
      "ĠGen": 1091,
      "rad": 1092,
      "Ġalso": 1093,
      "ĠNatural": 1094,
      "Ġflow": 1095,
      "ĠMil": 1096,
      "ĠAir": 1097,
      "optera": 1098,
      "69": 1099,
      "ĠX": 1100,
      "Ġev": 1101,
      "ĠRich": 1102,
      "ĠAust": 1103,
      "ĠNames": 1104,
      "ĠVal": 1105,
      "ological": 1106,
      "oin": 1107,
      "Ġj": 1108,
      "ĠEl": 1109,
      "ĠStud": 1110,
      "ges": 1111,
      "eri": 1112,
      "Ġ1996": 1113,
      "cript": 1114,
      "ky": 1115,
      "iano": 1116,
      "ysis": 1117,
      "erb": 1118,
      "omas": 1119,
      "ĠPublishers": 1120,
      "//": 1121,
      "56": 1122,
      "Ġinclud": 1123,
      "ĠFor": 1124,
      "57": 1125,
      "ft": 1126,
      "Ġrec": 1127,
      "cel": 1128,
      "cad": 1129,
      "fter": 1130,
      "lant": 1131,
      "ĠMuseum": 1132,
      "ĠBrit": 1133,
      "wards": 1134,
      "://": 1135,
      "ĠLa": 1136,
      "ĠMan": 1137,
      "ennis": 1138,
      "ttp": 1139,
      "ĠCompany": 1140,
      "duction": 1141,
      "rich": 1142,
      "ĠPeter": 1143,
      "ions": 1144,
      "Ġ1997": 1145,
      "ext": 1146,
      "na": 1147,
      "yd": 1148,
      "Ġz": 1149,
      "evelop": 1150,
      "rand": 1151,
      "2003": 1152,
      "ĠHe": 1153,
      "lav": 1154,
      "Ar": 1155,
      "rim": 1156,
      "ĠSm": 1157,
      "ollis": 1158,
      "Lept": 1159,
      "tal": 1160,
      "Äį": 1161,
      "lex": 1162,
      "lies": 1163,
      "yp": 1164,
      "ĠLib": 1165,
      "Ġcl": 1166,
      "Al": 1167,
      "omet": 1168,
      "ĠWal": 1169,
      "Ġlong": 1170,
      "ipp": 1171,
      "Dictionary": 1172,
      "ma": 1173,
      "Ġam": 1174,
      "ures": 1175,
      "ract": 1176,
      "lidae": 1177,
      "rew": 1178,
      "eld": 1179,
      "Ġ1995": 1180,
      "Re": 1181,
      "ild": 1182,
      "Ġag": 1183,
      "ĠVol": 1184,
      "rass": 1185,
      "ĠRom": 1186,
      "ife": 1187,
      "ashington": 1188,
      "On": 1189,
      "bia": 1190,
      "Ã¤": 1191,
      "ĠAb": 1192,
      "ĠBut": 1193,
      "ĠEm": 1194,
      "ull": 1195,
      "opus": 1196,
      "ĠChar": 1197,
      "ko": 1198,
      "ĠSal": 1199,
      "ĠNe": 1200,
      "ownlo": 1201,
      "view": 1202,
      "ony": 1203,
      "ĠUnited": 1204,
      "23": 1205,
      "rary": 1206,
      "Ġ7": 1207,
      "ĠTor": 1208,
      "Ġ10": 1209,
      "ĠChrist": 1210,
      "rown": 1211,
      "Ber": 1212,
      "ĠGreen": 1213,
      "aph": 1214,
      "por": 1215,
      "ylo": 1216,
      "itz": 1217,
      "ĠJames": 1218,
      "iffer": 1219,
      "ylus": 1220,
      "Ġabout": 1221,
      "ournal": 1222,
      "26": 1223,
      "En": 1224,
      "bor": 1225,
      "ien": 1226,
      "ĠCol": 1227,
      "ĠColle": 1228,
      "Ġsc": 1229,
      "ield": 1230,
      "opsis": 1231,
      "ownload": 1232,
      "wn": 1233,
      "icago": 1234,
      "ĠBe": 1235,
      "ĠHo": 1236,
      "Ġ1994": 1237,
      "ĠIndia": 1238,
      "Ġpublished": 1239,
      "lept": 1240,
      "amed": 1241,
      "ret": 1242,
      "ĠPar": 1243,
      "ĠJul": 1244,
      "ledge": 1245,
      "ean": 1246,
      "ount": 1247,
      "uel": 1248,
      "onald": 1249,
      "ambridge": 1250,
      "Ġweb": 1251,
      "ĠVer": 1252,
      "seud": 1253,
      "ĠPhil": 1254,
      "tro": 1255,
      "ĠSant": 1256,
      "ĠTim": 1257,
      "196": 1258,
      "Le": 1259,
      "ject": 1260,
      "ua": 1261,
      "edia": 1262,
      "eder": 1263,
      "ality": 1264,
      "icle": 1265,
      "ura": 1266,
      "rag": 1267,
      "ake": 1268,
      "Car": 1269,
      "ĠRep": 1270,
      "ĠMal": 1271,
      "Ġtrans": 1272,
      "ĠRichard": 1273,
      "48": 1274,
      "Am": 1275,
      "nd": 1276,
      "Ġhe": 1277,
      "Ġlow": 1278,
      "ĠGi": 1279,
      "lack": 1280,
      "ĠUS": 1281,
      "They": 1282,
      "Ġnew": 1283,
      "ock": 1284,
      "kins": 1285,
      "ring": 1286,
      "ise": 1287,
      "ĠAss": 1288,
      "Ad": 1289,
      "ĠMin": 1290,
      "ello": 1291,
      "idoptera": 1292,
      "ĠEv": 1293,
      "ĠOn": 1294,
      "Ġ16": 1295,
      "ĠAustral": 1296,
      "ea": 1297,
      "Ġeds": 1298,
      "ĠArch": 1299,
      "ownloaded": 1300,
      "bach": 1301,
      "Ġafter": 1302,
      "ĠMusic": 1303,
      "Ġtwo": 1304,
      "ays": 1305,
      "inae": 1306,
      "atum": 1307,
      "ists": 1308,
      "rach": 1309,
      "ĠOp": 1310,
      "38": 1311,
      "Downloaded": 1312,
      "ii": 1313,
      "arg": 1314,
      "2002": 1315,
      "ĠThomas": 1316,
      "rough": 1317,
      "Ġreg": 1318,
      "***": 1319,
      "36": 1320,
      "40": 1321,
      "Ġother": 1322,
      "ala": 1323,
      "Ġbas": 1324,
      "Ġbeen": 1325,
      "Ġwere": 1326,
      "Ġind": 1327,
      "ĠPer": 1328,
      "ray": 1329,
      "Ġ2009": 1330,
      "37": 1331,
      "rev": 1332,
      "ocera": 1333,
      "by": 1334,
      "Ġen": 1335,
      "ĠHol": 1336,
      "ranslated": 1337,
      "25": 1338,
      "28": 1339,
      "ham": 1340,
      "za": 1341,
      "Ġob": 1342,
      "ales": 1343,
      "2001": 1344,
      "ember": 1345,
      "ĠStates": 1346,
      "ference": 1347,
      "ĠMichael": 1348,
      "atic": 1349,
      "mann": 1350,
      "aci": 1351,
      "uring": 1352,
      "ental": 1353,
      "Ġ1993": 1354,
      "ugust": 1355,
      "angu": 1356,
      "air": 1357,
      "Ġ190": 1358,
      "ĠHer": 1359,
      "iana": 1360,
      "urope": 1361,
      "Rop": 1362,
      "fl": 1363,
      "site": 1364,
      "Ġall": 1365,
      "ink": 1366,
      "reg": 1367,
      "Ġgro": 1368,
      "ĠInternational": 1369,
      "terflies": 1370,
      "76": 1371,
      "Paris": 1372,
      "ative": 1373,
      "ĠHen": 1374,
      "Ġ:": 1375,
      "ille": 1376,
      "Ġdo": 1377,
      "gy": 1378,
      "ze": 1379,
      "ĠCatal": 1380,
      "ĠLep": 1381,
      "Ġsur": 1382,
      "Ġcan": 1383,
      "yll": 1384,
      "Ġmin": 1385,
      "Ġwork": 1386,
      "ula": 1387,
      "ho": 1388,
      "anth": 1389,
      "umb": 1390,
      "ement": 1391,
      "burg": 1392,
      "ĠLibrary": 1393,
      "John": 1394,
      "fic": 1395,
      "ool": 1396,
      "van": 1397,
      "Ġra": 1398,
      "Ġart": 1399,
      "2000": 1400,
      "ĠReg": 1401,
      "II": 1402,
      "ĠRout": 1403,
      "Ġgenus": 1404,
      "rench": 1405,
      "cadem": 1406,
      "ied": 1407,
      "ĠÃ": 1408,
      "Ġci": 1409,
      "aro": 1410,
      "ĠRh": 1411,
      "ĠRuss": 1412,
      "ĠAf": 1413,
      "agn": 1414,
      "ĠButterflies": 1415,
      "rem": 1416,
      "ĠTex": 1417,
      "Ġfirst": 1418,
      "ĠIm": 1419,
      "Ġinto": 1420,
      "Ġbet": 1421,
      "oma": 1422,
      "Ġtra": 1423,
      "ives": 1424,
      "Ropica": 1425,
      "Volume": 1426,
      "esc": 1427,
      "ĠSw": 1428,
      "ĠPark": 1429,
      "Ġmod": 1430,
      "econd": 1431,
      "External": 1432,
      "evelopment": 1433,
      "inese": 1434,
      "ĠAugust": 1435,
      "Ġ189": 1436,
      "Ġ2010": 1437,
      "ĠRev": 1438,
      "ĠPal": 1439,
      "utt": 1440,
      "ota": 1441,
      "lands": 1442,
      "face": 1443,
      "Äĩ": 1444,
      "ÄĽ": 1445,
      "ĠCas": 1446,
      "arm": 1447,
      "ĠLu": 1448,
      "ĠPat": 1449,
      "dact": 1450,
      "ĠWe": 1451,
      "ĠJapan": 1452,
      "Ġstud": 1453,
      "ophor": 1454,
      "Se": 1455,
      "raz": 1456,
      "ĠEc": 1457,
      "lad": 1458,
      "Ġ1992": 1459,
      "Ġform": 1460,
      "49": 1461,
      "88": 1462,
      "orge": 1463,
      "rab": 1464,
      "ferences": 1465,
      "This": 1466,
      "ĠResearch": 1467,
      "ĠInstitute": 1468,
      "ĠRoutledge": 1469,
      "eh": 1470,
      "rig": 1471,
      "ero": 1472,
      "ĠCor": 1473,
      "Ġac": 1474,
      "ĠAg": 1475,
      "eck": 1476,
      "ious": 1477,
      "***\"": 1478,
      "ĠVolume": 1479,
      "pha": 1480,
      "echn": 1481,
      "31": 1482,
      "LC": 1483,
      "Ġdu": 1484,
      "ĠDi": 1485,
      "ĠNov": 1486,
      "ĠWest": 1487,
      "ween": 1488,
      "nown": 1489,
      "ĠMod": 1490,
      "ĠSmith": 1491,
      "iol": 1492,
      "2007": 1493,
      "Ġinter": 1494,
      "ĠBel": 1495,
      "acul": 1496,
      "epart": 1497,
      "ĠAng": 1498,
      "ĠArm": 1499,
      "27": 1500,
      "cis": 1501,
      "ls": 1502,
      "Ġ/": 1503,
      "ester": 1504,
      "ĠSte": 1505,
      "itions": 1506,
      "onomic": 1507,
      "ĠEar": 1508,
      "ipennis": 1509,
      "ney": 1510,
      "35": 1511,
      "Sp": 1512,
      "ele": 1513,
      "ama": 1514,
      "ĠHop": 1515,
      "aint": 1516,
      "ba": 1517,
      "Ġsign": 1518,
      "olor": 1519,
      "ury": 1520,
      "Ġmore": 1521,
      "89": 1522,
      "As": 1523,
      "elf": 1524,
      "Ġmost": 1525,
      "Ġrep": 1526,
      "icial": 1527,
      "ĠCharles": 1528,
      "rol": 1529,
      "ani": 1530,
      "Ġthrough": 1531,
      "Ġone": 1532,
      "olumbia": 1533,
      "University": 1534,
      "Ġbetween": 1535,
      "Ps": 1536,
      "Pro": 1537,
      "inc": 1538,
      "ĠSub": 1539,
      "ila": 1540,
      "icollis": 1541,
      "ĠNor": 1542,
      "Ġ1990": 1543,
      "ĠGermany": 1544,
      "celona": 1545,
      "Comp": 1546,
      "Pseud": 1547,
      "ha": 1548,
      "estern": 1549,
      "isa": 1550,
      "cia": 1551,
      "ĠPo": 1552,
      "ĠEr": 1553,
      "lace": 1554,
      "21": 1555,
      "CLC": 1556,
      "cess": 1557,
      "for": 1558,
      "len": 1559,
      "ised": 1560,
      "pect": 1561,
      "ĠRec": 1562,
      "ĠLife": 1563,
      "ĠPet": 1564,
      "Ġdisc": 1565,
      "raw": 1566,
      "âĢĶ": 1567,
      "epartment": 1568,
      "..": 1569,
      "vent": 1570,
      "Ġover": 1571,
      "ĠMor": 1572,
      "55": 1573,
      "ta": 1574,
      "erus": 1575,
      "ision": 1576,
      "ats": 1577,
      "Ġsim": 1578,
      "ander": 1579,
      "ĠMed": 1580,
      "ĠFish": 1581,
      "emb": 1582,
      "Ġalb": 1583,
      "46": 1584,
      "zo": 1585,
      "Ġsup": 1586,
      "Ġinformation": 1587,
      "ĠMe": 1588,
      "ument": 1589,
      "âĢĻ": 1590,
      "www": 1591,
      "ĠHopkins": 1592,
      "Ġda": 1593,
      "enth": 1594,
      "arn": 1595,
      "aria": 1596,
      "ĠDan": 1597,
      "ĠEurope": 1598,
      "ĠJan": 1599,
      "ĠChina": 1600,
      "Ġedited": 1601,
      "Ġass": 1602,
      "ĠRoy": 1603,
      "Ġexp": 1604,
      "eal": 1605,
      "ple": 1606,
      "ĠCamp": 1607,
      "ĠTr": 1608,
      "eton": 1609,
      "ita": 1610,
      "197": 1611,
      "Ġper": 1612,
      "ĠOff": 1613,
      "Ġleaf": 1614,
      "ĠMartin": 1615,
      "eries": 1616,
      "ĠCont": 1617,
      "Ġsm": 1618,
      "Ġapp": 1619,
      "Ġdiffer": 1620,
      "resent": 1621,
      "ources": 1622,
      "ĠIndian": 1623,
      "othy": 1624,
      "ĠTexas": 1625,
      "ape": 1626,
      "uth": 1627,
      "ĠCap": 1628,
      "arv": 1629,
      "ĠRad": 1630,
      "utnam": 1631,
      "Ġgo": 1632,
      "illan": 1633,
      "aceae": 1634,
      "ĠRoman": 1635,
      "47": 1636,
      "Ġend": 1637,
      "cid": 1638,
      "ali": 1639,
      "ĠGreat": 1640,
      "Ġher": 1641,
      "odera": 1642,
      "====": 1643,
      "Ġrel": 1644,
      "ribus": 1645,
      "Ġsome": 1646,
      "ĠPe": 1647,
      "Ġcent": 1648,
      "lio": 1649,
      "ĠAmerica": 1650,
      "Ġwebsite": 1651,
      "ij": 1652,
      "Ġop": 1653,
      "eds": 1654,
      "ilm": 1655,
      "Ġ17": 1656,
      "1996": 1657,
      "ĠFrank": 1658,
      "ĠBarcelona": 1659,
      "90": 1660,
      "Family": 1661,
      "gram": 1662,
      "well": 1663,
      "Ġpe": 1664,
      "ince": 1665,
      "ĠMur": 1666,
      "Ġperson": 1667,
      "Ġwe": 1668,
      "overn": 1669,
      "ĠJuly": 1670,
      "iÄĩ": 1671,
      "pl": 1672,
      "ĠSur": 1673,
      "ross": 1674,
      "ĠBur": 1675,
      "unya": 1676,
      "Ġ1991": 1677,
      "ctions": 1678,
      "Ġext": 1679,
      "anada": 1680,
      "razil": 1681,
      "iew": 1682,
      "zen": 1683,
      "2009": 1684,
      "icus": 1685,
      "ima": 1686,
      "Ġ1989": 1687,
      "ĠArt": 1688,
      "cycl": 1689,
      "glish": 1690,
      "Ġagain": 1691,
      "Ġlower": 1692,
      "itor": 1693,
      "ital": 1694,
      "ĠDel": 1695,
      "ider": 1696,
      "lob": 1697,
      "Ġnamed": 1698,
      "Ġrev": 1699,
      "Ġloc": 1700,
      "ĠCatalunya": 1701,
      "45": 1702,
      "Sh": 1703,
      "ique": 1704,
      "isp": 1705,
      "ĠFred": 1706,
      "ĠJose": 1707,
      "Ġhigh": 1708,
      "oto": 1709,
      "rie": 1710,
      "ods": 1711,
      "Ġnig": 1712,
      "uck": 1713,
      "ornis": 1714,
      "Ġwho": 1715,
      "ĠAssoci": 1716,
      "http": 1717,
      "ux": 1718,
      "yc": 1719,
      "yr": 1720,
      "ĠSqu": 1721,
      "ĠPr": 1722,
      "ets": 1723,
      "urt": 1724,
      "cted": 1725,
      "stein": 1726,
      "Ġ1980": 1727,
      "ould": 1728,
      "cul": 1729,
      "cient": 1730,
      "ĠCanada": 1731,
      "ilis": 1732,
      "Ġap": 1733,
      "rav": 1734,
      "ĠClass": 1735,
      "sprey": 1736,
      "aff": 1737,
      "br": 1738,
      "hip": 1739,
      "icles": 1740,
      "Ġcreat": 1741,
      "oston": 1742,
      "imore": 1743,
      "ĠKn": 1744,
      "Ġhistory": 1745,
      "ĠChicago": 1746,
      "abit": 1747,
      "Ġ30": 1748,
      "Ġ1979": 1749,
      "ĠGeorge": 1750,
      "84": 1751,
      "86": 1752,
      "den": 1753,
      "dorf": 1754,
      "ih": 1755,
      "ps": 1756,
      "icro": 1757,
      "iter": 1758,
      "astern": 1759,
      "unct": 1760,
      "ĠJack": 1761,
      "Ġvon": 1762,
      "Ġ1988": 1763,
      "51": 1764,
      "iro": 1765,
      "ois": 1766,
      "uan": 1767,
      "ĠSim": 1768,
      "rel": 1769,
      "Ġfe": 1770,
      "olon": 1771,
      "asci": 1772,
      "Ġmar": 1773,
      "osm": 1774,
      "rinc": 1775,
      "altimore": 1776,
      ".:": 1777,
      "La": 1778,
      "oda": 1779,
      "oni": 1780,
      "Ġsystem": 1781,
      "Ġplant": 1782,
      "Ġname": 1783,
      "ĠState": 1784,
      "sect": 1785,
      "ylogen": 1786,
      "cyclop": 1787,
      "Ag": 1788,
      "roll": 1789,
      "inus": 1790,
      "ature": 1791,
      "ams": 1792,
      "ĠMant": 1793,
      "ĠWh": 1794,
      "ĠFrench": 1795,
      "Ġonly": 1796,
      "ĠCastel": 1797,
      "ĠHenry": 1798,
      "iev": 1799,
      "anford": 1800,
      "alis": 1801,
      "ĠMa": 1802,
      "Ġduring": 1803,
      "Ġcolle": 1804,
      "ĠEast": 1805,
      "ema": 1806,
      "ains": 1807,
      "Ã¼r": 1808,
      "ĠBerg": 1809,
      "Ġused": 1810,
      "References": 1811,
      "Ġsmall": 1812,
      "Ge": 1813,
      "Sch": 1814,
      "Ġout": 1815,
      "ĠTer": 1816,
      "Ġco": 1817,
      "Ġcom": 1818,
      "Ġorch": 1819,
      "ĠScience": 1820,
      "rinceton": 1821,
      "ez": 1822,
      "feld": 1823,
      "gan": 1824,
      "no": 1825,
      "pecial": 1826,
      "ĠAp": 1827,
      "Ġpar": 1828,
      "ource": 1829,
      "Ġ186": 1830,
      "ments": 1831,
      "Ġprov": 1832,
      "ĠBritish": 1833,
      "ĠHouse": 1834,
      "Gu": 1835,
      "ek": 1836,
      "yg": 1837,
      "yo": 1838,
      "ĠColumbia": 1839,
      "itary": 1840,
      "Ġme": 1841,
      "Ġvilla": 1842,
      "Ġversion": 1843,
      "Ġ1983": 1844,
      "attle": 1845,
      "oon": 1846,
      "ĠSam": 1847,
      "2008": 1848,
      "ĠMat": 1849,
      "ĠGar": 1850,
      "Ġnorth": 1851,
      "Ġlater": 1852,
      "ĠChron": 1853,
      "ibidion": 1854,
      "yss": 1855,
      "ruct": 1856,
      "Ġyear": 1857,
      "Ġvols": 1858,
      "istorical": 1859,
      "min": 1860,
      "rica": 1861,
      "ski": 1862,
      "way": 1863,
      "wood": 1864,
      "ĠRiver": 1865,
      "unn": 1866,
      "acophor": 1867,
      "ictor": 1868,
      "ranslation": 1869,
      "entification": 1870,
      "At": 1871,
      "__": 1872,
      "oz": 1873,
      "Ġthan": 1874,
      "ĠMus": 1875,
      "ĠOsprey": 1876,
      "odes": 1877,
      "Ġ1981": 1878,
      "ĠFrancis": 1879,
      "Ġknown": 1880,
      "fred": 1881,
      "water": 1882,
      "onn": 1883,
      "ator": 1884,
      "Ġsch": 1885,
      "ione": 1886,
      "ĠBlack": 1887,
      "ellidae": 1888,
      "Ġne": 1889,
      "ovice": 1890,
      "ĠWilson": 1891,
      "Ġpersonality": 1892,
      "Journal": 1893,
      "Washington": 1894,
      "duc": 1895,
      "ling": 1896,
      "ines": 1897,
      "atural": 1898,
      "ĠRoc": 1899,
      "ĠLi": 1900,
      "chen": 1901,
      "ĠHa": 1902,
      "ĠNic": 1903,
      "ower": 1904,
      "othyne": 1905,
      "Version": 1906,
      "ced": 1907,
      "iles": 1908,
      "ĠPart": 1909,
      "ĠAlex": 1910,
      "ĠInter": 1911,
      "iff": 1912,
      "ests": 1913,
      "ego": 1914,
      "ĠMark": 1915,
      "ribution": 1916,
      "keley": 1917,
      "Rep": 1918,
      "ger": 1919,
      "vey": 1920,
      "alysis": 1921,
      "ople": 1922,
      "1999": 1923,
      "Ġ1984": 1924,
      "ĠEnglish": 1925,
      "ĠConst": 1926,
      "rato": 1927,
      "ĠStudies": 1928,
      "ĠAustralia": 1929,
      "ĠSquad": 1930,
      "Cambridge": 1931,
      "Mar": 1932,
      "San": 1933,
      "ating": 1934,
      "atory": 1935,
      "ĠBomb": 1936,
      "Ġgu": 1937,
      "ever": 1938,
      "1994": 1939,
      "Ġ1986": 1940,
      "Sten": 1941,
      "todact": 1942,
      "ideo": 1943,
      "Ġagainst": 1944,
      "Od": 1945,
      "ÃŁ": 1946,
      "onia": 1947,
      "Ġsite": 1948,
      "Ġsouth": 1949,
      "Ġflav": 1950,
      "Ġav": 1951,
      "Ġpoin": 1952,
      "iden": 1953,
      "ceae": 1954,
      "iron": 1955,
      "ographic": 1956,
      "ĠRhacophor": 1957,
      "overnment": 1958,
      "ĠRhacophoridae": 1959,
      "42": 1960,
      "DF": 1961,
      "Translated": 1962,
      "icornis": 1963,
      "aster": 1964,
      "Ġmany": 1965,
      "raft": 1966,
      "evin": 1967,
      "Ġ1987": 1968,
      "ustr": 1969,
      "ĠGuide": 1970,
      "ĠMantellidae": 1971,
      ".-": 1972,
      "erick": 1973,
      "Ġocc": 1974,
      "atab": 1975,
      "Ġthey": 1976,
      "Ġbi": 1977,
      "Ġpages": 1978,
      "Ġwater": 1979,
      "ĠKar": 1980,
      "ĠVan": 1981,
      "ords": 1982,
      "ÃŃn": 1983,
      "Ã¡n": 1984,
      "Ġresearch": 1985,
      "Ã³n": 1986,
      "91": 1987,
      "Pothyne": 1988,
      "Ur": 1989,
      "me": 1990,
      "riv": 1991,
      "uf": 1992,
      "ores": 1993,
      "ĠItal": 1994,
      "ĠBas": 1995,
      "Ġplay": 1996,
      "ĠDepartment": 1997,
      "una": 1998,
      "uman": 1999,
      "emi": 2000,
      "ĠEdward": 2001,
      "ĠGroup": 2002,
      "troduction": 2003,
      "Eb": 2004,
      "Ep": 2005,
      "ype": 2006,
      "ering": 2007,
      "Ġact": 2008,
      "ĠPutnam": 2009,
      "ional": 2010,
      "elle": 2011,
      "ĠNav": 2012,
      "opher": 2013,
      "ulture": 2014,
      "ajor": 2015,
      "87": 2016,
      "Ore": 2017,
      "serv": 2018,
      "ĠSa": 2019,
      "ĠRob": 2020,
      "olf": 2021,
      "ĠBo": 2022,
      "ason": 2023,
      "omen": 2024,
      "urus": 2025,
      "Ġman": 2026,
      "ivid": 2027,
      "ĠJean": 2028,
      "ants": 2029,
      "aya": 2030,
      "Edited": 2031,
      "ĠCanav": 2032,
      "ĠVerlag": 2033,
      "ĠRoyal": 2034,
      "atabase": 2035,
      "09": 2036,
      "Ġru": 2037,
      "ĠMass": 2038,
      "oli": 2039,
      "ĠHill": 2040,
      "Ġworld": 2041,
      "ĠStev": 2042,
      "aves": 2043,
      "everal": 2044,
      "akes": 2045,
      "awa": 2046,
      "ĠBerlin": 2047,
      "ĠJoseph": 2048,
      "hi": 2049,
      "erg": 2050,
      "ĠSup": 2051,
      "ĠLou": 2052,
      "Ġpap": 2053,
      "ĠDes": 2054,
      "Ġmay": 2055,
      "ĠFa": 2056,
      "Ġonline": 2057,
      "inea": 2058,
      "Ġ1985": 2059,
      "Ġ1978": 2060,
      "ĠEdition": 2061,
      "ization": 2062,
      "rick": 2063,
      "ĠFrance": 2064,
      "ailable": 2065,
      "ĠIII": 2066,
      "Ġcommune": 2067,
      "ĠJackson": 2068,
      "Oreodera": 2069,
      ",\"": 2070,
      "He": 2071,
      "Trop": 2072,
      "nom": 2073,
      "Ġem": 2074,
      "anz": 2075,
      "ĠTra": 2076,
      "ility": 2077,
      "ĠMamm": 2078,
      "ĠAc": 2079,
      "ĠBen": 2080,
      "ĠBru": 2081,
      "Ġcall": 2082,
      "iginal": 2083,
      "Ġhabit": 2084,
      "phen": 2085,
      "rinted": 2086,
      "Leptur": 2087,
      "ĠAssociation": 2088,
      "07": 2089,
      "ble": 2090,
      "book": 2091,
      "ior": 2092,
      "Ġear": 2093,
      "throp": 2094,
      "amin": 2095,
      "chth": 2096,
      "rov": 2097,
      "Ġpol": 2098,
      "Ġtentif": 2099,
      "Ġwell": 2100,
      "ĠOb": 2101,
      "utus": 2102,
      "aden": 2103,
      "rian": 2104,
      "str": 2105,
      "ode": 2106,
      "Ġret": 2107,
      "ffect": 2108,
      "Ġ1972": 2109,
      "ĠEng": 2110,
      "Ġdescript": 2111,
      "Ġadd": 2112,
      "Ġorchid": 2113,
      "ĠSquadron": 2114,
      "Bar": 2115,
      "su": 2116,
      "sen": 2117,
      "ange": 2118,
      "ĠSystem": 2119,
      "ĠMid": 2120,
      "ĠHow": 2121,
      "ĠDonald": 2122,
      "ident": 2123,
      "ĠWat": 2124,
      "ĠWashington": 2125,
      "imal": 2126,
      "ĠKing": 2127,
      "ston": 2128,
      "onto": 2129,
      "ĠAsia": 2130,
      "anguage": 2131,
      "Johns": 2132,
      "Odont": 2133,
      "ĠCanavese": 2134,
      "\"*": 2135,
      "06": 2136,
      "Meg": 2137,
      "Or": 2138,
      "Rev": 2139,
      "Sign": 2140,
      "oides": 2141,
      "tm": 2142,
      "uda": 2143,
      "ank": 2144,
      "ĠMel": 2145,
      "ĠMag": 2146,
      "ĠAcadem": 2147,
      "ctor": 2148,
      "Ġhttp": 2149,
      "ferrato": 2150,
      "Ind": 2151,
      "ĠReference": 2152,
      "ĠCentral": 2153,
      "tych": 2154,
      "Online": 2155,
      "ĠBombay": 2156,
      "mon": 2157,
      "ril": 2158,
      "win": 2159,
      "Ġep": 2160,
      "arge": 2161,
      "ĠTribus": 2162,
      "ĠLaw": 2163,
      "Ġfish": 2164,
      "ices": 2165,
      "etail": 2166,
      "ĠMo": 2167,
      "ĠBrown": 2168,
      "Ġcar": 2169,
      "ova": 2170,
      "ove": 2171,
      "ards": 2172,
      "Ġ1976": 2173,
      "ĠMonferrato": 2174,
      "Ġcommon": 2175,
      "ĠPapua": 2176,
      "erback": 2177,
      "Part": 2178,
      "Ġent": 2179,
      "isia": 2180,
      "ori": 2181,
      "ĠRel": 2182,
      "ilv": 2183,
      "ĠMary": 2184,
      "ĠBro": 2185,
      "ĠGra": 2186,
      "urs": 2187,
      "ulation": 2188,
      "acch": 2189,
      "Ġlist": 2190,
      "Ġarea": 2191,
      "idact": 2192,
      "ollins": 2193,
      "ĠCarol": 2194,
      "bury": 2195,
      "ĠCenter": 2196,
      "Sm": 2197,
      "cer": 2198,
      "oot": 2199,
      "ria": 2200,
      "sur": 2201,
      "Ã±": 2202,
      "enne": 2203,
      "ĠSons": 2204,
      "ĠLim": 2205,
      "omy": 2206,
      "ĠDC": 2207,
      "Ġcor": 2208,
      "umber": 2209,
      "iger": 2210,
      "ĠKh": 2211,
      "ude": 2212,
      "ques": 2213,
      "Ġgeneral": 2214,
      "ĠEmp": 2215,
      "Ġtentiform": 2216,
      "53": 2217,
      "OCLC": 2218,
      "enberg": 2219,
      "atics": 2220,
      "Ġthree": 2221,
      "rech": 2222,
      "ĠCost": 2223,
      "arian": 2224,
      "lete": 2225,
      "etic": 2226,
      "ĠMex": 2227,
      "Ġtext": 2228,
      "Ġmon": 2229,
      "ĠWeb": 2230,
      "ĠJe": 2231,
      "Ġ13": 2232,
      "ipes": 2233,
      "ĠAnt": 2234,
      "ugg": 2235,
      "ĠZeal": 2236,
      "ized": 2237,
      "Ġ1969": 2238,
      "axonomic": 2239,
      "ĠWalter": 2240,
      "ĠZealand": 2241,
      "96": 2242,
      "CA": 2243,
      "Wh": 2244,
      "World": 2245,
      "ada": 2246,
      "rict": 2247,
      "Ġec": 2248,
      "ĠServ": 2249,
      "ĠCam": 2250,
      "orb": 2251,
      "etus": 2252,
      "ĠMer": 2253,
      "ĠBor": 2254,
      "ĠBaltimore": 2255,
      "idolon": 2256,
      "ĠJane": 2257,
      "ults": 2258,
      "opl": 2259,
      "ĠKevin": 2260,
      "otes": 2261,
      "otos": 2262,
      "life": 2263,
      "ification": 2264,
      "Ġrem": 2265,
      "eca": 2266,
      "Ġ1977": 2267,
      "Ġequ": 2268,
      "irds": 2269,
      "ĠGenus": 2270,
      "ĠAfrica": 2271,
      "Signal": 2272,
      "Ne": 2273,
      "Trich": 2274,
      "dom": 2275,
      "sc": 2276,
      "viron": 2277,
      "ylidae": 2278,
      "esis": 2279,
      "inct": 2280,
      "pet": 2281,
      "ĠCambridge": 2282,
      "ĠTe": 2283,
      "ĠMay": 2284,
      "ĠGo": 2285,
      "ĠGran": 2286,
      "Ġcur": 2287,
      "ĠAnn": 2288,
      "ather": 2289,
      "echan": 2290,
      "521": 2291,
      "Berkeley": 2292,
      "borough": 2293,
      "ĠSanta": 2294,
      "cyclopedia": 2295,
      "rollton": 2296,
      "04": 2297,
      "Br": 2298,
      "gio": 2299,
      "ĠCons": 2300,
      "ĠTur": 2301,
      "Ġshe": 2302,
      "Ġfact": 2303,
      "ĠIl": 2304,
      "ĠMik": 2305,
      "Ġpop": 2306,
      "ĠGrand": 2307,
      "ĠDis": 2308,
      "ĠNar": 2309,
      "osus": 2310,
      "ĠVictor": 2311,
      "otus": 2312,
      "ried": 2313,
      "ĠChinese": 2314,
      "ocument": 2315,
      "Ġatt": 2316,
      "Ġ1982": 2317,
      "Carrollton": 2318,
      "Ġgroup": 2319,
      "Ġarticle": 2320,
      "ĠDaniel": 2321,
      "Its": 2322,
      "fish": 2323,
      "ope": 2324,
      "rent": 2325,
      "uh": 2326,
      "uv": 2327,
      "ych": 2328,
      "ison": 2329,
      "Ġoff": 2330,
      "ĠAer": 2331,
      "ĠDr": 2332,
      "Ġvan": 2333,
      "ĠMarch": 2334,
      "Ġ1971": 2335,
      "ually": 2336,
      "Ġclass": 2337,
      "ĠUSA": 2338,
      "ĠLeptodact": 2339,
      "umbai": 2340,
      "Comps": 2341,
      "Urg": 2342,
      "Odontocera": 2343,
      "ĠLeptodactylidae": 2344,
      "Brazil": 2345,
      "Hipp": 2346,
      "IS": 2347,
      "ira": 2348,
      "millan": 2349,
      "sk": 2350,
      "the": 2351,
      "ĠTechn": 2352,
      "ĠPl": 2353,
      "ito": 2354,
      "ĠAt": 2355,
      "ĠGl": 2356,
      "omor": 2357,
      "ĠWin": 2358,
      "ĠOri": 2359,
      "Ġ12": 2360,
      "Ġtown": 2361,
      "Ġhad": 2362,
      "ĠAlb": 2363,
      "ĠMarc": 2364,
      "Ġ1973": 2365,
      "azz": 2366,
      "olec": 2367,
      "Ġunder": 2368,
      "Ġincluding": 2369,
      "leptes": 2370,
      "yllisia": 2371,
      "Psaph": 2372,
      "ĠLouis": 2373,
      "idactylus": 2374,
      "Urgleptes": 2375,
      ".).": 2376,
      "71": 2377,
      "Boston": 2378,
      "Con": 2379,
      "Nyss": 2380,
      "crys": 2381,
      "oid": 2382,
      "ster": 2383,
      "yt": 2384,
      "Å¾": 2385,
      "ora": 2386,
      "aroch": 2387,
      "lep": 2388,
      "dacrys": 2389,
      "ĠBern": 2390,
      "elt": 2391,
      "Ġpl": 2392,
      "umm": 2393,
      "Ġline": 2394,
      "okyo": 2395,
      "eger": 2396,
      "ible": 2397,
      "ollus": 2398,
      "ĠReeder": 2399,
      "ĠProf": 2400,
      "Ġstudy": 2401,
      "ĠBruce": 2402,
      "Lepturges": 2403,
      "99": 2404,
      "Lep": 2405,
      "ker": 2406,
      "ĠSon": 2407,
      "Ġspeci": 2408,
      "ĠPen": 2409,
      "ĠBig": 2410,
      "imes": 2411,
      "app": 2412,
      "ougl": 2413,
      "ffer": 2414,
      "aux": 2415,
      "anni": 2416,
      "engo": 2417,
      "urodacrys": 2418,
      "ĠTimes": 2419,
      "Ġbased": 2420,
      "Eburodacrys": 2421,
      "Psapharoch": 2422,
      "Psapharochrus": 2423,
      ".*": 2424,
      "08": 2425,
      "Bacch": 2426,
      "Mant": 2427,
      "Rh": 2428,
      "ves": 2429,
      "Ġuse": 2430,
      "alle": 2431,
      "ĠLind": 2432,
      "Ġacc": 2433,
      "ĠPre": 2434,
      "chester": 2435,
      "Ġpre": 2436,
      "Ġtime": 2437,
      "Ġcap": 2438,
      "Ġmeth": 2439,
      "ĠOl": 2440,
      "ĠKore": 2441,
      "emor": 2442,
      "ĠGuinea": 2443,
      "ĠMilitary": 2444,
      "Amph": 2445,
      "ĠMexico": 2446,
      "Bacchisa": 2447,
      "rÃ©": 2448,
      "vol": 2449,
      "vard": 2450,
      "cil": 2451,
      "ĠCiv": 2452,
      "ĠChe": 2453,
      "Ġseveral": 2454,
      "ĠId": 2455,
      "Ġbook": 2456,
      "ette": 2457,
      "ites": 2458,
      "itch": 2459,
      "ĠMumbai": 2460,
      "oln": 2461,
      "ased": 2462,
      "uridae": 2463,
      "ĠHans": 2464,
      "Ġmajor": 2465,
      "ĠJo": 2466,
      "heim": 2467,
      "irg": 2468,
      "ĠInt": 2469,
      "Ġ2011": 2470,
      "ĠStudy": 2471,
      "ometopus": 2472,
      "ĠEvolution": 2473,
      "lobal": 2474,
      "Ġpoints": 2475,
      "43": 2476,
      "75": 2477,
      "Amer": 2478,
      "CD": 2479,
      "Gnom": 2480,
      "Lyn": 2481,
      "bo": 2482,
      "rong": 2483,
      "yan": 2484,
      "int": 2485,
      "ato": 2486,
      "itu": 2487,
      "ĠJon": 2488,
      "ordon": 2489,
      "ibli": 2490,
      "ultural": 2491,
      "ĠOnline": 2492,
      "ĠOpen": 2493,
      "ĠFrederick": 2494,
      "Mantidactylus": 2495,
      "AS": 2496,
      "Ac": 2497,
      "famil": 2498,
      "off": 2499,
      "ues": 2500,
      "Ġel": 2501,
      "ĠSov": 2502,
      "ared": 2503,
      "lear": 2504,
      "ĠPenn": 2505,
      "eto": 2506,
      "etto": 2507,
      "ĠMak": 2508,
      "inger": 2509,
      "Ġpict": 2510,
      "ĠGal": 2511,
      "ĠDec": 2512,
      "ĠDevelopment": 2513,
      "ctic": 2514,
      "ĠKe": 2515,
      "abb": 2516,
      "ically": 2517,
      "ense": 2518,
      "aract": 2519,
      "innes": 2520,
      "rysop": 2521,
      "Adetus": 2522,
      "ĠRussian": 2523,
      "Ġgoals": 2524,
      "Ġcreate": 2525,
      "82": 2526,
      "85": 2527,
      "cover": 2528,
      "ef": 2529,
      "kh": 2530,
      "ister": 2531,
      "ĠBill": 2532,
      "Ġdep": 2533,
      "ĠHel": 2534,
      "ĠDa": 2535,
      "Ġmusic": 2536,
      "ĠFin": 2537,
      "ĠFlor": 2538,
      "ĠJones": 2539,
      "eme": 2540,
      "rip": 2541,
      "ries": 2542,
      "ĠInformation": 2543,
      "1992": 2544,
      "Ann": 2545,
      "There": 2546,
      "zzo": 2547,
      "ĠAustralian": 2548,
      "innesota": 2549,
      "44": 2550,
      "Bi": 2551,
      "Per": 2552,
      "yle": 2553,
      "eres": 2554,
      "atch": 2555,
      "Ġthese": 2556,
      "ario": 2557,
      "Ġfus": 2558,
      "ĠMet": 2559,
      "Ġpage": 2560,
      "ĠGordon": 2561,
      "ĠEth": 2562,
      "ading": 2563,
      "Ġele": 2564,
      "Ġ1967": 2565,
      "ervation": 2566,
      "ĠSeries": 2567,
      "ĠMacmillan": 2568,
      "ĠCommun": 2569,
      "ĠChristopher": 2570,
      "Ġground": 2571,
      "Ġvillage": 2572,
      "duced": 2573,
      "BC": 2574,
      "Op": 2575,
      "tus": 2576,
      "work": 2577,
      "Ġthere": 2578,
      "ĠCity": 2579,
      "ĠRos": 2580,
      "ĠTits": 2581,
      "Ġsoci": 2582,
      "lei": 2583,
      "ĠMinnesota": 2584,
      "asc": 2585,
      "Ġden": 2586,
      "ĠGovernment": 2587,
      "ĠHall": 2588,
      "Ġmade": 2589,
      "rain": 2590,
      "ivity": 2591,
      "osc": 2592,
      "ĠVilla": 2593,
      "Ġhow": 2594,
      "Ġnear": 2595,
      "Ġvery": 2596,
      "ifer": 2597,
      "onte": 2598,
      "ibb": 2599,
      "Ġalong": 2600,
      "Ġfold": 2601,
      "Ġred": 2602,
      "Ġshow": 2603,
      "ĠIsland": 2604,
      "overed": 2605,
      "ilautus": 2606,
      "Ġruf": 2607,
      "surface": 2608,
      "ĠJeff": 2609,
      "41": 2610,
      "htm": 2611,
      "ias": 2612,
      "kov": 2613,
      "lam": 2614,
      "vers": 2615,
      "Ġid": 2616,
      "Ġill": 2617,
      "ĠSaint": 2618,
      "arch": 2619,
      "ĠRen": 2620,
      "ĠLab": 2621,
      "Ġset": 2622,
      "Ġsame": 2623,
      "ĠPres": 2624,
      "ĠAwards": 2625,
      "Ġdata": 2626,
      "urn": 2627,
      "ĠFel": 2628,
      "ĠJournal": 2629,
      "cept": 2630,
      "ĠStu": 2631,
      "aylor": 2632,
      "ensive": 2633,
      "Ġ1970": 2634,
      "Ġwhite": 2635,
      "ĠEdici": 2636,
      "athem": 2637,
      "ĠGeographic": 2638,
      "entific": 2639,
      "onesia": 2640,
      "rasis": 2641,
      "Berlin": 2642,
      "Ġavailable": 2643,
      "vironment": 2644,
      "05": 2645,
      "Ebur": 2646,
      "craft": 2647,
      "dle": 2648,
      "lia": 2649,
      "oung": 2650,
      "vel": 2651,
      "yth": 2652,
      "err": 2653,
      "Ġso": 2654,
      "ĠPan": 2655,
      "ĠMad": 2656,
      "ĠMicro": 2657,
      "ĠDougl": 2658,
      "osp": 2659,
      "Ġwrit": 2660,
      "aps": 2661,
      "Ġwhere": 2662,
      "Ġleaves": 2663,
      "count": 2664,
      "aix": 2665,
      "Ġdesc": 2666,
      "===*": 2667,
      "Ġrecord": 2668,
      "Eburia": 2669,
      "03": 2670,
      "Het": 2671,
      "Tor": 2672,
      "ĠÅ": 2673,
      "cip": 2674,
      "2010": 2675,
      "alam": 2676,
      "arus": 2677,
      "Ġsecond": 2678,
      "Ġfly": 2679,
      "ĠParis": 2680,
      "ĠFound": 2681,
      "lot": 2682,
      "Ġlarge": 2683,
      "Ġstat": 2684,
      "ropical": 2685,
      "Ġlife": 2686,
      "ische": 2687,
      "ĠBritain": 2688,
      "ĠNorton": 2689,
      "ĠOffice": 2690,
      "ĠMammal": 2691,
      "Ane": 2692,
      "Hyllisia": 2693,
      "ios": 2694,
      "iri": 2695,
      "rum": 2696,
      "Ġown": 2697,
      "cience": 2698,
      "eno": 2699,
      "enz": 2700,
      "ĠSav": 2701,
      "ĠSec": 2702,
      "ĠRu": 2703,
      "ĠRand": 2704,
      "ĠTan": 2705,
      "ĠTrans": 2706,
      "ĠLat": 2707,
      "Ġfull": 2708,
      "Ġint": 2709,
      "ĠBre": 2710,
      "erst": 2711,
      "Ġcond": 2712,
      "emic": 2713,
      "ogn": 2714,
      "phus": 2715,
      "ĠUnivers": 2716,
      "Ġge": 2717,
      "iller": 2718,
      "endorf": 2719,
      "obat": 2720,
      "Chicago": 2721,
      "Chrysop": 2722,
      "iella": 2723,
      "oft": 2724,
      "ĠHarvard": 2725,
      "ĠPolit": 2726,
      "ĠPhilip": 2727,
      "ĠLepidoptera": 2728,
      "ĠAngel": 2729,
      "Ġcollection": 2730,
      "Tropidion": 2731,
      "ĠCarolina": 2732,
      "ĠEmpire": 2733,
      "02": 2734,
      "73": 2735,
      "81": 2736,
      "Pob": 2737,
      "Tet": 2738,
      "ais": 2739,
      "las": 2740,
      "mar": 2741,
      "oo": 2742,
      "play": 2743,
      "val": 2744,
      "Ġran": 2745,
      "ĠShe": 2746,
      "2011": 2747,
      "aries": 2748,
      "Ġinc": 2749,
      "icolor": 2750,
      "ush": 2751,
      "chi": 2752,
      "Ġpresent": 2753,
      "Ġdire": 2754,
      "Ġdevelopment": 2755,
      "ĠFe": 2756,
      "ĠForm": 2757,
      "ĠJr": 2758,
      "Ġwill": 2759,
      "igure": 2760,
      "Ġnatural": 2761,
      "liano": 2762,
      "ardcover": 2763,
      "antine": 2764,
      "Ġ1974": 2765,
      "Ġ1975": 2766,
      "ostylus": 2767,
      "ĠIndonesia": 2768,
      "ĠProduction": 2769,
      "Ġkm": 2770,
      "ĠSocial": 2771,
      "ĠSouthern": 2772,
      "Ġminor": 2773,
      "Ġdifferent": 2774,
      "Ġhabitat": 2775,
      "Nyssod": 2776,
      "lepidoptera": 2777,
      "ĠEdicions": 2778,
      "Hetera": 2779,
      "Chrysoprasis": 2780,
      "77": 2781,
      "hire": 2782,
      "ration": 2783,
      "uer": 2784,
      "uary": 2785,
      "with": 2786,
      "Ġ==*": 2787,
      "ĠSym": 2788,
      "ĠCom": 2789,
      "Ġsn": 2790,
      "Ġsul": 2791,
      "Ġseries": 2792,
      "ĠPA": 2793,
      "ĠAst": 2794,
      "ĠBook": 2795,
      "Ġpos": 2796,
      "urch": 2797,
      "ĠFirst": 2798,
      "ived": 2799,
      "lov": 2800,
      "Ġ15": 2801,
      "aven": 2802,
      "Ġvari": 2803,
      "1993": 2804,
      "1997": 2805,
      "estia": 2806,
      "ensch": 2807,
      "Ġoriginal": 2808,
      "ĠSchool": 2809,
      "Ġ1968": 2810,
      "ieri": 2811,
      "ĠIslands": 2812,
      "Ġarch": 2813,
      "ĠRegion": 2814,
      "ĠSurvey": 2815,
      "chthes": 2816,
      "Lynx": 2817,
      "Heterachthes": 2818,
      ";*": 2819,
      "Call": 2820,
      "No": 2821,
      "Soc": 2822,
      "be": 2823,
      "ful": 2824,
      "field": 2825,
      "kt": 2826,
      "men": 2827,
      "Ġx": 2828,
      "ĠÐ": 2829,
      "reland": 2830,
      "ĠCong": 2831,
      "ĠTom": 2832,
      "ĠLeg": 2833,
      "ĠPlan": 2834,
      "ĠMol": 2835,
      "ĠAle": 2836,
      "ellow": 2837,
      "Ġplace": 2838,
      "ĠHaw": 2839,
      "ĠJim": 2840,
      "laph": 2841,
      "1995": 2842,
      "aking": 2843,
      "ĠLee": 2844,
      "anning": 2845,
      "ĠProject": 2846,
      "ission": 2847,
      "ittle": 2848,
      "orgio": 2849,
      "ridgeon": 2850,
      "vania": 2851,
      "ĠStephen": 2852,
      "Ġopen": 2853,
      "ĠOriental": 2854,
      "Gnomidolon": 2855,
      "65": 2856,
      "818": 2857,
      "Ab": 2858,
      "Cl": 2859,
      "El": 2860,
      "PDF": 2861,
      "UT": 2862,
      "rd": 2863,
      "syl": 2864,
      "uin": 2865,
      "ville": 2866,
      "Ġant": 2867,
      "ination": 2868,
      "anes": 2869,
      "ania": 2870,
      "edy": 2871,
      "Ġsing": 2872,
      "Ġfour": 2873,
      "ĠIreland": 2874,
      "Ġins": 2875,
      "andbook": 2876,
      "ĠMi": 2877,
      "rot": 2878,
      "Ġdis": 2879,
      "Ġmm": 2880,
      "ĠFre": 2881,
      "ĠFive": 2882,
      "ĠEastern": 2883,
      "lain": 2884,
      "ĠOk": 2885,
      "cem": 2886,
      "uber": 2887,
      "oge": 2888,
      "ĠStanford": 2889,
      "Ġval": 2890,
      "Ġanalysis": 2891,
      "ĠZh": 2892,
      "ĠWild": 2893,
      "Ġ1966": 2894,
      "ittata": 2895,
      "ĠPaci": 2896,
      "Ã¼n": 2897,
      "oughton": 2898,
      "691": 2899,
      "Ġlocated": 2900,
      "Ġappe": 2901,
      "ructure": 2902,
      "American": 2903,
      "Anefl": 2904,
      "sylvania": 2905,
      "415": 2906,
      "How": 2907,
      "Mac": 2908,
      "fin": 2909,
      "gs": 2910,
      "net": 2911,
      "other": 2912,
      "uen": 2913,
      "Ã§": 2914,
      "reas": 2915,
      "ĠTaxonomic": 2916,
      "ĠLong": 2917,
      "Ġsuch": 2918,
      "Ġsitu": 2919,
      "ĠPier": 2920,
      "ĠPiet": 2921,
      "olis": 2922,
      "round": 2923,
      "ĠDom": 2924,
      "ival": 2925,
      "uments": 2926,
      "agement": 2927,
      "Ġreview": 2928,
      "Ã©e": 2929,
      "ĠAllen": 2930,
      "athan": 2931,
      "Ġimp": 2932,
      "ĠAdvent": 2933,
      "ĠAndrew": 2934,
      "Ġdistrict": 2935,
      "aculata": 2936,
      "ĠCivil": 2937,
      "cent": 2938,
      "cast": 2939,
      "go": 2940,
      "kin": 2941,
      "ober": 2942,
      "pos": 2943,
      "inia": 2944,
      "thur": 2945,
      "Ġbro": 2946,
      "ĠPort": 2947,
      "ĠGree": 2948,
      "omysis": 2949,
      "Ġca": 2950,
      "Ġcount": 2951,
      "ĠWalt": 2952,
      "igital": 2953,
      "ĠVar": 2954,
      "Ġhyd": 2955,
      "Ġvar": 2956,
      "Ġrelat": 2957,
      "ours": 2958,
      "Ġann": 2959,
      "ights": 2960,
      "ĠPhys": 2961,
      "ĠAsian": 2962,
      "Leptostylus": 2963,
      "Ġcalled": 2964,
      "Compsibidion": 2965,
      "olecular": 2966,
      "Ġdescrib": 2967,
      ");": 2968,
      "Cole": 2969,
      "nem": 2970,
      "ĠâĢĶ": 2971,
      "ĠSi": 2972,
      "ĠSpe": 2973,
      "alk": 2974,
      "ĠRog": 2975,
      "ĠLake": 2976,
      "ĠIan": 2977,
      "Ġaqu": 2978,
      "istics": 2979,
      "ĠMeth": 2980,
      "ĠApp": 2981,
      "asp": 2982,
      "Ġpred": 2983,
      "opter": 2984,
      "ĠVen": 2985,
      "Ġhon": 2986,
      "ĠStory": 2987,
      "ĠAlfred": 2988,
      "ruction": 2989,
      "Ġeach": 2990,
      "Ġchild": 2991,
      "ĠCarl": 2992,
      "ĠBarb": 2993,
      "ĠNature": 2994,
      "ĠNovember": 2995,
      "Ġsigns": 2996,
      "ĠSubfamil": 2997,
      "Ġmarine": 2998,
      "Geography": 2999,
      "ĠMicrolepidoptera": 3000,
      "Nyssodrys": 3001,
      "ĠPacific": 3002,
      "Clept": 3003,
      "Is": 3004,
      "NE": 3005,
      "cell": 3006,
      "lu": 3007,
      "Ġ__": 3008,
      "ĠSing": 3009,
      "ĠLigure": 3010,
      "Ġfinal": 3011,
      "ĠIV": 3012,
      "ĠPi": 3013,
      "ĠPrinceton": 3014,
      "ĠGr": 3015,
      "ĠHein": 3016,
      "ĠDo": 3017,
      "Ġcol": 3018,
      "Ġmain": 3019,
      "umer": 3020,
      "igan": 3021,
      "ems": 3022,
      "Ġhim": 3023,
      "rial": 3024,
      "ians": 3025,
      "ardo": 3026,
      "allery": 3027,
      "Ġstand": 3028,
      "Ġstrong": 3029,
      "Ã©s": 3030,
      "ÃŃa": 3031,
      "Ġ50": 3032,
      "Phil": 3033,
      "ĠSciuridae": 3034,
      "rassa": 3035,
      "aphus": 3036,
      "ĠGiorgio": 3037,
      "Ġsurface": 3038,
      "ĠSimon": 3039,
      "Ġearly": 3040,
      "omorpha": 3041,
      "ĠSubfamilia": 3042,
      "Cleptometopus": 3043,
      "First": 3044,
      "Hy": 3045,
      "Pal": 3046,
      "light": 3047,
      "rence": 3048,
      "uz": 3049,
      "inu": 3050,
      "iner": 3051,
      "ami": 3052,
      "2012": 3053,
      "2013": 3054,
      "Ġfive": 3055,
      "Ġinsect": 3056,
      "Ġback": 3057,
      "istic": 3058,
      "etwork": 3059,
      "ĠMond": 3060,
      "che": 3061,
      "elli": 3062,
      "Ġbeh": 3063,
      "Ġdem": 3064,
      "ĠHam": 3065,
      "ĠDu": 3066,
      "ĠDon": 3067,
      "ĠDun": 3068,
      "ĠFil": 3069,
      "Ġ14": 3070,
      "Ġgrow": 3071,
      "Ġviol": 3072,
      "Ġ22": 3073,
      "itional": 3074,
      "Ġ1965": 3075,
      "ĠClar": 3076,
      "ĠCollection": 3077,
      "ĠGiov": 3078,
      "Ġindivid": 3079,
      "cademic": 3080,
      "uthor": 3081,
      "ylogeny": 3082,
      "ĠKingdom": 3083,
      "ĠFoundation": 3084,
      "playing": 3085,
      "ĠProductions": 3086,
      "Acc": 3087,
      "For": 3088,
      "Mim": 3089,
      "Pap": 3090,
      "cks": 3091,
      "gar": 3092,
      "list": 3093,
      "ront": 3094,
      "anley": 3095,
      "edu": 3096,
      "ĠCla": 3097,
      "ories": 3098,
      "ĠPot": 3099,
      "iti": 3100,
      "ĠMong": 3101,
      "ĠBattle": 3102,
      "asco": 3103,
      "elaphus": 3104,
      "Ġter": 3105,
      "Ġtyp": 3106,
      "Ġmed": 3107,
      "ĠFund": 3108,
      "ĠKal": 3109,
      "odiversity": 3110,
      "artes": 3111,
      "Ã©n": 3112,
      "Anelaphus": 3113,
      "Ġriver": 3114,
      "olumes": 3115,
      "Edwards": 3116,
      "roma": 3117,
      "glen": 3118,
      "ĠForce": 3119,
      "ladius": 3120,
      "ĠPennsylvania": 3121,
      "ĠCongress": 3122,
      "laphidion": 3123,
      "754": 3124,
      "De": 3125,
      "US": 3126,
      "Wil": 3127,
      "fore": 3128,
      "iatic": 3129,
      "lers": 3130,
      "nia": 3131,
      "pd": 3132,
      "ved": 3133,
      "wan": 3134,
      "inidae": 3135,
      "ĠCass": 3136,
      "alth": 3137,
      "ĠLand": 3138,
      "Ġsem": 3139,
      "Ġfilm": 3140,
      "Ġboth": 3141,
      "ĠPers": 3142,
      "uster": 3143,
      "uri": 3144,
      "ĠHy": 3145,
      "osch": 3146,
      "rium": 3147,
      "ovo": 3148,
      "ĠStein": 3149,
      "apore": 3150,
      "1990": 3151,
      "udd": 3152,
      "ryn": 3153,
      "ationship": 3154,
      "ĠArthur": 3155,
      "ends": 3156,
      "rican": 3157,
      "Univers": 3158,
      "Ġimport": 3159,
      "Ġincludes": 3160,
      "rachus": 3161,
      "ĠModern": 3162,
      "apel": 3163,
      "ĠDisney": 3164,
      "67": 3165,
      "97": 3166,
      "Elaphidion": 3167,
      "National": 3168,
      "Orig": 3169,
      "aul": 3170,
      "hib": 3171,
      "ness": 3172,
      "uil": 3173,
      "war": 3174,
      "yrassa": 3175,
      "zano": 3176,
      "Ġoften": 3177,
      "Ġfem": 3178,
      "ĠMiff": 3179,
      "Ġmid": 3180,
      "ĠWork": 3181,
      "ĠWestern": 3182,
      "Ġwould": 3183,
      "igen": 3184,
      "ranch": 3185,
      "iform": 3186,
      "ĠChick": 3187,
      "ublished": 3188,
      "abri": 3189,
      "uder": 3190,
      "Ġ35": 3191,
      "Ġprocess": 3192,
      "pert": 3193,
      "idea": 3194,
      "ĠEduc": 3195,
      "Ġ2012": 3196,
      "1989": 3197,
      "Ġspin": 3198,
      "Ġupper": 3199,
      "ringer": 3200,
      "anguages": 3201,
      "See": 3202,
      "ĠArmy": 3203,
      "Guia": 3204,
      "ĠMifflin": 3205,
      "62": 3206,
      "Gast": 3207,
      "Jord": 3208,
      "NA": 3209,
      "Rec": 3210,
      "lim": 3211,
      "mo": 3212,
      "Ã½": 3213,
      "ĠâĢ": 3214,
      "ergy": 3215,
      "ĠCorn": 3216,
      "alus": 3217,
      "ĠTwo": 3218,
      "ĠTranslation": 3219,
      "Ġserv": 3220,
      "ĠIll": 3221,
      "ĠPop": 3222,
      "cher": 3223,
      "ingen": 3224,
      "Ġdetail": 3225,
      "ĠGh": 3226,
      "ĠGold": 3227,
      "ĠHistorical": 3228,
      "Ġtechn": 3229,
      "ĠNg": 3230,
      "ĠFol": 3231,
      "iven": 3232,
      "ently": 3233,
      "ential": 3234,
      "emann": 3235,
      "ado": 3236,
      "apter": 3237,
      "ĠAnth": 3238,
      "ĠAnton": 3239,
      "Ġ25": 3240,
      "Ġwithin": 3241,
      "Ġprogram": 3242,
      "Ġwhen": 3243,
      "And": 3244,
      "Ant": 3245,
      "Ġ1964": 3246,
      "enguin": 3247,
      "Ã¶r": 3248,
      "ĠMcC": 3249,
      "enez": 3250,
      "eriod": 3251,
      "ĠChristian": 3252,
      "ĠReview": 3253,
      "ĠEuropean": 3254,
      "Ġyears": 3255,
      "aixa": 3256,
      "83": 3257,
      "94": 3258,
      "Har": 3259,
      "Mon": 3260,
      "gent": 3261,
      "hof": 3262,
      "now": 3263,
      "uis": 3264,
      "urop": 3265,
      "ĠLes": 3266,
      "Ġfore": 3267,
      "ili": 3268,
      "Ġbrown": 3269,
      "ĠMUT": 3270,
      "ĠAv": 3271,
      "Ġpla": 3272,
      "ĠGer": 3273,
      "ĠGun": 3274,
      "ĠHuman": 3275,
      "Ġte": 3276,
      "Ġcrit": 3277,
      "Ġmov": 3278,
      "ĠWater": 3279,
      "iving": 3280,
      "ĠJac": 3281,
      "ctober": 3282,
      "imb": 3283,
      "imus": 3284,
      "ĠKle": 3285,
      "ody": 3286,
      "Ġlarv": 3287,
      "Ġreport": 3288,
      "aba": 3289,
      "aki": 3290,
      "Ġ27": 3291,
      "ieffer": 3292,
      "ĠAlan": 3293,
      "ender": 3294,
      "Ġwhile": 3295,
      "ignano": 3296,
      "Ġ1961": 3297,
      "ynam": 3298,
      "ĠLeon": 3299,
      "burgh": 3300,
      "Ã¶n": 3301,
      "ĠSciences": 3302,
      "ĠExp": 3303,
      "ĠExternal": 3304,
      "Ġconsider": 3305,
      "Ġquad": 3306,
      "ĠCasal": 3307,
      "ĠJapanese": 3308,
      "Ġidentification": 3309,
      "ĠMUTCD": 3310,
      "63": 3311,
      "CH": 3312,
      "CO": 3313,
      "Cal": 3314,
      "Cosm": 3315,
      "Die": 3316,
      "Euder": 3317,
      "Fran": 3318,
      "Princeton": 3319,
      "Res": 3320,
      "east": 3321,
      "rs": 3322,
      "sych": 3323,
      "zi": 3324,
      "zab": 3325,
      "Ã¦": 3326,
      "Ãº": 3327,
      "anish": 3328,
      "cial": 3329,
      "thartes": 3330,
      "rea": 3331,
      "ĠMas": 3332,
      "ĠBl": 3333,
      "ĠBy": 3334,
      "ingu": 3335,
      "Ġdisp": 3336,
      "oman": 3337,
      "Ġcal": 3338,
      "Ġmult": 3339,
      "Ġmark": 3340,
      "ĠEst": 3341,
      "ĠEli": 3342,
      "ĠEric": 3343,
      "igl": 3344,
      "ĠOf": 3345,
      "ĠOld": 3346,
      "adian": 3347,
      "ots": 3348,
      "stract": 3349,
      "irt": 3350,
      "ternet": 3351,
      "icathartes": 3352,
      "Ġproject": 3353,
      "anolei": 3354,
      "Ġcharact": 3355,
      "000": 3356,
      "These": 3357,
      "onomy": 3358,
      "adees": 3359,
      "ĠChronicle": 3360,
      "ĠItaly": 3361,
      "ĠService": 3362,
      "cember": 3363,
      "ĠChickadees": 3364,
      "Jordanolei": 3365,
      "Euderces": 3366,
      "Jordanoleiopus": 3367,
      "Ap": 3368,
      "Colle": 3369,
      "Caixa": 3370,
      "IT": 3371,
      "Tokyo": 3372,
      "Ver": 3373,
      "West": 3374,
      "ao": 3375,
      "gn": 3376,
      "ja": 3377,
      "text": 3378,
      "Ð°": 3379,
      "Ð¾": 3380,
      "thia": 3381,
      "ĠCro": 3382,
      "ĠRod": 3383,
      "ĠTown": 3384,
      "Ġsince": 3385,
      "ily": 3386,
      "Ġaward": 3387,
      "Ġinf": 3388,
      "Ġbel": 3389,
      "itors": 3390,
      "olar": 3391,
      "Ġdatabase": 3392,
      "ĠGru": 3393,
      "ĠHis": 3394,
      "ĠHoughton": 3395,
      "Ġterm": 3396,
      "ĠFore": 3397,
      "empor": 3398,
      "ĠViol": 3399,
      "ote": 3400,
      "ĠAncient": 3401,
      "essed": 3402,
      "ize": 3403,
      "Ġeffect": 3404,
      "Ġdesign": 3405,
      "ĠWilliams": 3406,
      "etta": 3407,
      "Ġ1945": 3408,
      "lectron": 3409,
      "Ġflowers": 3410,
      "ĠMilne": 3411,
      "ĠAircraft": 3412,
      "oint": 3413,
      "ĠReport": 3414,
      "incoln": 3415,
      "Ġdiscuss": 3416,
      "ĠAcademy": 3417,
      "ĠSonata": 3418,
      "ĠHawai": 3419,
      "ĠGiovanni": 3420,
      "FA": 3421,
      "From": 3422,
      "Mal": 3423,
      "Ob": 3424,
      "uy": 3425,
      "Ġes": 3426,
      "thers": 3427,
      "ĠSept": 3428,
      "ĠSecond": 3429,
      "ĠCa": 3430,
      "ĠCollins": 3431,
      "arl": 3432,
      "ĠTaylor": 3433,
      "ĠLor": 3434,
      "ĠLang": 3435,
      "Ġsep": 3436,
      "icon": 3437,
      "olia": 3438,
      "ĠBow": 3439,
      "ĠBou": 3440,
      "Ġbec": 3441,
      "Ġprev": 3442,
      "Ġpunct": 3443,
      "ĠDen": 3444,
      "ĠDÃŃ": 3445,
      "ĠJune": 3446,
      "ĠOne": 3447,
      "ĠOCLC": 3448,
      "Ġ11": 3449,
      "aders": 3450,
      "Ġgra": 3451,
      "Ġvideo": 3452,
      "ĠAlbert": 3453,
      "Ġexamp": 3454,
      "vert": 3455,
      "acts": 3456,
      "Ġcontains": 3457,
      "rinting": 3458,
      "Ġlike": 3459,
      "ĠValle": 3460,
      "cription": 3461,
      "Ġworks": 3462,
      "Ġcit": 3463,
      "ĠSwan": 3464,
      "ĠCorpor": 3465,
      "Ġplants": 3466,
      "ĠAlexander": 3467,
      "ĠMaryland": 3468,
      "ĠIdentification": 3469,
      "ibliography": 3470,
      "ĠStuart": 3471,
      "61": 3472,
      "AR": 3473,
      "Des": 3474,
      "ER": 3475,
      "History": 3476,
      "Man": 3477,
      "aid": 3478,
      "kes": 3479,
      "med": 3480,
      "mark": 3481,
      "oire": 3482,
      "sky": 3483,
      "á»": 3484,
      "Ġ'": 3485,
      "Ġ[": 3486,
      "Ġi": 3487,
      "Ġold": 3488,
      "ĠSk": 3489,
      "ĠCat": 3490,
      "ĠTak": 3491,
      "ĠLew": 3492,
      "istry": 3493,
      "ĠPra": 3494,
      "ĠBrian": 3495,
      "ĠDist": 3496,
      "ĠDay": 3497,
      "idus": 3498,
      "Ġwin": 3499,
      "Ġwings": 3500,
      "ĠOs": 3501,
      "rier": 3502,
      "oderes": 3503,
      "irs": 3504,
      "liest": 3505,
      "Ġlight": 3506,
      "ublic": 3507,
      "Ġforms": 3508,
      "Ã©t": 3509,
      "aterial": 3510,
      "aldo": 3511,
      "Ġshort": 3512,
      "Ġinclude": 3513,
      "Ġdoes": 3514,
      "ĠÃī": 3515,
      "ĠAfrican": 3516,
      "escens": 3517,
      "Ġendemic": 3518,
      "ĠMurray": 3519,
      "Ġgroundwater": 3520,
      "ĠDÃŃaz": 3521,
      "68": 3522,
      "Pter": 3523,
      "di": 3524,
      "most": 3525,
      "ãĥ": 3526,
      "Ġir": 3527,
      "inson": 3528,
      "ĠSad": 3529,
      "Ġthen": 3530,
      "ĠRon": 3531,
      "Ġspe": 3532,
      "Ġsyn": 3533,
      "Ġbre": 3534,
      "ista": 3535,
      "ĠPrin": 3536,
      "eta": 3537,
      "etts": 3538,
      "ĠMax": 3539,
      "1957": 3540,
      "ĠAvi": 3541,
      "ĠBa": 3542,
      "ĠBan": 3543,
      "ĠGÃ¶": 3544,
      "ĠGlobal": 3545,
      "ĠNik": 3546,
      "Ġmus": 3547,
      "ĠWood": 3548,
      "ĠFrom": 3549,
      "ĠFilm": 3550,
      "teroid": 3551,
      "opag": 3552,
      "ĠOtt": 3553,
      "loc": 3554,
      "emus": 3555,
      "ads": 3556,
      "odow": 3557,
      "ogue": 3558,
      "lied": 3559,
      "oviÄĩ": 3560,
      "udio": 3561,
      "egan": 3562,
      "Ġ21": 3563,
      "anga": 3564,
      "ebru": 3565,
      "uccess": 3566,
      "Stiz": 3567,
      "enna": 3568,
      "yna": 3569,
      "Ġaround": 3570,
      "ĠPoland": 3571,
      "lectro": 3572,
      "ĠGeneral": 3573,
      "ĠMalays": 3574,
      "ĠEarth": 3575,
      "Ġassoci": 3576,
      "ĠRadio": 3577,
      "ĠWhite": 3578,
      "Megac": 3579,
      "echanics": 3580,
      "ĠNarodow": 3581,
      "ollusca": 3582,
      "Stizocera": 3583,
      "Hol": 3584,
      "Meth": 3585,
      "bro": 3586,
      "mat": 3587,
      "mond": 3588,
      "pan": 3589,
      "Ãł": 3590,
      "Ġoch": 3591,
      "eded": 3592,
      "though": 3593,
      "ĠSilv": 3594,
      "Ġthird": 3595,
      "ĠLy": 3596,
      "ĠLan": 3597,
      "Ġser": 3598,
      "Ġsex": 3599,
      "Ġfin": 3600,
      "Ġfun": 3601,
      "ĠIr": 3602,
      "anda": 3603,
      "ĠMey": 3604,
      "olas": 3605,
      "roth": 3606,
      "ĠBot": 3607,
      "ĠBell": 3608,
      "Ġ1954": 3609,
      "ĠGri": 3610,
      "ĠGreg": 3611,
      "ĠHal": 3612,
      "ĠDisc": 3613,
      "Ġtranslated": 3614,
      "Ġcomb": 3615,
      "Ġmarg": 3616,
      "ively": 3617,
      "ĠJoh": 3618,
      "osh": 3619,
      "ĠKen": 3620,
      "ĠKieffer": 3621,
      "ĠVirg": 3622,
      "Ġtotal": 3623,
      "ogle": 3624,
      "aca": 3625,
      "Ġgreen": 3626,
      "ardi": 3627,
      "aining": 3628,
      "endon": 3629,
      "uclear": 3630,
      "Stanford": 3631,
      "ĠEncyclopedia": 3632,
      "ĠProgram": 3633,
      "ength": 3634,
      "rison": 3635,
      "duct": 3636,
      "ĠSea": 3637,
      "ĠBiography": 3638,
      "ĠTorinese": 3639,
      "ĠImper": 3640,
      "Ġmodel": 3641,
      "ĠErn": 3642,
      "arning": 3643,
      "ĠFrancisco": 3644,
      "ĠCorporation": 3645,
      "ebruary": 3646,
      "64": 3647,
      "98": 3648,
      "Life": 3649,
      "North": 3650,
      "Pol": 3651,
      "Picathartes": 3652,
      "Tom": 3653,
      "bon": 3654,
      "ga": 3655,
      "ns": 3656,
      "ui": 3657,
      "inot": 3658,
      "inburgh": 3659,
      "edes": 3660,
      "orph": 3661,
      "alu": 3662,
      "ĠLev": 3663,
      "Ġsugg": 3664,
      "Ġfa": 3665,
      "ilion": 3666,
      "ete": 3667,
      "ands": 3668,
      "1945": 3669,
      "amilies": 3670,
      "ĠBay": 3671,
      "Ġbeing": 3672,
      "Ġpat": 3673,
      "ĠGil": 3674,
      "ersdorf": 3675,
      "ĠHistor": 3676,
      "Ġtest": 3677,
      "idi": 3678,
      "ĠEsp": 3679,
      "ĠJer": 3680,
      "osoph": 3681,
      "ume": 3682,
      "adel": 3683,
      "ĠStra": 3684,
      "Ġlanguage": 3685,
      "apolis": 3686,
      "eller": 3687,
      "ĠMaria": 3688,
      "achus": 3689,
      "azine": 3690,
      "erme": 3691,
      "Ġsequ": 3692,
      "ĠAsiatic": 3693,
      "ĠMonte": 3694,
      "Art": 3695,
      "ĠAbd": 3696,
      "Ġtraits": 3697,
      "ĠRocca": 3698,
      "ustrations": 3699,
      "ĠSteven": 3700,
      "ĠObserv": 3701,
      "recht": 3702,
      "ĠJonathan": 3703,
      "Im": 3704,
      "Ros": 3705,
      "SS": 3706,
      "Wal": 3707,
      "col": 3708,
      "ji": 3709,
      "wa": 3710,
      "zh": 3711,
      "enidae": 3712,
      "onal": 3713,
      "ĠSu": 3714,
      "arp": 3715,
      "arr": 3716,
      "ĠTem": 3717,
      "ilar": 3718,
      "icul": 3719,
      "icism": 3720,
      "ĠMah": 3721,
      "ioni": 3722,
      "ĠBal": 3723,
      "ela": 3724,
      "Ġdevelop": 3725,
      "Ġ1959": 3726,
      "ersey": 3727,
      "ĠDem": 3728,
      "Ġtype": 3729,
      "idence": 3730,
      "ĠJersey": 3731,
      "lab": 3732,
      "ader": 3733,
      "acy": 3734,
      "sonian": 3735,
      "Ġprof": 3736,
      "ĠZo": 3737,
      "Ġ1962": 3738,
      "ungen": 3739,
      "Ġ58": 3740,
      "1987": 3741,
      "ĠHarper": 3742,
      "Pseudoph": 3743,
      "ĠJanuary": 3744,
      "ĠOfficial": 3745,
      "Ġdescriptions": 3746,
      "ĠLimited": 3747,
      "html": 3748,
      "Ġimportant": 3749,
      "ĠAnthony": 3750,
      "enezuel": 3751,
      "92": 3752,
      "IA": 3753,
      "fort": 3754,
      "gra": 3755,
      "ires": 3756,
      "ken": 3757,
      "uter": 3758,
      "ware": 3759,
      "isi": 3760,
      "eda": 3761,
      "Ġthem": 3762,
      "ĠCort": 3763,
      "ĠLin": 3764,
      "Ġair": 3765,
      "Ġbrev": 3766,
      "ĠAri": 3767,
      "ĠAsh": 3768,
      "Ġpres": 3769,
      "Ġpul": 3770,
      "Ġdom": 3771,
      "Ġdue": 3772,
      "ĠGard": 3773,
      "ured": 3774,
      "ĠDor": 3775,
      "ĠDictionary": 3776,
      "uno": 3777,
      "ĠEss": 3778,
      "iac": 3779,
      "utsch": 3780,
      "ĠKim": 3781,
      "uba": 3782,
      "ovÃ¡": 3783,
      "ava": 3784,
      "aval": 3785,
      "ĠChase": 3786,
      "onta": 3787,
      "anges": 3788,
      "ologie": 3789,
      "Ġborder": 3790,
      "ika": 3791,
      "ĠWiley": 3792,
      "ribb": 3793,
      "ultan": 3794,
      "Phryn": 3795,
      "shall": 3796,
      "Ġphotos": 3797,
      "Ġcommun": 3798,
      "ĠPapers": 3799,
      "Ġusing": 3800,
      "yllene": 3801,
      "ĠModel": 3802,
      "ĠNaval": 3803,
      "Lepidoptera": 3804,
      "Verlag": 3805,
      "66": 3806,
      "Can": 3807,
      "Col": 3808,
      "DA": 3809,
      "Di": 3810,
      "Hill": 3811,
      "IN": 3812,
      "Sc": 3813,
      "She": 3814,
      "xy": 3815,
      "yter": 3816,
      "ÅĤ": 3817,
      "ÅĦ": 3818,
      "Ġest": 3819,
      "enko": 3820,
      "ĠCape": 3821,
      "orne": 3822,
      "orts": 3823,
      "ares": 3824,
      "ĠRam": 3825,
      "ĠLo": 3826,
      "Ġside": 3827,
      "Ġinst": 3828,
      "ĠPri": 3829,
      "itte": 3830,
      "ĠMy": 3831,
      "ĠMos": 3832,
      "ĠMoh": 3833,
      "1932": 3834,
      "ĠAh": 3835,
      "roph": 3836,
      "ĠBrazil": 3837,
      "Ġdie": 3838,
      "urther": 3839,
      "erside": 3840,
      "ĠHor": 3841,
      "ĠDar": 3842,
      "ĠNa": 3843,
      "ĠNob": 3844,
      "ento": 3845,
      "ulu": 3846,
      "ullet": 3847,
      "ĠUr": 3848,
      "Ġhistorical": 3849,
      "Ġnov": 3850,
      "Ġnow": 3851,
      "Ġnumber": 3852,
      "lip": 3853,
      "Ġvis": 3854,
      "Ġvolume": 3855,
      "ineus": 3856,
      "eva": 3857,
      "Ġrele": 3858,
      "estra": 3859,
      "aka": 3860,
      "ĠAnimal": 3861,
      "Ġstates": 3862,
      "Ġasteroid": 3863,
      "igns": 3864,
      "Ġorgan": 3865,
      "ographs": 3866,
      "Ġ2013": 3867,
      "Phys": 3868,
      "1985": 3869,
      "aft": 3870,
      "Ġconc": 3871,
      "ramm": 3872,
      "terfly": 3873,
      "ĠMartino": 3874,
      "ĠArchive": 3875,
      "ĠArchives": 3876,
      "airs": 3877,
      "III": 3878,
      "ĠImp": 3879,
      "Ġstudies": 3880,
      "plement": 3881,
      "iterature": 3882,
      "ĠSamuel": 3883,
      "Ġofficial": 3884,
      "ĠPenins": 3885,
      "ĠGreek": 3886,
      "Ġconsidered": 3887,
      "lectronic": 3888,
      "95": 3889,
      "Be": 3890,
      "Der": 3891,
      "Mc": 3892,
      "Pp": 3893,
      "ei": 3894,
      "gi": 3895,
      "hard": 3896,
      "rate": 3897,
      "right": 3898,
      "vo": 3899,
      "yla": 3900,
      "ÑĢ": 3901,
      "Ġ+": 3902,
      "Ġang": 3903,
      "anus": 3904,
      "onst": 3905,
      "read": 3906,
      "pel": 3907,
      "ĠCur": 3908,
      "ĠCribb": 3909,
      "alph": 3910,
      "allow": 3911,
      "arb": 3912,
      "ĠRol": 3913,
      "ĠTime": 3914,
      "Ġsil": 3915,
      "Ġaur": 3916,
      "amber": 3917,
      "Ġprim": 3918,
      "Ġdocument": 3919,
      "ĠGary": 3920,
      "ĠHigh": 3921,
      "ĠDatabase": 3922,
      "ĠDigital": 3923,
      "Ġtr": 3924,
      "ĠNeb": 3925,
      "Ġcoc": 3926,
      "ids": 3927,
      "Ġmet": 3928,
      "Ġmember": 3929,
      "iaceae": 3930,
      "head": 3931,
      "imel": 3932,
      "lood": 3933,
      "ĠKong": 3934,
      "ĠVinc": 3935,
      "ĠStre": 3936,
      "ĠYear": 3937,
      "1991": 3938,
      "ĠChris": 3939,
      "ibet": 3940,
      "ternum": 3941,
      "iko": 3942,
      "Ġ1960": 3943,
      "Ġ1963": 3944,
      "ampson": 3945,
      "inds": 3946,
      "rows": 3947,
      "itta": 3948,
      "1986": 3949,
      "ĠSpanish": 3950,
      "ĠDef": 3951,
      "Ġyellow": 3952,
      "active": 3953,
      "ĠCentury": 3954,
      "ĠExt": 3955,
      "gency": 3956,
      "oxestia": 3957,
      "ischen": 3958,
      "ĠCommon": 3959,
      "ountain": 3960,
      "ĠOnt": 3961,
      "Ġinterview": 3962,
      "Ġappro": 3963,
      "aliidae": 3964,
      "Ġsouthern": 3965,
      "ĠMassachus": 3966,
      "abblers": 3967,
      "ogeography": 3968,
      "Coleoxestia": 3969,
      "Nyssodrysternum": 3970,
      "pdf": 3971,
      "ĠGruyter": 3972,
      "ĠViolin": 3973,
      "ĠSwanborough": 3974,
      "Megacyllene": 3975,
      "ĠMassachusetts": 3976,
      "520": 3977,
      "Aust": 3978,
      "Bly": 3979,
      "Cont": 3980,
      "Cast": 3981,
      "IUCN": 3982,
      "Min": 3983,
      "Mil": 3984,
      "ON": 3985,
      "con": 3986,
      "iqu": 3987,
      "iÃ¨": 3988,
      "key": 3989,
      "ni": 3990,
      "pts": 3991,
      "sa": 3992,
      "tain": 3993,
      "uff": 3994,
      "worth": 3995,
      "esi": 3996,
      "esch": 3997,
      "isoma": 3998,
      "ati": 3999,
      "ĠSen": 4000,
      "ĠSol": 4001,
      "ĠSib": 4002,
      "ĠSpecial": 4003,
      "Ġthreatened": 4004,
      "Ġfree": 4005,
      "ĠIvan": 4006,
      "leg": 4007,
      "ĠPost": 4008,
      "andra": 4009,
      "ĠMB": 4010,
      "ĠMic": 4011,
      "day": 4012,
      "Ġissu": 4013,
      "olt": 4014,
      "ĠBra": 4015,
      "ĠBos": 4016,
      "ĠBirds": 4017,
      "Ġbei": 4018,
      "Ġdev": 4019,
      "ĠDiv": 4020,
      "Ġtranslation": 4021,
      "ĠNot": 4022,
      "ĠNetwork": 4023,
      "Ġcross": 4024,
      "ĠWolf": 4025,
      "ĠEp": 4026,
      "ummer": 4027,
      "ularis": 4028,
      "iglio": 4029,
      "lah": 4030,
      "cean": 4031,
      "Ġvir": 4032,
      "Ġvolumes": 4033,
      "****": 4034,
      "Ġ31": 4035,
      "ĠEnd": 4036,
      "ĠEnvironment": 4037,
      "ahn": 4038,
      "ĠProv": 4039,
      "ashi": 4040,
      "ĠDecember": 4041,
      "onaut": 4042,
      "ĠScientific": 4043,
      "Ġphys": 4044,
      "ĠToronto": 4045,
      "ĠTimaliidae": 4046,
      "1965": 4047,
      "Ġobserv": 4048,
      "ĠEarliest": 4049,
      "forman": 4050,
      "ĠRecords": 4051,
      "ĠApril": 4052,
      "Ġmeas": 4053,
      "Ġnorthern": 4054,
      "Revised": 4055,
      "ĠCosta": 4056,
      "Ġcurrent": 4057,
      "ĠFlorida": 4058,
      "Aneflomorpha": 4059,
      "ĠPietro": 4060,
      "ationships": 4061,
      "Ġlarvae": 4062,
      "ĠSeptember": 4063,
      "ulletin": 4064,
      "Blyth": 4065,
      "Goe": 4066,
      "Mich": 4067,
      "Oz": 4068,
      "Ost": 4069,
      "nes": 4070,
      "va": 4071,
      "went": 4072,
      "west": 4073,
      "wald": 4074,
      "Ã¬": 4075,
      "Ð¸": 4076,
      "Ñģ": 4077,
      "Ġ==": 4078,
      "erd": 4079,
      "Ġoper": 4080,
      "rees": 4081,
      "ĠCra": 4082,
      "ĠCav": 4083,
      "ĠCant": 4084,
      "ĠCrit": 4085,
      "ĠCrow": 4086,
      "ally": 4087,
      "ĠRay": 4088,
      "ĠTony": 4089,
      "Ġsci": 4090,
      "Ġfil": 4091,
      "Ġintroduction": 4092,
      "icum": 4093,
      "ĠPage": 4094,
      "ĠAward": 4095,
      "ches": 4096,
      "chia": 4097,
      "rog": 4098,
      "ĠBon": 4099,
      "Ġtax": 4100,
      "osybra": 4101,
      "ump": 4102,
      "imi": 4103,
      "ĠKent": 4104,
      "Ġ100": 4105,
      "odd": 4106,
      "Ġnames": 4107,
      "aga": 4108,
      "lie": 4109,
      "lian": 4110,
      "phal": 4111,
      "phract": 4112,
      "Ġlat": 4113,
      "ĠInternet": 4114,
      "ability": 4115,
      "ocuments": 4116,
      "egg": 4117,
      "upp": 4118,
      "ourt": 4119,
      "merus": 4120,
      "Ġmunicipality": 4121,
      "perim": 4122,
      "enness": 4123,
      "ĠReich": 4124,
      "ribut": 4125,
      "linois": 4126,
      "rise": 4127,
      "ĠCentre": 4128,
      "Ġadv": 4129,
      "ĠCoun": 4130,
      "ĠCount": 4131,
      "ĠMichigan": 4132,
      "Ġconsists": 4133,
      "Ġrecent": 4134,
      "Ġamong": 4135,
      "Ġmodern": 4136,
      "Ġcentury": 4137,
      "ĠFrankf": 4138,
      "ĠBlackwell": 4139,
      "Ġdescription": 4140,
      "Ġepid": 4141,
      "ĠIllinois": 4142,
      "ĠProfile": 4143,
      "athemat": 4144,
      "Ġwritten": 4145,
      "Toronto": 4146,
      "oschema": 4147,
      "ĠEducation": 4148,
      "Cosmisoma": 4149,
      "ĠHawaii": 4150,
      "ilionidae": 4151,
      "Goeph": 4152,
      "AN": 4153,
      "Academic": 4154,
      "Bo": 4155,
      "Babblers": 4156,
      "Cyc": 4157,
      "Dav": 4158,
      "Graw": 4159,
      "Mic": 4160,
      "Pet": 4161,
      "TI": 4162,
      "bi": 4163,
      "ban": 4164,
      "bre": 4165,
      "donald": 4166,
      "nold": 4167,
      "ule": 4168,
      "uit": 4169,
      "eding": 4170,
      "enh": 4171,
      "ĠSar": 4172,
      "ĠCz": 4173,
      "ĠCle": 4174,
      "ĠTach": 4175,
      "Ġsw": 4176,
      "ĠIt": 4177,
      "Ġinv": 4178,
      "ĠMedia": 4179,
      "usan": 4180,
      "ĠAk": 4181,
      "Ġbefore": 4182,
      "Ġbeetles": 4183,
      "Ġpress": 4184,
      "ĠGul": 4185,
      "ĠHon": 4186,
      "ĠHemi": 4187,
      "ĠHaven": 4188,
      "Ġtit": 4189,
      "Ġtop": 4190,
      "ĠWay": 4191,
      "ĠField": 4192,
      "ention": 4193,
      "imate": 4194,
      "ression": 4195,
      "liff": 4196,
      "phib": 4197,
      "ĠYale": 4198,
      "essor": 4199,
      "ĠMarshall": 4200,
      "ynter": 4201,
      "ĠShÅį": 4202,
      "issance": 4203,
      "oths": 4204,
      "ĠDavis": 4205,
      "1983": 4206,
      "Ġnotes": 4207,
      "ughlin": 4208,
      "rateg": 4209,
      "Ġbutterfly": 4210,
      "ĠNorthern": 4211,
      "Ġdistribution": 4212,
      "ĠInstitution": 4213,
      "ischer": 4214,
      "ÅĻÃŃ": 4215,
      "Ġeven": 4216,
      "ometimes": 4217,
      "Ġregion": 4218,
      "ĠPatrick": 4219,
      "ĠEconom": 4220,
      "...": 4221,
      "Ġrelated": 4222,
      "Ġrevised": 4223,
      "Agapan": 4224,
      "ĠChronicles": 4225,
      "minist": 4226,
      "Reprinted": 4227,
      "Hippopsis": 4228,
      "Ġsingle": 4229,
      "Ġvarious": 4230,
      "ĠAviation": 4231,
      "opagurus": 4232,
      "ĠMalaysia": 4233,
      "phractidae": 4234,
      "ĠHemiphractidae": 4235,
      "#\"": 4236,
      "AF": 4237,
      "Gar": 4238,
      "Gory": 4239,
      "Rich": 4240,
      "Vol": 4241,
      "War": 4242,
      "Web": 4243,
      "gart": 4244,
      "hr": 4245,
      "nass": 4246,
      "tribus": 4247,
      "wick": 4248,
      "zig": 4249,
      "eni": 4250,
      "ĠSil": 4251,
      "reh": 4252,
      "rep": 4253,
      "ĠCad": 4254,
      "oria": 4255,
      "ĠRiv": 4256,
      "ĠRoss": 4257,
      "Ġsol": 4258,
      "Ġfre": 4259,
      "Ġfasci": 4260,
      "icular": 4261,
      "Ġbibliography": 4262,
      "ĠPed": 4263,
      "usa": 4264,
      "ĠAge": 4265,
      "chb": 4266,
      "roc": 4267,
      "ĠBat": 4268,
      "ĠBoston": 4269,
      "ĠGods": 4270,
      "ĠGabri": 4271,
      "ĠData": 4272,
      "ĠDire": 4273,
      "Ġtem": 4274,
      "ĠNich": 4275,
      "idel": 4276,
      "Ġmemb": 4277,
      "ĠFour": 4278,
      "ĠJos": 4279,
      "Ġwon": 4280,
      "uma": 4281,
      "ulus": 4282,
      "cture": 4283,
      "ĠOh": 4284,
      "ĠUp": 4285,
      "ubner": 4286,
      "Ġhistor": 4287,
      "riev": 4288,
      "ĠUnion": 4289,
      "ĠIntroduction": 4290,
      "epend": 4291,
      "ocus": 4292,
      "ocerus": 4293,
      "ocladius": 4294,
      "ips": 4295,
      "Ġstri": 4296,
      "ĠAll": 4297,
      "ĠMarine": 4298,
      "ylon": 4299,
      "peri": 4300,
      "ĠEditions": 4301,
      "izations": 4302,
      "ike": 4303,
      "Christ": 4304,
      "Ġren": 4305,
      "Ġrub": 4306,
      "atters": 4307,
      "Ġshell": 4308,
      "1980": 4309,
      "ĠComplete": 4310,
      "ĠMcLa": 4311,
      "ĠResources": 4312,
      "Ġusually": 4313,
      "aculatus": 4314,
      "Reprint": 4315,
      "ustrated": 4316,
      "Ġplayed": 4317,
      "Smith": 4318,
      "ĠJaneiro": 4319,
      "oplon": 4320,
      "Ġmethods": 4321,
      "ĠKorea": 4322,
      "ĠKorean": 4323,
      "ĠWildlife": 4324,
      "ĠVarley": 4325,
      "Ġdescribed": 4326,
      "ĠSingapore": 4327,
      "rotheca": 4328,
      "ĠVirginia": 4329,
      "Ġcocoon": 4330,
      "ĠVincent": 4331,
      "Goephanes": 4332,
      "Gorybia": 4333,
      "ĠMcLaughlin": 4334,
      ")*\"": 4335,
      "Collins": 4336,
      "Met": 4337,
      "Say": 4338,
      "bio": 4339,
      "bour": 4340,
      "je": 4341,
      "lt": 4342,
      "oi": 4343,
      "oice": 4344,
      "par": 4345,
      "pro": 4346,
      "ters": 4347,
      "wer": 4348,
      "yb": 4349,
      "Â²": 4350,
      "Ã¢": 4351,
      "ÅĪ": 4352,
      "ãĤ": 4353,
      "Ġif": 4354,
      "Ġ===": 4355,
      "eric": 4356,
      "esh": 4357,
      "inis": 4358,
      "ĠSel": 4359,
      "ĠSom": 4360,
      "ĠTa": 4361,
      "ĠTerme": 4362,
      "ĠLam": 4363,
      "ĠLos": 4364,
      "ĠLanguage": 4365,
      "Ġfield": 4366,
      "Ġblack": 4367,
      "ĠPlant": 4368,
      "ĠPtych": 4369,
      "ĠPrinting": 4370,
      "etidae": 4371,
      "ĠMiller": 4372,
      "cht": 4373,
      "ases": 4374,
      "elo": 4375,
      "Ġbeca": 4376,
      "Ġport": 4377,
      "Ġdark": 4378,
      "Ġ1950": 4379,
      "Ġ1957": 4380,
      "ĠGre": 4381,
      "ĠHan": 4382,
      "Ġtree": 4383,
      "Ġcovered": 4384,
      "Ġmag": 4385,
      "Ġmuch": 4386,
      "ĠWill": 4387,
      "ĠFree": 4388,
      "opf": 4389,
      "imp": 4390,
      "ĠOctober": 4391,
      "uto": 4392,
      "loom": 4393,
      "adena": 4394,
      "irk": 4395,
      "acks": 4396,
      "iane": 4397,
      "lying": 4398,
      "Ġref": 4399,
      "Ġformer": 4400,
      "Ġdec": 4401,
      "ĠTheory": 4402,
      "Ġstructure": 4403,
      "oret": 4404,
      "Ġany": 4405,
      "Ġleast": 4406,
      "ĠSchiffer": 4407,
      "ĠEnergy": 4408,
      "ĠJohns": 4409,
      "ighters": 4410,
      "ĠConc": 4411,
      "ĠGeorg": 4412,
      "ermis": 4413,
      "Ġarm": 4414,
      "ĠMacdonald": 4415,
      "ĠCanadian": 4416,
      "Ġevolution": 4417,
      "gypt": 4418,
      "ĠFisheries": 4419,
      "Ġdifferences": 4420,
      "ĠCapo": 4421,
      "ĠClassical": 4422,
      "ĠFaber": 4423,
      "adenidae": 4424,
      "ĠEngland": 4425,
      "ĠMidland": 4426,
      "ĠAeronaut": 4427,
      "Ġmethod": 4428,
      "Gastrotheca": 4429,
      "Ġcharacter": 4430,
      "Pseudophilautus": 4431,
      "formance": 4432,
      "Agapanthia": 4433,
      "ĠPtychadenidae": 4434,
      "Ġbecause": 4435,
      "93": 4436,
      "Cent": 4437,
      "IV": 4438,
      "Japan": 4439,
      "Mont": 4440,
      "Ptych": 4441,
      "Qu": 4442,
      "SE": 4443,
      "Ġeng": 4444,
      "Ġopp": 4445,
      "ately": 4446,
      "ĠSn": 4447,
      "ream": 4448,
      "ĠCamb": 4449,
      "ĠCup": 4450,
      "ĠCrus": 4451,
      "ĠTok": 4452,
      "Ġsolution": 4453,
      "Ġful": 4454,
      "Ġfamilies": 4455,
      "ĠPin": 4456,
      "ĠPon": 4457,
      "ĠPower": 4458,
      "anding": 4459,
      "itus": 4460,
      "ĠMA": 4461,
      "ĠManning": 4462,
      "ĠAut": 4463,
      "ols": 4464,
      "ĠBudd": 4465,
      "Ġpass": 4466,
      "ĠGa": 4467,
      "urg": 4468,
      "ĠHung": 4469,
      "Ġtropical": 4470,
      "Ġcy": 4471,
      "Ġcray": 4472,
      "ĠWynter": 4473,
      "ĠFle": 4474,
      "Ġwestern": 4475,
      "opia": 4476,
      "lach": 4477,
      "ĠOv": 4478,
      "ĠOber": 4479,
      "utton": 4480,
      "ĠKat": 4481,
      "ĠKegan": 4482,
      "eman": 4483,
      "adt": 4484,
      "ĠVill": 4485,
      "rix": 4486,
      "Ġnon": 4487,
      "ague": 4488,
      "phony": 4489,
      "Ġlarg": 4490,
      "ified": 4491,
      "Ġforests": 4492,
      "antin": 4493,
      "astrop": 4494,
      "Ġstill": 4495,
      "Ġ23": 4496,
      "ĠAlt": 4497,
      "ebrew": 4498,
      "100": 4499,
      "ruit": 4500,
      "ĠSchuster": 4501,
      "ĠSann": 4502,
      "ĠEnt": 4503,
      "ĠBarry": 4504,
      "ethes": 4505,
      "50691": 4506,
      "Ġresp": 4507,
      "ĠScott": 4508,
      "Åįki": 4509,
      "Ġflows": 4510,
      "ĠCollege": 4511,
      "leptus": 4512,
      "ĠRepublic": 4513,
      "ĠEvans": 4514,
      "Ġcir": 4515,
      "ĠRussia": 4516,
      "uttgart": 4517,
      "Ġaccount": 4518,
      "phaer": 4519,
      "ĠBelg": 4520,
      "Psyrassa": 4521,
      "ĠSubtribus": 4522,
      "ĠNorman": 4523,
      "Ġsupport": 4524,
      "Atglen": 4525,
      "ĠLawrence": 4526,
      "Parts": 4527,
      "ĠWinchester": 4528,
      "ĠSovere": 4529,
      "ospace": 4530,
      "oftware": 4531,
      "Ġappear": 4532,
      "ĠPierre": 4533,
      "ĠPhysics": 4534,
      "Methia": 4535,
      "Ġ5850691": 4536,
      "enezuela": 4537,
      "ĠTachinidae": 4538,
      "Ptychadena": 4539,
      "Ġcrayfish": 4540,
      "\":": 4541,
      "::": 4542,
      "BS": 4543,
      "DE": 4544,
      "Er": 4545,
      "Isch": 4546,
      "Jinn": 4547,
      "Lis": 4548,
      "ML": 4549,
      "May": 4550,
      "Ser": 4551,
      "can": 4552,
      "dam": 4553,
      "kan": 4554,
      "known": 4555,
      "ning": 4556,
      "oun": 4557,
      "pap": 4558,
      "rons": 4559,
      "tÅįki": 4560,
      "Ã«": 4561,
      "ÄĮ": 4562,
      "Ðµ": 4563,
      "enbach": 4564,
      "ĠSab": 4565,
      "ĠCe": 4566,
      "orum": 4567,
      "alf": 4568,
      "ĠLamb": 4569,
      "Ġsec": 4570,
      "Ġsym": 4571,
      "Ġsearch": 4572,
      "ilia": 4573,
      "ĠIss": 4574,
      "ĠIsh": 4575,
      "Ġaut": 4576,
      "ĠPad": 4577,
      "ĠMain": 4578,
      "ĠArab": 4579,
      "ĠBol": 4580,
      "Ġdown": 4581,
      "ĠGod": 4582,
      "ĠHampson": 4583,
      "Ġtone": 4584,
      "uns": 4585,
      "ido": 4586,
      "Ġmel": 4587,
      "ĠFebruary": 4588,
      "ĠJuan": 4589,
      "osum": 4590,
      "igin": 4591,
      "ador": 4592,
      "Ġhel": 4593,
      "Ġnational": 4594,
      "Ġnative": 4595,
      "ĠInv": 4596,
      "rang": 4597,
      "ĠChan": 4598,
      "antum": 4599,
      "ellus": 4600,
      "Ġstart": 4601,
      "Ġ24": 4602,
      "tsch": 4603,
      "Chapel": 4604,
      "ĠWarner": 4605,
      "Ġgenera": 4606,
      "ocho": 4607,
      "ochroma": 4608,
      "ĠSpringer": 4609,
      "altes": 4610,
      "Ġcomplet": 4611,
      "Ġyou": 4612,
      "overy": 4613,
      "cluding": 4614,
      "Ġ87": 4615,
      "Ġround": 4616,
      "Ġparts": 4617,
      "Ġflowering": 4618,
      "ĠForest": 4619,
      "ĠPhilosoph": 4620,
      "alaemus": 4621,
      "raben": 4622,
      "ĠArmour": 4623,
      "ĠEarly": 4624,
      "Pseudoc": 4625,
      "ĠPetrop": 4626,
      "Ġpeople": 4627,
      "ĠDelhi": 4628,
      "Ġaddition": 4629,
      "Ġequation": 4630,
      "ĠConservation": 4631,
      "Ġpopulation": 4632,
      "ĠSoviet": 4633,
      "ĠMakocho": 4634,
      "ĠDouglas": 4635,
      "ĠAstron": 4636,
      "ĠRoger": 4637,
      "Ġchildren": 4638,
      "emporary": 4639,
      "Ġdiscussion": 4640,
      "Ġprevious": 4641,
      "ĠSilvano": 4642,
      "Physalaemus": 4643,
      "ĠShÅįtÅįki": 4644,
      "rehensive": 4645,
      "ĠSovereigns": 4646,
      "JinnÅį": 4647,
      ",*": 4648,
      "--": 4649,
      "72": 4650,
      "Bis": 4651,
      "Bot": 4652,
      "Hardcover": 4653,
      "Other": 4654,
      "Red": 4655,
      "Some": 4656,
      "Yale": 4657,
      "cle": 4658,
      "family": 4659,
      "ipe": 4660,
      "last": 4661,
      "nu": 4662,
      "pa": 4663,
      "pret": 4664,
      "Ġut": 4665,
      "eration": 4666,
      "inary": 4667,
      "ĠSev": 4668,
      "rec": 4669,
      "Ġtheory": 4670,
      "ĠCop": 4671,
      "ĠRic": 4672,
      "ĠRalph": 4673,
      "ĠLuc": 4674,
      "Ġsometimes": 4675,
      "Ġfig": 4676,
      "ilio": 4677,
      "icy": 4678,
      "Ġbus": 4679,
      "ĠPav": 4680,
      "ĠPenguin": 4681,
      "itter": 4682,
      "itage": 4683,
      "ĠMot": 4684,
      "ĠMir": 4685,
      "ĠMiss": 4686,
      "ĠAz": 4687,
      "ĠBry": 4688,
      "asel": 4689,
      "eli": 4690,
      "elis": 4691,
      "Ġpo": 4692,
      "Ġpup": 4693,
      "Ġdraw": 4694,
      "Ġ1930": 4695,
      "omar": 4696,
      "ersh": 4697,
      "ĠDip": 4698,
      "Ġcast": 4699,
      "ĠFar": 4700,
      "ĠFab": 4701,
      "ĠFall": 4702,
      "ĠEle": 4703,
      "osis": 4704,
      "Ġwar": 4705,
      "rest": 4706,
      "ĠOd": 4707,
      "utes": 4708,
      "ĠKun": 4709,
      "ĠVeg": 4710,
      "ĠVideo": 4711,
      "Ġhuman": 4712,
      "=====": 4713,
      "ironom": 4714,
      "agen": 4715,
      "phia": 4716,
      "acc": 4717,
      "Ġgreat": 4718,
      "Ġlim": 4719,
      "Ġlanguages": 4720,
      "ĠInsect": 4721,
      "ineata": 4722,
      "Ġdeg": 4723,
      "ontonia": 4724,
      "aker": 4725,
      "Ġstatus": 4726,
      "Ġ28": 4727,
      "Ġallow": 4728,
      "ended": 4729,
      "obi": 4730,
      "obius": 4731,
      "Ġanal": 4732,
      "Ġprote": 4733,
      "Ġproduced": 4734,
      "Ġorder": 4735,
      "Ġ90": 4736,
      "Ġchem": 4737,
      "Ġcheck": 4738,
      "Anaux": 4739,
      "ynast": 4740,
      "very": 4741,
      "Philautus": 4742,
      "1988": 4743,
      "Edinburgh": 4744,
      "stitution": 4745,
      "Ġimages": 4746,
      "ĠBiology": 4747,
      "rush": 4748,
      "oeum": 4749,
      "ĠKnight": 4750,
      "ĠConstantine": 4751,
      "Ġpolit": 4752,
      "ĠMiddle": 4753,
      "ĠMike": 4754,
      "ĠLindley": 4755,
      "oscow": 4756,
      "ĠLabor": 4757,
      "ĠDouglass": 4758,
      "Ġrange": 4759,
      "Ġbroad": 4760,
      "Ġbehav": 4761,
      "ĠClarendon": 4762,
      "gentina": 4763,
      "ĠGunston": 4764,
      "zabeth": 4765,
      "iglione": 4766,
      "Obrium": 4767,
      "Ġsepar": 4768,
      "ĠCrowood": 4769,
      "athematical": 4770,
      "Ast": 4771,
      "Bur": 4772,
      "DC": 4773,
      "Lib": 4774,
      "Natural": 4775,
      "Science": 4776,
      "TO": 4777,
      "band": 4778,
      "cz": 4779,
      "eus": 4780,
      "fasci": 4781,
      "mb": 4782,
      "rine": 4783,
      "wen": 4784,
      "wing": 4785,
      "zer": 4786,
      "Å«": 4787,
      "Ð½": 4788,
      "Ġunt": 4789,
      "edo": 4790,
      "ĠSand": 4791,
      "Ġthose": 4792,
      "ĠCath": 4793,
      "ĠCase": 4794,
      "ĠCulture": 4795,
      "orus": 4796,
      "arium": 4797,
      "arative": 4798,
      "ĠTro": 4799,
      "ĠLar": 4800,
      "Ġfrass": 4801,
      "illi": 4802,
      "Ġinfl": 4803,
      "istoire": 4804,
      "ĠPy": 4805,
      "ĠPict": 4806,
      "etics": 4807,
      "ĠAct": 4808,
      "chet": 4809,
      "rove": 4810,
      "Ġpur": 4811,
      "Ġpseud": 4812,
      "ĠHend": 4813,
      "Ġtri": 4814,
      "Ġmap": 4815,
      "rai": 4816,
      "ĠWho": 4817,
      "ĠFri": 4818,
      "ĠEug": 4819,
      "ĠJun": 4820,
      "Ġwest": 4821,
      "igo": 4822,
      "uture": 4823,
      "ceed": 4824,
      "ĠKr": 4825,
      "ĠKod": 4826,
      "emo": 4827,
      "Ġhost": 4828,
      "ĠUnter": 4829,
      "Ġlast": 4830,
      "lym": 4831,
      "Ġrequ": 4832,
      "ocal": 4833,
      "ipzig": 4834,
      "ĠAnalysis": 4835,
      "ĠPublic": 4836,
      "ongi": 4837,
      "Ġeditor": 4838,
      "ourse": 4839,
      "ĠAlc": 4840,
      "Ġ33": 4841,
      "ĠOrgan": 4842,
      "1981": 4843,
      "Ġconf": 4844,
      "Ġconst": 4845,
      "urot": 4846,
      "opsicon": 4847,
      "ĠQue": 4848,
      "Ġ1948": 4849,
      "ĠMichel": 4850,
      "ought": 4851,
      "ĠPapilionidae": 4852,
      "Ã¨s": 4853,
      "ĠSoutheast": 4854,
      "ĠCommission": 4855,
      "Ġjust": 4856,
      "ĠLaur": 4857,
      "Ġzur": 4858,
      "Ġrare": 4859,
      "ĠRecord": 4860,
      "Ġsimp": 4861,
      "ĠTrubner": 4862,
      "rief": 4863,
      "Ġsystems": 4864,
      "ĠSteve": 4865,
      "Ġillustrations": 4866,
      "ĠSecret": 4867,
      "obatrachus": 4868,
      "ĠAngeles": 4869,
      "However": 4870,
      "Ġsituations": 4871,
      "ĠCarlos": 4872,
      "Accessed": 4873,
      "Ġdetailed": 4874,
      "ĠFolk": 4875,
      "Ġmargin": 4876,
      "ĠImperial": 4877,
      "Ġsuggest": 4878,
      "Bisaltes": 4879,
      "300": 4880,
      ":*": 4881,
      "AA": 4882,
      "EM": 4883,
      "Europe": 4884,
      "Les": 4885,
      "Mollusca": 4886,
      "Nov": 4887,
      "Nih": 4888,
      "Och": 4889,
      "Putnam": 4890,
      "Pridgeon": 4891,
      "We": 4892,
      "action": 4893,
      "eins": 4894,
      "iph": 4895,
      "iques": 4896,
      "lborough": 4897,
      "nice": 4898,
      "uals": 4899,
      "wh": 4900,
      "ways": 4901,
      "Ġ,": 4902,
      "edetidae": 4903,
      "enes": 4904,
      "enus": 4905,
      "onym": 4906,
      "ĠSir": 4907,
      "ĠSultan": 4908,
      "ĠCab": 4909,
      "alin": 4910,
      "ĠRome": 4911,
      "ĠRaf": 4912,
      "ĠRonald": 4913,
      "ĠTs": 4914,
      "ils": 4915,
      "Ġintro": 4916,
      "istr": 4917,
      "ĠPub": 4918,
      "ĠPag": 4919,
      "ĠPear": 4920,
      "ĠPridgeon": 4921,
      "itan": 4922,
      "itive": 4923,
      "ĠMun": 4924,
      "ĠMov": 4925,
      "1979": 4926,
      "ĠAqu": 4927,
      "ĠBus": 4928,
      "ĠBart": 4929,
      "Ġpost": 4930,
      "Ġprin": 4931,
      "Ġdiss": 4932,
      "Ġ1913": 4933,
      "ĠGor": 4934,
      "omerus": 4935,
      "Ġcatal": 4936,
      "idium": 4937,
      "Ġmake": 4938,
      "ĠFront": 4939,
      "ĠEt": 4940,
      "ĠEver": 4941,
      "ĠEgypt": 4942,
      "ĠJu": 4943,
      "iae": 4944,
      "igma": 4945,
      "loch": 4946,
      "irth": 4947,
      "Ġnad": 4948,
      "ĠStew": 4949,
      "Ġgiven": 4950,
      "Ġless": 4951,
      "Ġloss": 4952,
      "berto": 4953,
      "ows": 4954,
      "astor": 4955,
      "Ġ26": 4956,
      "Ġproble": 4957,
      "ĠZe": 4958,
      "ĠEdit": 4959,
      "aire": 4960,
      "ampion": 4961,
      "ĠGeological": 4962,
      "alty": 4963,
      "Ġcomplex": 4964,
      "Ġseed": 4965,
      "ĠCentrol": 4966,
      "inning": 4967,
      "raska": 4968,
      "ĠManagement": 4969,
      "ĠWalker": 4970,
      "Ġscore": 4971,
      "ragon": 4972,
      "Ġindic": 4973,
      "ĠHenri": 4974,
      "Ġthroughout": 4975,
      "haus": 4976,
      "Ġsimilar": 4977,
      "Ġday": 4978,
      "Ġexplan": 4979,
      "1973": 4980,
      "Ġfeed": 4981,
      "Ġfeat": 4982,
      "ylogenetic": 4983,
      "ieval": 4984,
      "pecially": 4985,
      "ĠNicola": 4986,
      "Ġguide": 4987,
      "ĠKarl": 4988,
      "India": 4989,
      "ĠTechnology": 4990,
      "ĠHelm": 4991,
      "ĠJeffrey": 4992,
      "ĠLatin": 4993,
      "Ġfulltext": 4994,
      "ĠPolitics": 4995,
      "Ġindividual": 4996,
      "ĠKlein": 4997,
      "adelphia": 4998,
      "ĠObservatory": 4999,
      "Rosal": 5000,
      "Phrynobatrachus": 5001,
      "ittee": 5002,
      "ĠNebraska": 5003,
      "Ġmembers": 5004,
      "ĠPetropedetidae": 5005,
      "ĠCentrolenidae": 5006,
      "Baltimore": 5007,
      "EE": 5008,
      "Me": 5009,
      "Plectro": 5010,
      "Sant": 5011,
      "WW": 5012,
      "aac": 5013,
      "long": 5014,
      "loss": 5015,
      "rÃ¡": 5016,
      "Ã£": 5017,
      "Ã²": 5018,
      "Ġess": 5019,
      "Ġrad": 5020,
      "ered": 5021,
      "inosa": 5022,
      "thuis": 5023,
      "ĠSun": 5024,
      "amous": 5025,
      "ĠRud": 5026,
      "ĠRou": 5027,
      "ĠTo": 5028,
      "ĠTri": 5029,
      "ĠTrench": 5030,
      "ĠLis": 5031,
      "Ġsk": 5032,
      "Ġsl": 5033,
      "ĠIg": 5034,
      "Ġast": 5035,
      "Ġaff": 5036,
      "Ġauthor": 5037,
      "ando": 5038,
      "ĠMen": 5039,
      "ĠMeg": 5040,
      "ĠAD": 5041,
      "cha": 5042,
      "chiev": 5043,
      "ĠBad": 5044,
      "ĠBest": 5045,
      "ĠBeck": 5046,
      "asia": 5047,
      "ĠCerf": 5048,
      "Ġpil": 5049,
      "Ġpiano": 5050,
      "Ġperiod": 5051,
      "Ġdim": 5052,
      "Ġ1919": 5053,
      "Ġ1912": 5054,
      "Ġ1917": 5055,
      "Ġ1956": 5056,
      "Ġ1936": 5057,
      "Ġ1925": 5058,
      "ĠHong": 5059,
      "ĠDennis": 5060,
      "Ġmil": 5061,
      "raethes": 5062,
      "ĠWol": 5063,
      "ĠWall": 5064,
      "ĠFort": 5065,
      "osed": 5066,
      "ctu": 5067,
      "igi": 5068,
      "lott": 5069,
      "Ġlength": 5070,
      "ift": 5071,
      "eps": 5072,
      "Ġreference": 5073,
      "owell": 5074,
      "ichte": 5075,
      "iore": 5076,
      "icalis": 5077,
      "rypt": 5078,
      "Ġ29": 5079,
      "aeus": 5080,
      "ĠNews": 5081,
      "ritz": 5082,
      "cole": 5083,
      "Ang": 5084,
      "ĠJohnson": 5085,
      "annel": 5086,
      "ansas": 5087,
      "issensch": 5088,
      "ĠConf": 5089,
      "ĠConne": 5090,
      "1984": 5091,
      "oeci": 5092,
      "ĠManfred": 5093,
      "Ġ1905": 5094,
      "ĠRevolution": 5095,
      "rella": 5096,
      "ĠCastelnu": 5097,
      "ĠMaur": 5098,
      "Ġvillages": 5099,
      "ĠBernard": 5100,
      "ĠRenÃ©": 5101,
      "ĠFelder": 5102,
      "ĠPolitical": 5103,
      "Tetra": 5104,
      "Ġexample": 5105,
      "ĠLewis": 5106,
      "Walter": 5107,
      "Ostedes": 5108,
      "Cycn": 5109,
      "ĠGulf": 5110,
      "ceedings": 5111,
      "ĠCastelnuovo": 5112,
      ")==": 5113,
      ")\",": 5114,
      "App": 5115,
      "All": 5116,
      "Cor": 5117,
      "Cap": 5118,
      "Ec": 5119,
      "Ev": 5120,
      "Hex": 5121,
      "Haw": 5122,
      "Ma": 5123,
      "Not": 5124,
      "Oxy": 5125,
      "PA": 5126,
      "Plat": 5127,
      "Published": 5128,
      "Rams": 5129,
      "Second": 5130,
      "bes": 5131,
      "cav": 5132,
      "hl": 5133,
      "hy": 5134,
      "han": 5135,
      "hel": 5136,
      "nae": 5137,
      "oidea": 5138,
      "pus": 5139,
      "pent": 5140,
      "species": 5141,
      "wig": 5142,
      "Ã¸": 5143,
      "eren": 5144,
      "esia": 5145,
      "ances": 5146,
      "eday": 5147,
      "ators": 5148,
      "ĠSem": 5149,
      "ĠSak": 5150,
      "ĠSound": 5151,
      "ĠCA": 5152,
      "ĠCrem": 5153,
      "ĠRa": 5154,
      "ĠTar": 5155,
      "ĠTour": 5156,
      "ĠLight": 5157,
      "ĠIch": 5158,
      "lett": 5159,
      "icolle": 5160,
      "Ġbis": 5161,
      "Ġbooks": 5162,
      "eting": 5163,
      "ĠAff": 5164,
      "ĠAtt": 5165,
      "ĠBand": 5166,
      "ĠBall": 5167,
      "ĠBorg": 5168,
      "ĠBBC": 5169,
      "ĠBranch": 5170,
      "eland": 5171,
      "ingh": 5172,
      "Ġpal": 5173,
      "Ġpers": 5174,
      "Ġpot": 5175,
      "Ġposs": 5176,
      "Ġ1933": 5177,
      "ĠGallery": 5178,
      "ĠHugh": 5179,
      "ĠDam": 5180,
      "ĠDev": 5181,
      "Ġten": 5182,
      "Ġtreat": 5183,
      "Ġtransl": 5184,
      "ĠNumber": 5185,
      "ĠNotes": 5186,
      "Ġcla": 5187,
      "Ġcost": 5188,
      "Ġ(\"": 5189,
      "ĠWien": 5190,
      "ĠFried": 5191,
      "ostern": 5192,
      "opod": 5193,
      "utural": 5194,
      "ĠKam": 5195,
      "ĠKenn": 5196,
      "adi": 5197,
      "odice": 5198,
      "agner": 5199,
      "like": 5200,
      "Ġ-\"": 5201,
      "ovÃ¬": 5202,
      "Ġvaria": 5203,
      "iani": 5204,
      "ifera": 5205,
      "ither": 5206,
      "eppe": 5207,
      "Ġreach": 5208,
      "udes": 5209,
      "ensen": 5210,
      "ills": 5211,
      "upation": 5212,
      "ompson": 5213,
      "Ġareas": 5214,
      "Ġorb": 5215,
      "ĠSchaff": 5216,
      "ĠShin": 5217,
      "ackp": 5218,
      "ĠWars": 5219,
      "Ġ1940": 5220,
      "Ġ1943": 5221,
      "ller": 5222,
      "aelia": 5223,
      "ĠAndrÃ©": 5224,
      "ĠSerge": 5225,
      "enaissance": 5226,
      "lected": 5227,
      "Ġrecogn": 5228,
      "Encyclopedia": 5229,
      "ĠHolthuis": 5230,
      "Ġ1906": 5231,
      "escence": 5232,
      "ĠSmithsonian": 5233,
      "Ġreprint": 5234,
      "ĠPeople": 5235,
      "Ġcentral": 5236,
      "ĠPrent": 5237,
      "ĠNavy": 5238,
      "anzer": 5239,
      "ĠBenj": 5240,
      "ĠSystematics": 5241,
      "omyia": 5242,
      "ĠGrant": 5243,
      "ĠAerospace": 5244,
      "emorial": 5245,
      "cticut": 5246,
      "Ġfusc": 5247,
      "athematics": 5248,
      "alamobius": 5249,
      "ĠPlanet": 5250,
      "opterus": 5251,
      "ĠBarbara": 5252,
      "ĠMondovÃ¬": 5253,
      "Ġteam": 5254,
      "Collection": 5255,
      "ĠPraeger": 5256,
      "Ġochre": 5257,
      "ĠOntario": 5258,
      "ĠEconomics": 5259,
      "perience": 5260,
      "Ġrenamed": 5261,
      "paperback": 5262,
      "Pseudocalamobius": 5263,
      "ĠLindleyana": 5264,
      "Nihongi": 5265,
      "Cer": 5266,
      "Che": 5267,
      "Dor": 5268,
      "German": 5269,
      "Handbook": 5270,
      "Land": 5271,
      "NO": 5272,
      "Notes": 5273,
      "Og": 5274,
      "TV": 5275,
      "To": 5276,
      "ee": 5277,
      "equ": 5278,
      "gu": 5279,
      "iber": 5280,
      "ouse": 5281,
      "tail": 5282,
      "yi": 5283,
      "Äħ": 5284,
      "ãĢ": 5285,
      "ìĿ": 5286,
      "Ġ<": 5287,
      "inum": 5288,
      "anks": 5289,
      "Ġothers": 5290,
      "onica": 5291,
      "aton": 5292,
      "ĠSite": 5293,
      "reb": 5294,
      "rez": 5295,
      "ĠCru": 5296,
      "ĠComb": 5297,
      "ĠCultural": 5298,
      "ĠTibet": 5299,
      "ĠTatters": 5300,
      "ĠLiv": 5301,
      "ĠLod": 5302,
      "Ġsources": 5303,
      "illo": 5304,
      "Ġbo": 5305,
      "Ġbase": 5306,
      "Ġbicolor": 5307,
      "ĠPiano": 5308,
      "etz": 5309,
      "ĠMach": 5310,
      "usion": 5311,
      "Ġislands": 5312,
      "olic": 5313,
      "asa": 5314,
      "asi": 5315,
      "Ġplan": 5316,
      "Ġdepartment": 5317,
      "Ġ1914": 5318,
      "Ġ1958": 5319,
      "ĠGust": 5320,
      "urity": 5321,
      "ĠDeb": 5322,
      "Ġcolor": 5323,
      "Ġmaterial": 5324,
      "raf": 5325,
      "ĠWang": 5326,
      "ĠFamily": 5327,
      "oster": 5328,
      "Ġwing": 5329,
      "Ġwild": 5330,
      "ĠKo": 5331,
      "ĠKey": 5332,
      "emon": 5333,
      "emory": 5334,
      "ube": 5335,
      "agna": 5336,
      "liott": 5337,
      "ĠStat": 5338,
      "Ġles": 5339,
      "Ġland": 5340,
      "Ġview": 5341,
      "lyn": 5342,
      "abe": 5343,
      "owski": 5344,
      "quilla": 5345,
      "Ġdefe": 5346,
      "ĠPublication": 5347,
      "ĠArms": 5348,
      "ĠAllan": 5349,
      "ĠMarlborough": 5350,
      "ĠRoz": 5351,
      "International": 5352,
      "ĠZim": 5353,
      "Chase": 5354,
      "rops": 5355,
      "ographical": 5356,
      "ansha": 5357,
      "ittatus": 5358,
      "Ġresources": 5359,
      "rative": 5360,
      "ĠHarry": 5361,
      "Ġunicolor": 5362,
      "adei": 5363,
      "ietnam": 5364,
      "letto": 5365,
      "ĠQuart": 5366,
      "Ġevery": 5367,
      "oines": 5368,
      "ĠColomb": 5369,
      "ĠParnass": 5370,
      "ĠPatrim": 5371,
      "Ġacross": 5372,
      "ĠCampa": 5373,
      "unctata": 5374,
      "ĠSuper": 5375,
      "When": 5376,
      "ĠGoogle": 5377,
      "allel": 5378,
      "ĠFinland": 5379,
      "ĠRandom": 5380,
      "Ġcondu": 5381,
      "Ġstrongly": 5382,
      "Universities": 5383,
      "hibition": 5384,
      "Ġfemales": 5385,
      "ĠWorks": 5386,
      "ĠElizabeth": 5387,
      "ĠSadie": 5388,
      "ĠDivision": 5389,
      "Ġtemper": 5390,
      "Ġuntil": 5391,
      "Plectromerus": 5392,
      "Ã£o": 5393,
      "ackpole": 5394,
      "ĠPrentice": 5395,
      "ĠTattersall": 5396,
      ")**": 5397,
      "674": 5398,
      "Beb": 5399,
      "Co": 5400,
      "Columbia": 5401,
      "Do": 5402,
      "ED": 5403,
      "Eri": 5404,
      "Green": 5405,
      "Heter": 5406,
      "IR": 5407,
      "IFA": 5408,
      "Loph": 5409,
      "Poeci": 5410,
      "Sim": 5411,
      "Vel": 5412,
      "aut": 5413,
      "back": 5414,
      "do": 5415,
      "dia": 5416,
      "eastern": 5417,
      "iy": 5418,
      "jan": 5419,
      "ked": 5420,
      "ny": 5421,
      "nÃ¡": 5422,
      "rust": 5423,
      "side": 5424,
      "uor": 5425,
      "var": 5426,
      "wide": 5427,
      "Å½": 5428,
      "Ðº": 5429,
      "eron": 5430,
      "anis": 5431,
      "ciano": 5432,
      "ĠSul": 5433,
      "ĠSeg": 5434,
      "ĠSyn": 5435,
      "orio": 5436,
      "arter": 5437,
      "ĠText": 5438,
      "ĠTokyo": 5439,
      "ĠLeb": 5440,
      "ĠLyn": 5441,
      "ĠLett": 5442,
      "ĠLittle": 5443,
      "Ġsix": 5444,
      "ĠIra": 5445,
      "icated": 5446,
      "icnae": 5447,
      "Ġblot": 5448,
      "ĠPass": 5449,
      "itÃ©": 5450,
      "ĠBorm": 5451,
      "Ġdid": 5452,
      "ĠGera": 5453,
      "ĠHu": 5454,
      "ĠHard": 5455,
      "ĠHart": 5456,
      "ĠDim": 5457,
      "Ġtw": 5458,
      "Ġtakes": 5459,
      "Ġcould": 5460,
      "Ġmales": 5461,
      "ĠWith": 5462,
      "ĠWell": 5463,
      "ĠFu": 5464,
      "ĠFont": 5465,
      "iva": 5466,
      "enta": 5467,
      "ente": 5468,
      "ĠEich": 5469,
      "ĠJin": 5470,
      "ĠJew": 5471,
      "ĠKrist": 5472,
      "ements": 5473,
      "ades": 5474,
      "ĠVlad": 5475,
      "Ġhind": 5476,
      "irÅį": 5477,
      "Ġneg": 5478,
      "ording": 5479,
      "ĠStyle": 5480,
      "ĠStackpole": 5481,
      "ianus": 5482,
      "rana": 5483,
      "ubleday": 5484,
      "aken": 5485,
      "ibus": 5486,
      "Ġstrand": 5487,
      "ongo": 5488,
      "Ġeduc": 5489,
      "iez": 5490,
      "ango": 5491,
      "essment": 5492,
      "mercial": 5493,
      "ĠMarx": 5494,
      "ictus": 5495,
      "Ġproduction": 5496,
      "izz": 5497,
      "Ġleg": 5498,
      "Ġleuc": 5499,
      "Ġchange": 5500,
      "Ġchanges": 5501,
      "Char": 5502,
      "Ġrivers": 5503,
      "ricts": 5504,
      "ĠIndiana": 5505,
      "Ġ448": 5506,
      "issa": 5507,
      "azzo": 5508,
      "attles": 5509,
      "Ġabstract": 5510,
      "cyph": 5511,
      "Ġunderside": 5512,
      "olaus": 5513,
      "ĠIsaac": 5514,
      "Ġcontrol": 5515,
      "Ġ1944": 5516,
      "ĠBrill": 5517,
      "ĠScrib": 5518,
      "zzi": 5519,
      "ĠInstitut": 5520,
      "Ã³w": 5521,
      "Ġevidence": 5522,
      "ĠElBar": 5523,
      "ydney": 5524,
      "ĠSalmon": 5525,
      "ports": 5526,
      "Adults": 5527,
      "Ġregard": 5528,
      "Ġarticles": 5529,
      "ĠDiego": 5530,
      "Ġsignif": 5531,
      "Ġmostly": 5532,
      "Ġcoast": 5533,
      "Ġprovince": 5534,
      "Ġoccur": 5535,
      "Ġoccurs": 5536,
      "Ġretriev": 5537,
      "ĠAcademic": 5538,
      "ĠCostello": 5539,
      "Ġfactors": 5540,
      "Ġpopular": 5541,
      "Ġgroups": 5542,
      "Amphicnae": 5543,
      "Ġsocial": 5544,
      "ĠSymphony": 5545,
      "Ġsnail": 5546,
      "ĠDomin": 5547,
      "Ġhydro": 5548,
      "ĠNaturels": 5549,
      "Ġstandards": 5550,
      "perties": 5551,
      "ĠCornell": 5552,
      "ĠIllustrated": 5553,
      "ĠBouchet": 5554,
      "Ġbecome": 5555,
      "Ġdeveloped": 5556,
      "grave": 5557,
      "ĠCouncil": 5558,
      "ĠFrankfurt": 5559,
      "David": 5560,
      "uroticism": 5561,
      "Rosalba": 5562,
      "Ramsbury": 5563,
      "ĠPatrimoines": 5564,
      "Bebelis": 5565,
      "Ġblotch": 5566,
      "ĠBormida": 5567,
      "ĠElBaradei": 5568,
      "Amphicnaeia": 5569,
      "Af": 5570,
      "Ass": 5571,
      "Acyph": 5572,
      "Band": 5573,
      "Hem": 5574,
      "Harv": 5575,
      "MA": 5576,
      "Mechanics": 5577,
      "Off": 5578,
      "Pra": 5579,
      "Pier": 5580,
      "Rio": 5581,
      "Spe": 5582,
      "ground": 5583,
      "hart": 5584,
      "kim": 5585,
      "mm": 5586,
      "nov": 5587,
      "nitz": 5588,
      "si": 5589,
      "ted": 5590,
      "ying": 5591,
      "yrus": 5592,
      "zon": 5593,
      "Ãī": 5594,
      "Ð²": 5595,
      "Ġke": 5596,
      "erland": 5597,
      "cill": 5598,
      "ĠSpeci": 5599,
      "ĠSlam": 5600,
      "aman": 5601,
      "rell": 5602,
      "alb": 5603,
      "arth": 5604,
      "arra": 5605,
      "ĠTree": 5606,
      "ĠTele": 5607,
      "Ġsal": 5608,
      "Ġspecial": 5609,
      "Ġsuccess": 5610,
      "Ġfocus": 5611,
      "ĠIS": 5612,
      "Ġinternational": 5613,
      "istan": 5614,
      "ĠPS": 5615,
      "ĠPor": 5616,
      "ĠMath": 5617,
      "ĠBu": 5618,
      "ĠBog": 5619,
      "ĠBuch": 5620,
      "elson": 5621,
      "Ġdens": 5622,
      "Ġ1900": 5623,
      "omber": 5624,
      "omson": 5625,
      "ĠHay": 5626,
      "Ġtimes": 5627,
      "unov": 5628,
      "idius": 5629,
      "Ġmit": 5630,
      "Ġmont": 5631,
      "ĠWace": 5632,
      "ĠFro": 5633,
      "ĠFern": 5634,
      "ĠFacts": 5635,
      "ĠJay": 5636,
      "ĠOper": 5637,
      "utch": 5638,
      "ĠKla": 5639,
      "ĠKay": 5640,
      "uble": 5641,
      "ĠVic": 5642,
      "oderus": 5643,
      "Ġnar": 5644,
      "Ġnumer": 5645,
      "liqu": 5646,
      "ĠStr": 5647,
      "ĠStrateg": 5648,
      "Ġgame": 5649,
      "ĠYou": 5650,
      "Ġver": 5651,
      "Ġveins": 5652,
      "range": 5653,
      "ineering": 5654,
      "ubles": 5655,
      "Ġdef": 5656,
      "Ġdei": 5657,
      "ipenne": 5658,
      "ohr": 5659,
      "Ġ1882": 5660,
      "ĠArthrop": 5661,
      "erner": 5662,
      "ylind": 5663,
      "Stanley": 5664,
      "kshire": 5665,
      "Ġexist": 5666,
      "Anc": 5667,
      "tta": 5668,
      "ribe": 5669,
      "ĠGuen": 5670,
      "ĠGuinot": 5671,
      "ĠFrances": 5672,
      "Ã¼b": 5673,
      "ĠGeoff": 5674,
      "Ã¶l": 5675,
      "ertain": 5676,
      "Ġetc": 5677,
      "Ġseas": 5678,
      "lora": 5679,
      "cludes": 5680,
      "ĠCastro": 5681,
      "ĠBrand": 5682,
      "ĠBiogeography": 5683,
      "ĠGrove": 5684,
      "Ġdistinct": 5685,
      "Ġparticular": 5686,
      "Arnold": 5687,
      "Ã¤r": 5688,
      "ĠHeritage": 5689,
      "ĠRussell": 5690,
      "ehicles": 5691,
      "pective": 5692,
      "Ġdiscovered": 5693,
      "Ġappl": 5694,
      "Ġpet": 5695,
      "ĠDelmer": 5696,
      "ĠKnopf": 5697,
      "ĠLibert": 5698,
      "ĠNicol": 5699,
      "ributions": 5700,
      "Ġemp": 5701,
      "ĠWaters": 5702,
      "oriolaus": 5703,
      "enneth": 5704,
      "ĠGlenn": 5705,
      "ĠOliv": 5706,
      "ripes": 5707,
      "Ġfolds": 5708,
      "Ġconditions": 5709,
      "Ġdirect": 5710,
      "ĠMethuen": 5711,
      "Ġpredict": 5712,
      "Ġhonor": 5713,
      "ĠâĢł": 5714,
      "Antodice": 5715,
      "Ġespecially": 5716,
      "ĠJohann": 5717,
      "Ġpattern": 5718,
      "imelitta": 5719,
      "ĠNicholas": 5720,
      "Botley": 5721,
      "ynasty": 5722,
      "WWF": 5723,
      "ĠConnecticut": 5724,
      "uturalis": 5725,
      "Poecilo": 5726,
      "ĠScribner": 5727,
      "Acyphoderes": 5728,
      "'t": 5729,
      "Ath": 5730,
      "Act": 5731,
      "After": 5732,
      "Bro": 5733,
      "Book": 5734,
      "Brit": 5735,
      "Bulletin": 5736,
      "CR": 5737,
      "Cur": 5738,
      "Cnem": 5739,
      "Eur": 5740,
      "Go": 5741,
      "Her": 5742,
      "Idact": 5743,
      "MO": 5744,
      "Mod": 5745,
      "SA": 5746,
      "Wood": 5747,
      "Xylo": 5748,
      "des": 5749,
      "die": 5750,
      "fi": 5751,
      "nik": 5752,
      "vil": 5753,
      "vels": 5754,
      "inations": 5755,
      "iness": 5756,
      "ises": 5757,
      "onic": 5758,
      "ĠSo": 5759,
      "pex": 5760,
      "oraci": 5761,
      "alo": 5762,
      "ĠRub": 5763,
      "ĠRio": 5764,
      "ĠLincoln": 5765,
      "Ġski": 5766,
      "Ġsource": 5767,
      "Ġfind": 5768,
      "ĠfÃ¼r": 5769,
      "Ġfruit": 5770,
      "ilus": 5771,
      "ilyst": 5772,
      "Ġawards": 5773,
      "Ġinvol": 5774,
      "Ġborn": 5775,
      "ĠPla": 5776,
      "ĠPDF": 5777,
      "ĠPsych": 5778,
      "etry": 5779,
      "ĠThá»": 5780,
      "uso": 5781,
      "1970": 5782,
      "ĠBros": 5783,
      "ĠBoy": 5784,
      "Ġpor": 5785,
      "Ġpower": 5786,
      "Ġpsych": 5787,
      "Ġdiv": 5788,
      "Ġ1911": 5789,
      "Ġ1932": 5790,
      "Ġ1939": 5791,
      "Ġ1937": 5792,
      "ĠGon": 5793,
      "ĠGum": 5794,
      "ĠGood": 5795,
      "urge": 5796,
      "ĠHandbook": 5797,
      "ĠHebrew": 5798,
      "ĠNuclear": 5799,
      "uni": 5800,
      "Ġmer": 5801,
      "Ġmaps": 5802,
      "ĠWind": 5803,
      "ĠFun": 5804,
      "ĠFib": 5805,
      "ĠFile": 5806,
      "osystem": 5807,
      "ulatus": 5808,
      "opy": 5809,
      "ims": 5810,
      "iga": 5811,
      "ĠOt": 5812,
      "ĠOcean": 5813,
      "otic": 5814,
      "Ġnature": 5815,
      "ogy": 5816,
      "php": 5817,
      "ĠStar": 5818,
      "acanth": 5819,
      "ĠIns": 5820,
      "ĠInvent": 5821,
      "even": 5822,
      "Ġreading": 5823,
      "estion": 5824,
      "quest": 5825,
      "ĠTheod": 5826,
      "Ġstate": 5827,
      "Ġwithout": 5828,
      "Ã©g": 5829,
      "ief": 5830,
      "ieth": 5831,
      "aea": 5832,
      "ologist": 5833,
      "ologies": 5834,
      "ologists": 5835,
      "ĠMario": 5836,
      "ĠMarco": 5837,
      "ĠMarcel": 5838,
      "yles": 5839,
      "Ġprob": 5840,
      "igno": 5841,
      "igned": 5842,
      "Ste": 5843,
      "Stylo": 5844,
      "Ġleft": 5845,
      "Chlor": 5846,
      "ĠLeach": 5847,
      "ĠEnter": 5848,
      "ĠGuard": 5849,
      "ittia": 5850,
      "ussian": 5851,
      "ĠConn": 5852,
      "ĠBercht": 5853,
      "shire": 5854,
      "risis": 5855,
      "alta": 5856,
      "ĠDeutsch": 5857,
      "Ġyoung": 5858,
      "Ġspraw": 5859,
      "Ġdella": 5860,
      "Ġphylogeny": 5861,
      "ĠMonaster": 5862,
      "3374": 5863,
      "Ġpublic": 5864,
      "schaft": 5865,
      "ĠAndre": 5866,
      "zzano": 5867,
      "ĠPaperback": 5868,
      "ixed": 5869,
      "699": 5870,
      "Ġincluded": 5871,
      "Ġzu": 5872,
      "231": 5873,
      "ĠColon": 5874,
      "ĠHoff": 5875,
      "ĠPhilipp": 5876,
      "ĠArchae": 5877,
      "rachy": 5878,
      "Ġbasic": 5879,
      "manns": 5880,
      "Ġrather": 5881,
      "ĠÃł": 5882,
      "Ġcity": 5883,
      "ĠEconomic": 5884,
      "ĠAgric": 5885,
      "ĠTrust": 5886,
      "ĠRady": 5887,
      "ĠSurrey": 5888,
      "ĠTerrit": 5889,
      "Ġprovides": 5890,
      "ĠItalian": 5891,
      "chthy": 5892,
      "ĠWatson": 5893,
      "Ġgenerally": 5894,
      "ĠTeil": 5895,
      "Ġfactor": 5896,
      "Ġaccess": 5897,
      "Acanth": 5898,
      "Biodiversity": 5899,
      "ĠPresident": 5900,
      "Mimosybra": 5901,
      "Ġterrit": 5902,
      "William": 5903,
      "Ġirreg": 5904,
      "ÅĦski": 5905,
      "indsor": 5906,
      "Ġepidermis": 5907,
      "Lisson": 5908,
      "ĠIshida": 5909,
      "ĠInsecta": 5910,
      "ĠKodansha": 5911,
      "European": 5912,
      "ĠStewart": 5913,
      "Hexoplon": 5914,
      "ĠIchirÅį": 5915,
      "Ġ4483374": 5916,
      "Harvard": 5917,
      "ĠGuenÃ©e": 5918,
      "Idactus": 5919,
      "Ġ448337491": 5920,
      "034": 5921,
      "252": 5922,
      "579": 5923,
      "Av": 5924,
      "Black": 5925,
      "CE": 5926,
      "Cas": 5927,
      "Fish": 5928,
      "Lo": 5929,
      "Lincoln": 5930,
      "MS": 5931,
      "Music": 5932,
      "One": 5933,
      "Rob": 5934,
      "TP": 5935,
      "Windsor": 5936,
      "XX": 5937,
      "]*": 5938,
      "bs": 5939,
      "bel": 5940,
      "but": 5941,
      "dzen": 5942,
      "eax": 5943,
      "ging": 5944,
      "iat": 5945,
      "iers": 5946,
      "mit": 5947,
      "mod": 5948,
      "po": 5949,
      "trans": 5950,
      "western": 5951,
      "xim": 5952,
      "zt": 5953,
      "zÄħ": 5954,
      "Ã¯": 5955,
      "ãĦ": 5956,
      "Ġer": 5957,
      "ising": 5958,
      "ancy": 5959,
      "cio": 5960,
      "ciÃ³n": 5961,
      "ths": 5962,
      "ĠSelf": 5963,
      "ĠCond": 5964,
      "ĠColl": 5965,
      "ĠCrist": 5966,
      "orata": 5967,
      "ĠTol": 5968,
      "ĠTai": 5969,
      "ĠLak": 5970,
      "Ġself": 5971,
      "Ġfood": 5972,
      "Ġinh": 5973,
      "Ġbl": 5974,
      "ĠPic": 5975,
      "ĠPas": 5976,
      "itation": 5977,
      "itarian": 5978,
      "ĠMai": 5979,
      "ĠMann": 5980,
      "1974": 5981,
      "olz": 5982,
      "chio": 5983,
      "room": 5984,
      "Ġbeg": 5985,
      "Ġdia": 5986,
      "Ġdnia": 5987,
      "Ġ1921": 5988,
      "ĠGut": 5989,
      "ĠGame": 5990,
      "omic": 5991,
      "ĠHub": 5992,
      "ĠDal": 5993,
      "ĠDover": 5994,
      "ĠDNA": 5995,
      "ĠNu": 5996,
      "ĠNord": 5997,
      "unter": 5998,
      "Ġcat": 5999,
      "Ġcult": 6000,
      "Ġcare": 6001,
      "ĠWrit": 6002,
      "ĠFal": 6003,
      "ĠJust": 6004,
      "oser": 6005,
      "umat": 6006,
      "umann": 6007,
      "resh": 6008,
      "igion": 6009,
      "igli": 6010,
      "ĠOther": 6011,
      "log": 6012,
      "lock": 6013,
      "ĠKy": 6014,
      "ĠKin": 6015,
      "ĠKenneth": 6016,
      "ĠVi": 6017,
      "ĠVes": 6018,
      "ĠVenezuela": 6019,
      "Ġhol": 6020,
      "Ġhum": 6021,
      "aggio": 6022,
      "lier": 6023,
      "lici": 6024,
      "isha": 6025,
      "ĠStanley": 6026,
      "Ġgallery": 6027,
      "Ġlate": 6028,
      "ĠYoung": 6029,
      "iang": 6030,
      "bera": 6031,
      "ablen": 6032,
      "anton": 6033,
      "elling": 6034,
      "enson": 6035,
      "orem": 6036,
      "ugn": 6037,
      "Ġ1848": 6038,
      "ĠOrt": 6039,
      "seeded": 6040,
      "aurot": 6041,
      "tters": 6042,
      "reeablen": 6043,
      "Ġkey": 6044,
      "ĠBerkshire": 6045,
      "1982": 6046,
      "ĠSpace": 6047,
      "Ġseason": 6048,
      "Ġ1946": 6049,
      "ĠAdam": 6050,
      "ĠMcGraw": 6051,
      "ĠBiodiversity": 6052,
      "ammals": 6053,
      "Ġdistricts": 6054,
      "Ġflower": 6055,
      "lantic": 6056,
      "Arch": 6057,
      "ĠTorre": 6058,
      "porzÄħ": 6059,
      "ĠColor": 6060,
      "Ġhead": 6061,
      "ĠMinas": 6062,
      "ĠMinistr": 6063,
      "Ġdoubles": 6064,
      "Ġsurv": 6065,
      "umbers": 6066,
      "ĠÃģ": 6067,
      "ĠParku": 6068,
      "ĠLuis": 6069,
      "ehl": 6070,
      "Ġrepresent": 6071,
      "ĠPeters": 6072,
      "ĠMedieval": 6073,
      "ĠFishes": 6074,
      "Ġsuper": 6075,
      "1977": 6076,
      "Ġgoal": 6077,
      "Ġrelationships": 6078,
      "ĠBurton": 6079,
      "cientious": 6080,
      "unning": 6081,
      "Epimelitta": 6082,
      "ĠRobinson": 6083,
      "Ġpaper": 6084,
      "ĠVictoria": 6085,
      "Hippopsicon": 6086,
      "Ġelong": 6087,
      "Annapolis": 6088,
      "Ġoriginally": 6089,
      "ĠAleks": 6090,
      "aspis": 6091,
      "Ġindividuals": 6092,
      "Origins": 6093,
      "ynamic": 6094,
      "ĠForeign": 6095,
      "adership": 6096,
      "ĠNarodowego": 6097,
      "Ġfunction": 6098,
      "ĠYears": 6099,
      "Michael": 6100,
      "Ozineus": 6101,
      "ministration": 6102,
      "ĠJosÃ©": 6103,
      "ĠSommer": 6104,
      "phaerion": 6105,
      "Ġbehavior": 6106,
      "ĠRozporzÄħ": 6107,
      "ĠQuartet": 6108,
      "dzenie": 6109,
      "reeableness": 6110,
      "ĠMinistrÃ³w": 6111,
      "ĠRozporzÄħdzenie": 6112,
      "\";": 6113,
      "Aux": 6114,
      "By": 6115,
      "Best": 6116,
      "Cons": 6117,
      "Cola": 6118,
      "DX": 6119,
      "Ery": 6120,
      "Fa": 6121,
      "Fred": 6122,
      "Many": 6123,
      "Millan": 6124,
      "Pr": 6125,
      "Sa": 6126,
      "Syn": 6127,
      "Source": 6128,
      "SCO": 6129,
      "Two": 6130,
      "VI": 6131,
      "With": 6132,
      "bol": 6133,
      "gate": 6134,
      "iini": 6135,
      "ku": 6136,
      "king": 6137,
      "ming": 6138,
      "mens": 6139,
      "pur": 6140,
      "rub": 6141,
      "rug": 6142,
      "set": 6143,
      "wor": 6144,
      "word": 6145,
      "ye": 6146,
      "§y": 6147,
      "ãģ": 6148,
      "Ġ=": 6149,
      "Ġ70": 6150,
      "eria": 6151,
      "inter": 6152,
      "isk": 6153,
      "ederal": 6154,
      "ency": 6155,
      "thaca": 6156,
      "atur": 6157,
      "atter": 6158,
      "ĠSong": 6159,
      "ĠCr": 6160,
      "ĠCy": 6161,
      "ĠRow": 6162,
      "ĠRept": 6163,
      "ĠTrad": 6164,
      "ĠLow": 6165,
      "ĠLud": 6166,
      "ĠLate": 6167,
      "ĠLiterature": 6168,
      "Ġscience": 6169,
      "Ġfar": 6170,
      "Ġfew": 6171,
      "Ġfall": 6172,
      "Ġflood": 6173,
      "ĠIbra": 6174,
      "Ġbu": 6175,
      "Ġbound": 6176,
      "Ġbirds": 6177,
      "istes": 6178,
      "ĠPul": 6179,
      "andar": 6180,
      "ĠMemorial": 6181,
      "ĠBul": 6182,
      "ĠBagn": 6183,
      "asca": 6184,
      "eles": 6185,
      "Ġ1910": 6186,
      "Ġ1916": 6187,
      "Ġ1927": 6188,
      "ĠGius": 6189,
      "ĠHook": 6190,
      "ĠHome": 6191,
      "Ġtele": 6192,
      "ĠNY": 6193,
      "ĠNeg": 6194,
      "Ġmac": 6195,
      "Ġmorph": 6196,
      "ĠFox": 6197,
      "ĠFair": 6198,
      "ĠFighters": 6199,
      "Ġwood": 6200,
      "igation": 6201,
      "uta": 6202,
      "ĠKl": 6203,
      "ĠKon": 6204,
      "ĠVis": 6205,
      "ĠVers": 6206,
      "ĠUnder": 6207,
      "aving": 6208,
      "Ġgrise": 6209,
      "arden": 6210,
      "rane": 6211,
      "ĠChapter": 6212,
      "Ġrece": 6213,
      "ante": 6214,
      "quir": 6215,
      "oka": 6216,
      "Ġdeath": 6217,
      "ega": 6218,
      "ecut": 6219,
      "akov": 6220,
      "elles": 6221,
      "ension": 6222,
      "icians": 6223,
      "ugastor": 6224,
      "Ġ1852": 6225,
      "Ġalmost": 6226,
      "Ġalthough": 6227,
      "urel": 6228,
      "ĠEdwards": 6229,
      "ĠEditor": 6230,
      "ĠEdwin": 6231,
      "ikkim": 6232,
      "teenth": 6233,
      "ophis": 6234,
      "ĠReal": 6235,
      "Ã¡r": 6236,
      "ĠPhot": 6237,
      "Ã¶m": 6238,
      "organ": 6239,
      "Ġconne": 6240,
      "Ġcomput": 6241,
      "Ġcomplete": 6242,
      "Ġsea": 6243,
      "onomous": 6244,
      "Ġcontinu": 6245,
      "Ġphot": 6246,
      "Ġphyla": 6247,
      "dea": 6248,
      "333": 6249,
      "ĠCastell": 6250,
      "ĠCastello": 6251,
      "Ġ1941": 6252,
      "ĠClark": 6253,
      "ĠMcK": 6254,
      "Ġrole": 6255,
      "Ã¨ne": 6256,
      "lato": 6257,
      "ĠCommittee": 6258,
      "rews": 6259,
      "ĠAbb": 6260,
      "Lee": 6261,
      "Ġobliqu": 6262,
      "ĠHerbert": 6263,
      "inking": 6264,
      "escu": 6265,
      "uttle": 6266,
      "Ġformat": 6267,
      "pects": 6268,
      "cidion": 6269,
      "ĠAssociates": 6270,
      "Ġcollected": 6271,
      "ĠMatth": 6272,
      "ĠRocch": 6273,
      "ĠConstantin": 6274,
      "Ġpapers": 6275,
      "ĠMagazine": 6276,
      "Ġentire": 6277,
      "Ġeconomic": 6278,
      "Ġspecif": 6279,
      "ĠCommunity": 6280,
      "ĠOklah": 6281,
      "ubercul": 6282,
      "ĠLongman": 6283,
      "Ġcaus": 6284,
      "Ġcountries": 6285,
      "ĠMondey": 6286,
      "Original": 6287,
      "iformis": 6288,
      "ĠJacob": 6289,
      "Westport": 6290,
      "Ġawarded": 6291,
      "ĠLyon": 6292,
      "ĠAbdul": 6293,
      "Ġissued": 6294,
      "Ġscientific": 6295,
      "ĠCadore": 6296,
      "parent": 6297,
      "Ġhelp": 6298,
      "ĠRouge": 6299,
      "ĠKennedy": 6300,
      "ĠLodig": 6301,
      "ĠVladim": 6302,
      "Mechanicsburg": 6303,
      "ĠArthropoda": 6304,
      "ĠThá»§y": 6305,
      "Ġsprawie": 6306,
      "Auxa": 6307,
      "ĠOklahoma": 6308,
      "178": 6309,
      "BM": 6310,
      "CC": 6311,
      "Cle": 6312,
      "Cri": 6313,
      "Comm": 6314,
      "Delt": 6315,
      "Gold": 6316,
      "ID": 6317,
      "Log": 6318,
      "Mad": 6319,
      "Molecular": 6320,
      "Ott": 6321,
      "Pare": 6322,
      "Pupation": 6323,
      "Sal": 6324,
      "TML": 6325,
      "augh": 6326,
      "cin": 6327,
      "cas": 6328,
      "fare": 6329,
      "gers": 6330,
      "gress": 6331,
      "hardcover": 6332,
      "iinae": 6333,
      "mos": 6334,
      "nÄĽ": 6335,
      "pond": 6336,
      "rera": 6337,
      "rina": 6338,
      "vin": 6339,
      "vision": 6340,
      "yk": 6341,
      "yda": 6342,
      "ÑĤ": 6343,
      "Ġ#": 6344,
      "ining": 6345,
      "anion": 6346,
      "eness": 6347,
      "tha": 6348,
      "ĠSop": 6349,
      "ĠCis": 6350,
      "orial": 6351,
      "aron": 6352,
      "ĠRath": 6353,
      "ĠRock": 6354,
      "ĠRenaissance": 6355,
      "ĠTon": 6356,
      "ĠTet": 6357,
      "Ġsalam": 6358,
      "Ġfl": 6359,
      "Ġage": 6360,
      "Ġaudio": 6361,
      "lets": 6362,
      "icant": 6363,
      "Ġbr": 6364,
      "Ġbattle": 6365,
      "Ġbody": 6366,
      "ĠPis": 6367,
      "ĠPog": 6368,
      "ĠPab": 6369,
      "ĠPont": 6370,
      "ĠPana": 6371,
      "iten": 6372,
      "itar": 6373,
      "ĠMÃ¼": 6374,
      "ĠAgency": 6375,
      "olulu": 6376,
      "ĠBun": 6377,
      "ĠBob": 6378,
      "elve": 6379,
      "Ġbecom": 6380,
      "Ġ1952": 6381,
      "Ġ1922": 6382,
      "Ġ1931": 6383,
      "ĠGall": 6384,
      "omi": 6385,
      "uria": 6386,
      "ĠHas": 6387,
      "ĠDocument": 6388,
      "Ġtend": 6389,
      "ĠNag": 6390,
      "idis": 6391,
      "Ġmy": 6392,
      "Ġmen": 6393,
      "Ġmill": 6394,
      "Ġmale": 6395,
      "Ġmacul": 6396,
      "Ġmicro": 6397,
      "Ġmollus": 6398,
      "ĠFeder": 6399,
      "ivor": 6400,
      "ĠEs": 6401,
      "ĠEqu": 6402,
      "ĠJung": 6403,
      "igu": 6404,
      "igliano": 6405,
      "law": 6406,
      "laoschema": 6407,
      "ĠOH": 6408,
      "ĠOm": 6409,
      "loyd": 6410,
      "ĠKansas": 6411,
      "ados": 6412,
      "Ġtoge": 6413,
      "Ġhard": 6414,
      "Ġhere": 6415,
      "oga": 6416,
      "liance": 6417,
      "ĠStand": 6418,
      "Ġlost": 6419,
      "aped": 6420,
      "apons": 6421,
      "ably": 6422,
      "icht": 6423,
      "ocnem": 6424,
      "manuel": 6425,
      "egh": 6426,
      "aks": 6427,
      "aku": 6428,
      "ellschaft": 6429,
      "Ġstar": 6430,
      "Ġstem": 6431,
      "Ã©d": 6432,
      "ieu": 6433,
      "tshire": 6434,
      "ĠArts": 6435,
      "ĠArrow": 6436,
      "ĠArctic": 6437,
      "ĠAlas": 6438,
      "mentary": 6439,
      "ĠMarie": 6440,
      "orte": 6441,
      "ylia": 6442,
      "103": 6443,
      "Ġwhat": 6444,
      "Ġlearning": 6445,
      "Chinese": 6446,
      "ĠSchles": 6447,
      "acea": 6448,
      "Ġrun": 6449,
      "Ġrug": 6450,
      "ĠSankt": 6451,
      "122": 6452,
      "159": 6453,
      "ĠConference": 6454,
      "Ġshould": 6455,
      "ymn": 6456,
      "erma": 6457,
      "ĠHarrison": 6458,
      "Ġspace": 6459,
      "Ġ60": 6460,
      "Ġdelle": 6461,
      "Ġcontaining": 6462,
      "Ġpublication": 6463,
      "Ġlip": 6464,
      "ĠPolicy": 6465,
      "393": 6466,
      "ĠGroÃŁ": 6467,
      "ĠAirlife": 6468,
      "1968": 6469,
      "Leiden": 6470,
      "ĠOpera": 6471,
      "ĠPeru": 6472,
      "ĠTexts": 6473,
      "uttata": 6474,
      "ĠStef": 6475,
      "ĠSteph": 6476,
      "Ġrepro": 6477,
      "1971": 6478,
      "Ġperformance": 6479,
      "Ġweasel": 6480,
      "ĠClassis": 6481,
      "Aglaoschema": 6482,
      "Ġ1864": 6483,
      "ygm": 6484,
      "Ġbiography": 6485,
      "oliops": 6486,
      "ĠDesign": 6487,
      "ĠSystems": 6488,
      "ĠBroad": 6489,
      "ĠServices": 6490,
      "opel": 6491,
      "ĠAtlantic": 6492,
      "ĠChem": 6493,
      "Ġpresented": 6494,
      "Ã¼nchen": 6495,
      "Ġaquifer": 6496,
      "ĠAntonio": 6497,
      "Ġcritical": 6498,
      "ĠNarodowy": 6499,
      "ĠGregory": 6500,
      "ĠErnest": 6501,
      "Ġfauna": 6502,
      "Ġsequence": 6503,
      "ĠPeninsular": 6504,
      "ĠStreet": 6505,
      "ributed": 6506,
      "Ġfrequ": 6507,
      "Ġcirc": 6508,
      "Ġpreviously": 6509,
      "Ġutwor": 6510,
      "Anauxesis": 6511,
      "ĠCombat": 6512,
      "ĠCampaign": 6513,
      "ĠIraq": 6514,
      "Ġretrieval": 6515,
      "ĠSpecialty": 6516,
      "ĠKlaus": 6517,
      "ilysta": 6518,
      "Ġirregular": 6519,
      "aurotes": 6520,
      "ĠLodigiano": 6521,
      "Ġtogether": 6522,
      "Ġutworzen": 6523,
      "=\"": 6524,
      ">:": 6525,
      "AM": 6526,
      "Based": 6527,
      "EB": 6528,
      "Fall": 6529,
      "Gra": 6530,
      "Hel": 6531,
      "Li": 6532,
      "Micro": 6533,
      "Nor": 6534,
      "Os": 6535,
      "Pe": 6536,
      "Piez": 6537,
      "SP": 6538,
      "Sang": 6539,
      "Soci": 6540,
      "South": 6541,
      "Tim": 6542,
      "Trans": 6543,
      "Van": 6544,
      "Val": 6545,
      "ben": 6546,
      "bidion": 6547,
      "cs": 6548,
      "cop": 6549,
      "fa": 6550,
      "fo": 6551,
      "fr": 6552,
      "ged": 6553,
      "graben": 6554,
      "hood": 6555,
      "mid": 6556,
      "oce": 6557,
      "pid": 6558,
      "page": 6559,
      "rup": 6560,
      "time": 6561,
      "yra": 6562,
      "Ã´": 6563,
      "Åł": 6564,
      "ä¸": 6565,
      "åı": 6566,
      "Ġeg": 6567,
      "Ġ====": 6568,
      "isode": 6569,
      "enk": 6570,
      "enan": 6571,
      "enice": 6572,
      "ĠSv": 6573,
      "ĠSor": 6574,
      "ĠSie": 6575,
      "reith": 6576,
      "reto": 6577,
      "ĠCret": 6578,
      "ĠCliff": 6579,
      "ĠTest": 6580,
      "ĠTob": 6581,
      "ĠTwent": 6582,
      "ĠLag": 6583,
      "ĠLoss": 6584,
      "ĠLink": 6585,
      "ĠLingu": 6586,
      "Ġsize": 6587,
      "ĠIv": 6588,
      "ĠIts": 6589,
      "iche": 6590,
      "Ġbig": 6591,
      "isticus": 6592,
      "ĠPil": 6593,
      "ĠPur": 6594,
      "ĠPian": 6595,
      "ĠPasc": 6596,
      "ĠPeriod": 6597,
      "ĠPowell": 6598,
      "etter": 6599,
      "ĠThomson": 6600,
      "ĠMu": 6601,
      "ĠMap": 6602,
      "ĠMore": 6603,
      "ĠMost": 6604,
      "dapt": 6605,
      "1978": 6606,
      "1976": 6607,
      "ĠAli": 6608,
      "Ġpra": 6609,
      "Ġpod": 6610,
      "Ġ1951": 6611,
      "ĠGill": 6612,
      "ĠGibb": 6613,
      "omical": 6614,
      "uries": 6615,
      "ĠHoy": 6616,
      "ĠDia": 6617,
      "Ġtrad": 6618,
      "ĠNy": 6619,
      "ĠNad": 6620,
      "ĠNev": 6621,
      "ĠNations": 6622,
      "unc": 6623,
      "Ġcin": 6624,
      "Ġcard": 6625,
      "Ġcorn": 6626,
      "Ġcolum": 6627,
      "Ġcamp": 6628,
      "Ġcame": 6629,
      "Ġcover": 6630,
      "Ġmountain": 6631,
      "ĠWes": 6632,
      "ĠWissensch": 6633,
      "ĠFame": 6634,
      "ĠFerm": 6635,
      "entris": 6636,
      "ĠEin": 6637,
      "ĠEurop": 6638,
      "osign": 6639,
      "Ġwomen": 6640,
      "imum": 6641,
      "igera": 6642,
      "lax": 6643,
      "loth": 6644,
      "ĠVe": 6645,
      "Ġnit": 6646,
      "ĠUniv": 6647,
      "acon": 6648,
      ").\"": 6649,
      "Ġgran": 6650,
      "Ġgovernment": 6651,
      "ĠChile": 6652,
      "abl": 6653,
      "ables": 6654,
      "quin": 6655,
      "oke": 6656,
      "ocene": 6657,
      "Ġdecl": 6658,
      "allis": 6659,
      "aste": 6660,
      "neo": 6661,
      "Ġ250": 6662,
      "ained": 6663,
      "ĠAlp": 6664,
      "Ġ32": 6665,
      "orno": 6666,
      "rue": 6667,
      "Ġproperties": 6668,
      "Ġorn": 6669,
      "idad": 6670,
      "Stud": 6671,
      "Stuttgart": 6672,
      "izing": 6673,
      "iki": 6674,
      "iking": 6675,
      "ĠEncyclop": 6676,
      "Ġ491": 6677,
      "ĠFrancill": 6678,
      "gher": 6679,
      "ĠBert": 6680,
      "aften": 6681,
      "ĠSpain": 6682,
      "Ġresults": 6683,
      "ĠIslam": 6684,
      "portation": 6685,
      "306": 6686,
      "ĠExperim": 6687,
      "Ġrot": 6688,
      "ĠBiota": 6689,
      "Ġconservation": 6690,
      "Å¡t": 6691,
      "Ġevents": 6692,
      "Äįice": 6693,
      "Also": 6694,
      "Although": 6695,
      "ĠCollections": 6696,
      "ĠBeat": 6697,
      "1964": 6698,
      "1967": 6699,
      "Ġregions": 6700,
      "ĠHolly": 6701,
      "Ġ1904": 6702,
      "Ġcivil": 6703,
      "Ġ1896": 6704,
      "ĠEcu": 6705,
      "1975": 6706,
      "uthors": 6707,
      "ĠMurano": 6708,
      "Ġlocal": 6709,
      "ucker": 6710,
      "ĠPrice": 6711,
      "raversion": 6712,
      "oniidae": 6713,
      "rivia": 6714,
      "ĠBoard": 6715,
      "ivided": 6716,
      "ĠHoward": 6717,
      "Ġfishes": 6718,
      "Ġcommonly": 6719,
      "ĠRelations": 6720,
      "Ġclassification": 6721,
      "ĠJoan": 6722,
      "ASA": 6723,
      "Ġhowever": 6724,
      "ĠTanaro": 6725,
      "Ġposition": 6726,
      "Callidium": 6727,
      "Ġfourth": 6728,
      "Aneflus": 6729,
      "Ġrelating": 6730,
      "ĠDoubleday": 6731,
      "Philadelphia": 6732,
      "uilt": 6733,
      "Recchia": 6734,
      "Ġbecame": 6735,
      "Ġassociated": 6736,
      "Ġnovel": 6737,
      "Ġangust": 6738,
      "Ġapproach": 6739,
      "tainment": 6740,
      "ĠMBTI": 6741,
      "ĠDirect": 6742,
      "ependent": 6743,
      "Christopher": 6744,
      "Japanese": 6745,
      "ĠBelgium": 6746,
      "Ġappearance": 6747,
      "ĠBryan": 6748,
      "Ġpolitical": 6749,
      "Library": 6750,
      "Ochraethes": 6751,
      "ĠEditore": 6752,
      "ĠBenjamin": 6753,
      "Xylot": 6754,
      "ĠFibiger": 6755,
      "ĠSommerfeld": 6756,
      "ĠIbrah": 6757,
      "Ġutworzenia": 6758,
      "ĠFrancillon": 6759,
      "\")": 6760,
      "Bl": 6761,
      "Curt": 6762,
      "Donald": 6763,
      "Doliops": 6764,
      "ES": 6765,
      "Hall": 6766,
      "IC": 6767,
      "Lou": 6768,
      "Neal": 6769,
      "PS": 6770,
      "Pre": 6771,
      "Ro": 6772,
      "Rad": 6773,
      "Rome": 6774,
      "Roy": 6775,
      "Sup": 6776,
      "Sym": 6777,
      "Silv": 6778,
      "Ter": 6779,
      "bl": 6780,
      "bun": 6781,
      "bau": 6782,
      "gue": 6783,
      "hand": 6784,
      "hop": 6785,
      "kau": 6786,
      "mes": 6787,
      "mus": 6788,
      "modera": 6789,
      "ng": 6790,
      "tz": 6791,
      "uka": 6792,
      "wang": 6793,
      "wings": 6794,
      "yer": 6795,
      "Äĥ": 6796,
      "ê°": 6797,
      "ëĤ": 6798,
      "Ġ;": 6799,
      "Ġæ": 6800,
      "iny": 6801,
      "anch": 6802,
      "anica": 6803,
      "Ġov": 6804,
      "Ġori": 6805,
      "Ġopt": 6806,
      "atin": 6807,
      "atre": 6808,
      "atell": 6809,
      "ĠSri": 6810,
      "ĠSeb": 6811,
      "ĠSix": 6812,
      "ĠSydney": 6813,
      "amar": 6814,
      "reis": 6815,
      "ĠCT": 6816,
      "ĠCin": 6817,
      "ĠCel": 6818,
      "alphus": 6819,
      "arolo": 6820,
      "ĠRhe": 6821,
      "ĠRain": 6822,
      "ĠRchb": 6823,
      "ĠLog": 6824,
      "ĠLast": 6825,
      "Ġsets": 6826,
      "Ġsemi": 6827,
      "Ġflat": 6828,
      "icester": 6829,
      "Ġbest": 6830,
      "istical": 6831,
      "ĠPel": 6832,
      "ĠPred": 6833,
      "ĠPoint": 6834,
      "ĠThompson": 6835,
      "iting": 6836,
      "ĠMill": 6837,
      "ĠMend": 6838,
      "ĠMare": 6839,
      "Ġisland": 6840,
      "ĠAth": 6841,
      "ĠAuthor": 6842,
      "ĠBed": 6843,
      "ĠBla": 6844,
      "ĠBah": 6845,
      "ĠBird": 6846,
      "ĠBrem": 6847,
      "ĠBonn": 6848,
      "elius": 6849,
      "elictus": 6850,
      "Ġpi": 6851,
      "Ġpan": 6852,
      "Ġdest": 6853,
      "Ġdial": 6854,
      "ĠGes": 6855,
      "omec": 6856,
      "ĠHann": 6857,
      "ĠHunt": 6858,
      "ĠDess": 6859,
      "ĠDana": 6860,
      "ĠNow": 6861,
      "Ġcm": 6862,
      "Ġcase": 6863,
      "Ġcylind": 6864,
      "Ġmor": 6865,
      "Ġmot": 6866,
      "Ġmatch": 6867,
      "Ġmolecular": 6868,
      "rack": 6869,
      "ĠWald": 6870,
      "ĠFl": 6871,
      "ĠFood": 6872,
      "ĠFrass": 6873,
      "ĠElect": 6874,
      "ĠJar": 6875,
      "ĠJud": 6876,
      "osi": 6877,
      "Ġwarning": 6878,
      "umi": 6879,
      "resident": 6880,
      "respond": 6881,
      "opa": 6882,
      "opp": 6883,
      "oper": 6884,
      "oples": 6885,
      "opontonia": 6886,
      "igs": 6887,
      "lap": 6888,
      "ĠOver": 6889,
      "ĠOwen": 6890,
      "ĠKais": 6891,
      "emn": 6892,
      "ĠVall": 6893,
      "ĠVald": 6894,
      "ĠVillan": 6895,
      "Ġheld": 6896,
      "Ġhours": 6897,
      "otrop": 6898,
      "rik": 6899,
      "sten": 6900,
      "Ġnam": 6901,
      "agan": 6902,
      "ovich": 6903,
      "Ġonce": 6904,
      "ĠYam": 6905,
      "ranean": 6906,
      "ineatus": 6907,
      "apt": 6908,
      "lytus": 6909,
      "ĠChurch": 6910,
      "berra": 6911,
      "oca": 6912,
      "Ġdeal": 6913,
      "Ġdeep": 6914,
      "nea": 6915,
      "Ã©c": 6916,
      "Ġ1880": 6917,
      "ĠArbor": 6918,
      "ĠArita": 6919,
      "ĠAlice": 6920,
      "oboth": 6921,
      "ĠMarg": 6922,
      "ostict": 6923,
      "ferred": 6924,
      "Information": 6925,
      "Ġeas": 6926,
      "Ġlevels": 6927,
      "rone": 6928,
      "ĠSche": 6929,
      "aceus": 6930,
      "ÃŃk": 6931,
      "ricollis": 6932,
      "Ã¡s": 6933,
      "ĠIndex": 6934,
      "ittkau": 6935,
      "ussels": 6936,
      "ĠPaolo": 6937,
      "Ġgener": 6938,
      "Ġabove": 6939,
      "Ġcomprehensive": 6940,
      "ermal": 6941,
      "uchi": 6942,
      "itsch": 6943,
      "Ġcontin": 6944,
      "Ġcontract": 6945,
      "226": 6946,
      "ĠResource": 6947,
      "ĠScrivia": 6948,
      "Ġlook": 6949,
      "ĠCommand": 6950,
      "ÅĻice": 6951,
      "ĠElliott": 6952,
      "gesch": 6953,
      "ĠManuel": 6954,
      "ĠHealth": 6955,
      "ĠWallace": 6956,
      "ĠGreenwood": 6957,
      "1963": 6958,
      "Ġtransvers": 6959,
      "ĠCasale": 6960,
      "ĠEcology": 6961,
      "baum": 6962,
      "Proc": 6963,
      "Complete": 6964,
      "Ġoverview": 6965,
      "1972": 6966,
      "plus": 6967,
      "ĠBurg": 6968,
      "Ġnigro": 6969,
      "brunn": 6970,
      "Ġcreated": 6971,
      "ĠKnow": 6972,
      "ylogenetics": 6973,
      "ieve": 6974,
      "Ġschool": 6975,
      "ĠAlexand": 6976,
      "thropology": 6977,
      "Ġadditional": 6978,
      "Ġentry": 6979,
      "Ã±a": 6980,
      "rechus": 6981,
      "ĠWebsite": 6982,
      "Ġspecific": 6983,
      "Ġcapital": 6984,
      "Amphelictus": 6985,
      "Ġdepos": 6986,
      "Ġfolded": 6987,
      "ĠMadrid": 6988,
      "Ġinteg": 6989,
      "Ġincre": 6990,
      "ĠFilms": 6991,
      "Ġsemif": 6992,
      "rsg": 6993,
      "Ã¦dia": 6994,
      "ĠBowman": 6995,
      "ĠGÃ¶tt": 6996,
      "brook": 6997,
      "Tomopterus": 6998,
      "ĠPrize": 6999,
      "Ġdocumentary": 7000,
      "Austral": 7001,
      "Ġtitle": 7002,
      "ĠMotorb": 7003,
      "ironomus": 7004,
      "ĠLaboratory": 7005,
      "ĠQueens": 7006,
      "ĠAffairs": 7007,
      "ĠCruz": 7008,
      "ĠGerais": 7009,
      "ĠGeoffrey": 7010,
      "Athylia": 7011,
      "British": 7012,
      "ĠTeilband": 7013,
      "Sangaris": 7014,
      "Xylotrechus": 7015,
      "880": 7016,
      "Air": 7017,
      "Ele": 7018,
      "Ect": 7019,
      "FB": 7020,
      "Fals": 7021,
      "Horn": 7022,
      "Hyd": 7023,
      "Ian": 7024,
      "Jan": 7025,
      "Jones": 7026,
      "KO": 7027,
      "Ky": 7028,
      "List": 7029,
      "Las": 7030,
      "My": 7031,
      "PR": 7032,
      "Pict": 7033,
      "Penguin": 7034,
      "Sol": 7035,
      "Sov": 7036,
      "UN": 7037,
      "Western": 7038,
      "bell": 7039,
      "cus": 7040,
      "cone": 7041,
      "don": 7042,
      "ead": 7043,
      "hat": 7044,
      "histor": 7045,
      "iar": 7046,
      "iast": 7047,
      "jo": 7048,
      "lÃ©": 7049,
      "oj": 7050,
      "part": 7051,
      "ser": 7052,
      "uki": 7053,
      "ving": 7054,
      "year": 7055,
      "Ġu": 7056,
      "Ġì": 7057,
      "Ġ===*": 7058,
      "ined": 7059,
      "inata": 7060,
      "edition": 7061,
      "thus": 7062,
      "onent": 7063,
      "aters": 7064,
      "atodes": 7065,
      "ĠSusan": 7066,
      "ĠCD": 7067,
      "ĠCR": 7068,
      "ĠClo": 7069,
      "ĠCard": 7070,
      "ĠCai": 7071,
      "ĠCare": 7072,
      "arks": 7073,
      "ĠReb": 7074,
      "ĠTax": 7075,
      "ĠLad": 7076,
      "ĠLac": 7077,
      "ĠLoc": 7078,
      "ĠLater": 7079,
      "ĠLisa": 7080,
      "Ġsu": 7081,
      "Ġsom": 7082,
      "Ġsong": 7083,
      "Ġsuturalis": 7084,
      "Ġfarm": 7085,
      "Ġfoot": 7086,
      "Ġfurther": 7087,
      "ilidae": 7088,
      "Ġaus": 7089,
      "Ġaffect": 7090,
      "icop": 7091,
      "Ġbal": 7092,
      "Ġbird": 7093,
      "Ġbirth": 7094,
      "ĠPresent": 7095,
      "etes": 7096,
      "ĠThird": 7097,
      "ĠMatt": 7098,
      "1969": 7099,
      "ĠAS": 7100,
      "oliv": 7101,
      "chus": 7102,
      "chem": 7103,
      "ĠBil": 7104,
      "ĠBrew": 7105,
      "ĠBank": 7106,
      "elip": 7107,
      "Ġpall": 7108,
      "Ġpitch": 7109,
      "Ġdocuments": 7110,
      "Ġ1924": 7111,
      "ĠGof": 7112,
      "urm": 7113,
      "ĠDog": 7114,
      "ĠDetail": 7115,
      "Ġtaxonomic": 7116,
      "Ġtrees": 7117,
      "unts": 7118,
      "idal": 7119,
      "rac": 7120,
      "raction": 7121,
      "ĠWel": 7122,
      "ĠFr": 7123,
      "ĠFlag": 7124,
      "ĠFittkau": 7125,
      "ĠEg": 7126,
      "ĠEis": 7127,
      "iav": 7128,
      "Ġwid": 7129,
      "umn": 7130,
      "ulic": 7131,
      "ulata": 7132,
      "imo": 7133,
      "imals": 7134,
      "ige": 7135,
      "ĠKur": 7136,
      "adem": 7137,
      "ĠVietnam": 7138,
      "Ġhand": 7139,
      "oti": 7140,
      "oted": 7141,
      "otated": 7142,
      "otype": 7143,
      "odi": 7144,
      "ired": 7145,
      "ogan": 7146,
      "lips": 7147,
      "phere": 7148,
      "phala": 7149,
      "ĠSten": 7150,
      "ĠStructure": 7151,
      "ĠYang": 7152,
      "ifth": 7153,
      "epenth": 7154,
      "Ġrept": 7155,
      "Ġforest": 7156,
      "eston": 7157,
      "estival": 7158,
      "quÃŃ": 7159,
      "ocrat": 7160,
      "eces": 7161,
      "ellen": 7162,
      "ellig": 7163,
      "ensus": 7164,
      "ibal": 7165,
      "Ġstory": 7166,
      "icip": 7167,
      "asso": 7168,
      "sonby": 7169,
      "ĠArgentina": 7170,
      "Ġaltern": 7171,
      "obrachus": 7172,
      "Ġ39": 7173,
      "ĠOrder": 7174,
      "ĠOrquÃŃ": 7175,
      "ylostern": 7176,
      "onsin": 7177,
      "Includes": 7178,
      "peror": 7179,
      "Ġ99": 7180,
      "enny": 7181,
      "ĠWiltshire": 7182,
      "ritus": 7183,
      "Ġeastern": 7184,
      "Ġeither": 7185,
      "teen": 7186,
      "Ġchron": 7187,
      "ĠLeo": 7188,
      "ĠLeiden": 7189,
      "ĠShaw": 7190,
      "ierra": 7191,
      "rico": 7192,
      "annica": 7193,
      "kei": 7194,
      "ĠGuth": 7195,
      "enger": 7196,
      "othic": 7197,
      "ĠCarval": 7198,
      "ashimi": 7199,
      "Phelip": 7200,
      "Ã¶h": 7201,
      "General": 7202,
      "ously": 7203,
      "174": 7204,
      "Ġseeds": 7205,
      "ĠHarold": 7206,
      "165": 7207,
      "Ġunknown": 7208,
      "Ġderived": 7209,
      "isconsin": 7210,
      "ĠAnderson": 7211,
      "Ġrocks": 7212,
      "Ġlik": 7213,
      "Ġconscientious": 7214,
      "395": 7215,
      "Å¡ice": 7216,
      "namegh": 7217,
      "ÅĻe": 7218,
      "ĠGener": 7219,
      "Ġevent": 7220,
      "ĠValley": 7221,
      "Ġclose": 7222,
      "Eng": 7223,
      "English": 7224,
      "ĠHolland": 7225,
      "Ġobsc": 7226,
      "Ġ1907": 7227,
      "regon": 7228,
      "vanced": 7229,
      "Ġ1898": 7230,
      "ĠLucia": 7231,
      "Ġsimilis": 7232,
      "Ġassigned": 7233,
      "Ġexplor": 7234,
      "ĠFranklin": 7235,
      "iterranean": 7236,
      "George": 7237,
      "Ġneuroticism": 7238,
      "ĠInterpret": 7239,
      "Stenos": 7240,
      "todactylus": 7241,
      "throps": 7242,
      "echanism": 7243,
      "ĠWinter": 7244,
      "ytic": 7245,
      "ummary": 7246,
      "Ġpictures": 7247,
      "ĠKeith": 7248,
      "ĠCommunications": 7249,
      "ĠÅł": 7250,
      "ĠRueda": 7251,
      "obatrach": 7252,
      "ĠLegend": 7253,
      "fined": 7254,
      "Ġsituated": 7255,
      "casting": 7256,
      "ĠHeinemann": 7257,
      "Ġfemale": 7258,
      "Ġprocessing": 7259,
      "ĠByz": 7260,
      "Ġcalcul": 7261,
      "ĠOttoman": 7262,
      "Ġfinite": 7263,
      "ĠHarperCollins": 7264,
      "ĠEssays": 7265,
      "ĠNobel": 7266,
      "Derobrachus": 7267,
      "ĠCraig": 7268,
      "Boophis": 7269,
      "ĠOhio": 7270,
      "loomington": 7271,
      "ĠCrusade": 7272,
      "ĠPonsonby": 7273,
      "Ġcycl": 7274,
      "ĠPhilosophy": 7275,
      "rushnamegh": 7276,
      "emoirs": 7277,
      "Ġaffinis": 7278,
      "chievement": 7279,
      "Cycnidolon": 7280,
      "Hawkes": 7281,
      "ĠColombia": 7282,
      "Ġregarding": 7283,
      "Ġsignificant": 7284,
      "Official": 7285,
      "Ġnarrow": 7286,
      "Cnemolia": 7287,
      "Styloleptus": 7288,
      "Acanthoderes": 7289,
      "ĠColorado": 7290,
      "ĠReptiles": 7291,
      "ĠGiuseppe": 7292,
      "ecutive": 7293,
      "ĠRathbun": 7294,
      "ĠAlaska": 7295,
      "ĠLosses": 7296,
      "ĠEcuador": 7297,
      "Nealcidion": 7298,
      "ĠGofas": 7299,
      "ĠOrquÃŃdea": 7300,
      "ĠCarvalho": 7301,
      "Phelipara": 7302,
      "213": 7303,
      "813": 7304,
      "Ams": 7305,
      "BA": 7306,
      "CS": 7307,
      "Dan": 7308,
      "Disc": 7309,
      "Fre": 7310,
      "GS": 7311,
      "Gang": 7312,
      "Gaurotes": 7313,
      "Hz": 7314,
      "His": 7315,
      "Ichthy": 7316,
      "Ithaca": 7317,
      "Ly": 7318,
      "Mart": 7319,
      "Pl": 7320,
      "Po": 7321,
      "Pop": 7322,
      "Pot": 7323,
      "Ram": 7324,
      "Villa": 7325,
      "aud": 7326,
      "cor": 7327,
      "cal": 7328,
      "dy": 7329,
      "dish": 7330,
      "hota": 7331,
      "iÄį": 7332,
      "lom": 7333,
      "less": 7334,
      "nic": 7335,
      "pton": 7336,
      "published": 7337,
      "rated": 7338,
      "tit": 7339,
      "web": 7340,
      "xestia": 7341,
      "¨ì": 7342,
      "Ãª": 7343,
      "Ã°": 7344,
      "Ãļ": 7345,
      "Äģ": 7346,
      "åŃ": 7347,
      "anic": 7348,
      "Ġol": 7349,
      "eden": 7350,
      "enza": 7351,
      "enzo": 7352,
      "thod": 7353,
      "atipennis": 7354,
      "ĠSarg": 7355,
      "ĠSgar": 7356,
      "Ġthough": 7357,
      "rett": 7358,
      "ĠCult": 7359,
      "ĠCross": 7360,
      "ĠCourt": 7361,
      "ĠCrisis": 7362,
      "orax": 7363,
      "alia": 7364,
      "ĠRet": 7365,
      "ĠRot": 7366,
      "ĠRaj": 7367,
      "ĠRAF": 7368,
      "ĠTu": 7369,
      "ĠTav": 7370,
      "ĠLaf": 7371,
      "ĠLaelia": 7372,
      "ilton": 7373,
      "Ġacademic": 7374,
      "Ġauthors": 7375,
      "leton": 7376,
      "icans": 7377,
      "Ġbond": 7378,
      "ĠPle": 7379,
      "ĠPied": 7380,
      "andro": 7381,
      "ĠThis": 7382,
      "itis": 7383,
      "ĠMul": 7384,
      "ĠMind": 7385,
      "1950": 7386,
      "ĠAu": 7387,
      "ollo": 7388,
      "rod": 7389,
      "roy": 7390,
      "roud": 7391,
      "ĠBach": 7392,
      "ĠBlan": 7393,
      "ask": 7394,
      "elter": 7395,
      "Ġpr": 7396,
      "Ġprey": 7397,
      "Ġded": 7398,
      "ĠGorb": 7399,
      "urb": 7400,
      "ĠDas": 7401,
      "Ġtests": 7402,
      "ĠNi": 7403,
      "ĠNon": 7404,
      "ĠNation": 7405,
      "ĠNach": 7406,
      "ĠNico": 7407,
      "Ġcru": 7408,
      "idler": 7409,
      "Ġmagn": 7410,
      "rage": 7411,
      "ĠWa": 7412,
      "ĠWard": 7413,
      "ĠWerner": 7414,
      "ĠFoot": 7415,
      "ĠFIFA": 7416,
      "ivation": 7417,
      "ĠJa": 7418,
      "ĠJah": 7419,
      "Ġway": 7420,
      "ulations": 7421,
      "ctures": 7422,
      "hecia": 7423,
      "ĠOg": 7424,
      "ĠOst": 7425,
      "ĠUm": 7426,
      "ĠVirt": 7427,
      "Ġtook": 7428,
      "otro": 7429,
      "odion": 7430,
      "odia": 7431,
      "irus": 7432,
      "Ġnom": 7433,
      "ager": 7434,
      "ogo": 7435,
      "ogen": 7436,
      "ogel": 7437,
      "oglio": 7438,
      "ĠUnits": 7439,
      "oven": 7440,
      "ovittata": 7441,
      "Ġgood": 7442,
      "Ġgrand": 7443,
      "Ġlos": 7444,
      "Ġlive": 7445,
      "aper": 7446,
      "berts": 7447,
      "ithea": 7448,
      "Ġreaction": 7449,
      "ichi": 7450,
      "antes": 7451,
      "geb": 7452,
      "geology": 7453,
      "oclet": 7454,
      "iboeum": 7455,
      "Ġstyles": 7456,
      "Ġedge": 7457,
      "upo": 7458,
      "Ã©r": 7459,
      "ohen": 7460,
      "Ġ1869": 7461,
      "ending": 7462,
      "ession": 7463,
      "ĠMars": 7464,
      "yster": 7465,
      "ĠRoad": 7466,
      "106": 7467,
      "ighter": 7468,
      "Introduction": 7469,
      "eyer": 7470,
      "athus": 7471,
      "Ġelect": 7472,
      "Ġelectronic": 7473,
      "itect": 7474,
      "ĠSchw": 7475,
      "ĠSchne": 7476,
      "ĠSchwar": 7477,
      "ĠOrchestra": 7478,
      "123": 7479,
      "ĠReferences": 7480,
      "therlands": 7481,
      "Ġ40": 7482,
      "amps": 7483,
      "ĠGuy": 7484,
      "ĠFranÃ§": 7485,
      "ĠWarfare": 7486,
      "Thomas": 7487,
      "158": 7488,
      "ailand": 7489,
      "ĠConstitution": 7490,
      "ĠBerkeley": 7491,
      "Ġlaw": 7492,
      "Ġconson": 7493,
      "ertation": 7494,
      "ĠDeath": 7495,
      "Ġspring": 7496,
      "lorescence": 7497,
      "Ġ...": 7498,
      "lagi": 7499,
      "ettig": 7500,
      "Ġ1942": 7501,
      "ĠClub": 7502,
      "weil": 7503,
      "Ġimage": 7504,
      "ĠBruno": 7505,
      "ĠAdd": 7506,
      "Ġ80": 7507,
      "Ġ88": 7508,
      "Ġlies": 7509,
      "arsis": 7510,
      "Ġconsist": 7511,
      "ĠGround": 7512,
      "ĠGross": 7513,
      "Å¡ov": 7514,
      "Ġrecords": 7515,
      "ĠSalam": 7516,
      "ĠNetherlands": 7517,
      "Ġscores": 7518,
      "ĠParks": 7519,
      "ĠSanto": 7520,
      "Leipzig": 7521,
      "jects": 7522,
      "486": 7523,
      "ĠMinor": 7524,
      "alais": 7525,
      "Ġsurvey": 7526,
      "agno": 7527,
      "Ġ1893": 7528,
      "ĠPalgrave": 7529,
      "ĠPatri": 7530,
      "Ġinterest": 7531,
      "ĠBelbo": 7532,
      "ĠContinu": 7533,
      "Ġextensive": 7534,
      "Ġhighly": 7535,
      "Ġscholar": 7536,
      "ĠLiber": 7537,
      "ĠHaime": 7538,
      "ĠDescription": 7539,
      "Ġhabitats": 7540,
      "phenus": 7541,
      "ĠHowell": 7542,
      "ĠBrook": 7543,
      "ĠAntiqu": 7544,
      "Ġclassic": 7545,
      "ĠTechnical": 7546,
      "ĠMarcus": 7547,
      "azzano": 7548,
      "ĠLouisiana": 7549,
      "ĠProfessor": 7550,
      "Leptodactylus": 7551,
      "ĠLindl": 7552,
      "Ġcapt": 7553,
      "intage": 7554,
      "ĠTitsingh": 7555,
      "Ġrecorded": 7556,
      "Ġvalid": 7557,
      "Ġhonour": 7558,
      "NESCO": 7559,
      "ĠHeinz": 7560,
      "glenes": 7561,
      "ĠHyper": 7562,
      "ĠGerald": 7563,
      "Ġexamples": 7564,
      "ĠGriehl": 7565,
      "ĠJerry": 7566,
      "ĠZoology": 7567,
      "ontaine": 7568,
      "ĠPeninsula": 7569,
      "ĠRoland": 7570,
      "rowser": 7571,
      "Ġphysical": 7572,
      "uppy": 7573,
      "ĠFourth": 7574,
      "impson": 7575,
      "oretical": 7576,
      "ĠConcord": 7577,
      "ĠBuddh": 7578,
      "astropod": 7579,
      "ĠLambro": 7580,
      "ĠIssue": 7581,
      "ĠKunte": 7582,
      "fasciata": 7583,
      "ĠLarry": 7584,
      "ĠPicture": 7585,
      "Ġintroduced": 7586,
      "Tetraglenes": 7587,
      "helm": 7588,
      "ĠLetters": 7589,
      "ĠKristensen": 7590,
      "Charles": 7591,
      "Prax": 7592,
      "Pierre": 7593,
      "Poeciloxestia": 7594,
      "Lissonotus": 7595,
      "03460": 7596,
      "ĠVladimir": 7597,
      "Ottawa": 7598,
      "ĠWissenschaften": 7599,
      "ëĤ¨ì": 7600,
      "ĠVillanova": 7601,
      "obothea": 7602,
      "ĠGÃ¶ttingen": 7603,
      "Ecteness": 7604,
      "ĠGuthrie": 7605,
      "Stenosphenus": 7606,
      "ĠSgarlato": 7607,
      "ĠGorbunov": 7608,
      "ocletian": 7609,
      "Bloomington": 7610,
      "Com": 7611,
      "Camp": 7612,
      "Catal": 7613,
      "Del": 7614,
      "Dia": 7615,
      "Dob": 7616,
      "EC": 7617,
      "EN": 7618,
      "Et": 7619,
      "Free": 7620,
      "Field": 7621,
      "Further": 7622,
      "Hin": 7623,
      "Hon": 7624,
      "Jack": 7625,
      "Jean": 7626,
      "Los": 7627,
      "Later": 7628,
      "Mu": 7629,
      "Mel": 7630,
      "Most": 7631,
      "Mone": 7632,
      "Pod": 7633,
      "Several": 7634,
      "WÃ¼r": 7635,
      "cont": 7636,
      "hen": 7637,
      "ieg": 7638,
      "lar": 7639,
      "lung": 7640,
      "mi": 7641,
      "met": 7642,
      "mel": 7643,
      "mia": 7644,
      "not": 7645,
      "rill": 7646,
      "sing": 7647,
      "sim": 7648,
      "tel": 7649,
      "vat": 7650,
      "wil": 7651,
      "zona": 7652,
      "Å¯": 7653,
      "Ñĥ": 7654,
      "Ġë": 7655,
      "inete": 7656,
      "enia": 7657,
      "enka": 7658,
      "thal": 7659,
      "thea": 7660,
      "ĠSaf": 7661,
      "ĠSearch": 7662,
      "ĠSutton": 7663,
      "amer": 7664,
      "ĠCurt": 7665,
      "alem": 7666,
      "arpe": 7667,
      "aras": 7668,
      "aring": 7669,
      "ĠRid": 7670,
      "ĠRav": 7671,
      "ĠTV": 7672,
      "ĠTen": 7673,
      "ĠTal": 7674,
      "ĠTul": 7675,
      "ĠLÃ©": 7676,
      "ĠLiter": 7677,
      "Ġsed": 7678,
      "Ġson": 7679,
      "Ġsound": 7680,
      "Ġfair": 7681,
      "Ġfamous": 7682,
      "ilema": 7683,
      "Ġau": 7684,
      "Ġadapt": 7685,
      "lem": 7686,
      "ĠPath": 7687,
      "ĠPerson": 7688,
      "ĠPract": 7689,
      "etation": 7690,
      "andy": 7691,
      "andom": 7692,
      "dad": 7693,
      "1949": 7694,
      "ĠAN": 7695,
      "ĠAy": 7696,
      "ĠAus": 7697,
      "ĠAuck": 7698,
      "olph": 7699,
      "rob": 7700,
      "rous": 7701,
      "amilton": 7702,
      "ĠBang": 7703,
      "ĠBure": 7704,
      "ĠBount": 7705,
      "ĠBenth": 7706,
      "ĠBux": 7707,
      "ĠBaden": 7708,
      "asion": 7709,
      "Ġple": 7710,
      "Ġpara": 7711,
      "Ġpract": 7712,
      "Ġdiff": 7713,
      "Ġ1955": 7714,
      "Ġ1953": 7715,
      "ĠGent": 7716,
      "ĠGrim": 7717,
      "oms": 7718,
      "omaculata": 7719,
      "ersch": 7720,
      "ĠHem": 7721,
      "ĠHob": 7722,
      "ĠHyd": 7723,
      "ĠDur": 7724,
      "ĠDial": 7725,
      "ĠDrew": 7726,
      "ĠDynasty": 7727,
      "Ġtones": 7728,
      "ĠNam": 7729,
      "ĠNick": 7730,
      "Ġcrib": 7731,
      "Ġcele": 7732,
      "idden": 7733,
      "idoz": 7734,
      "Ġmust": 7735,
      "rait": 7736,
      "ĠWagner": 7737,
      "ĠWisconsin": 7738,
      "ĠFul": 7739,
      "ĠFact": 7740,
      "enti": 7741,
      "entino": 7742,
      "ĠEll": 7743,
      "ĠJen": 7744,
      "ĠJak": 7745,
      "uli": 7746,
      "ctes": 7747,
      "opt": 7748,
      "opol": 7749,
      "opli": 7750,
      "imura": 7751,
      "igins": 7752,
      "ĠOx": 7753,
      "utz": 7754,
      "cea": 7755,
      "ĠUb": 7756,
      "ĠKan": 7757,
      "ĠKor": 7758,
      "ĠKit": 7759,
      "ĠKir": 7760,
      "ĠKag": 7761,
      "ĠKap": 7762,
      "Ġ179": 7763,
      "ĠVor": 7764,
      "ĠVign": 7765,
      "ĠVals": 7766,
      "Ġhom": 7767,
      "Ġhold": 7768,
      "Ġnever": 7769,
      "aged": 7770,
      "order": 7771,
      "ĠStatus": 7772,
      "aco": 7773,
      "ondrial": 7774,
      "Ġliterature": 7775,
      "ĠInf": 7776,
      "ĠYuk": 7777,
      "Ġvs": 7778,
      "Ġvia": 7779,
      "Ġvitt": 7780,
      "Ġvarian": 7781,
      "iant": 7782,
      "Ġread": 7783,
      "estor": 7784,
      "oco": 7785,
      "ouv": 7786,
      "Ġdeb": 7787,
      "undred": 7788,
      "akers": 7789,
      "iple": 7790,
      "iblast": 7791,
      "assa": 7792,
      "Ã©rie": 7793,
      "ugu": 7794,
      "ĠAlm": 7795,
      "Ġ36": 7796,
      "Ġ37": 7797,
      "erno": 7798,
      "Ġancient": 7799,
      "ysthea": 7800,
      "ylistes": 7801,
      "ucci": 7802,
      "107": 7803,
      "108": 7804,
      "Inter": 7805,
      "enner": 7806,
      "Ġein": 7807,
      "cope": 7808,
      "aires": 7809,
      "auro": 7810,
      "ĠSher": 7811,
      "Ġ48": 7812,
      "azon": 7813,
      "117": 7814,
      "ĠPhylogeny": 7815,
      "reek": 7816,
      "Ġ55": 7817,
      "attley": 7818,
      "ochondrial": 7819,
      "ĠCompanion": 7820,
      "etermin": 7821,
      "Ġcomputer": 7822,
      "Ġrest": 7823,
      "Ġresult": 7824,
      "Ġsection": 7825,
      "Ġaden": 7826,
      "Ġphon": 7827,
      "ĠCoast": 7828,
      "Ġ1947": 7829,
      "Ġ1949": 7830,
      "Ġeditions": 7831,
      "schlag": 7832,
      "ĠAmber": 7833,
      "Åįky": 7834,
      "8047": 7835,
      "ĠGrote": 7836,
      "Ġquantum": 7837,
      "ĠMacMillan": 7838,
      "criptions": 7839,
      "ĠBritannica": 7840,
      "ĠHeidler": 7841,
      "ĠSmall": 7842,
      "Ġclub": 7843,
      "Ġagreeableness": 7844,
      "ĠAbout": 7845,
      "ienemann": 7846,
      "ĠColin": 7847,
      "ĠParam": 7848,
      "Ġregister": 7849,
      "Ġenvironment": 7850,
      "ĠHolt": 7851,
      "acific": 7852,
      "Ġ1908": 7853,
      "agnis": 7854,
      "Ġmodels": 7855,
      "Ġ1890": 7856,
      "Ġ1895": 7857,
      "ĠAgord": 7858,
      "Ġdifference": 7859,
      "Shrews": 7860,
      "ĠClassics": 7861,
      "affe": 7862,
      "ĠTerry": 7863,
      "Ġcommercial": 7864,
      "ĠGarcia": 7865,
      "chenko": 7866,
      "ĠInterview": 7867,
      "Ġguides": 7868,
      "Epiblast": 7869,
      "Ġactiv": 7870,
      "ĠAccount": 7871,
      "strÃ¶m": 7872,
      "Ġcorrel": 7873,
      "oplatus": 7874,
      "Ġequations": 7875,
      "uven": 7876,
      "ĠUniversit": 7877,
      "uerto": 7878,
      "ĠMethod": 7879,
      "Ġchildhood": 7880,
      "cellent": 7881,
      "ĠGrub": 7882,
      "Ġcolour": 7883,
      "Hyagnis": 7884,
      "Ġviolins": 7885,
      "Papilio": 7886,
      "ĠMonguor": 7887,
      "Ġtypically": 7888,
      "ĠCassell": 7889,
      "Ġservice": 7890,
      "ĠPopular": 7891,
      "Ġtechnology": 7892,
      "ĠJacques": 7893,
      "Research": 7894,
      "Ġinflorescence": 7895,
      "Ġeffects": 7896,
      "Ġgracil": 7897,
      "Ġwingspan": 7898,
      "Ġmusical": 7899,
      "ĠMeyer": 7900,
      "ĠGriff": 7901,
      "Ġcombinations": 7902,
      "ĠErnst": 7903,
      "forte": 7904,
      "Ġcommunity": 7905,
      "ĠMohamm": 7906,
      "ĠMohamed": 7907,
      "Ġreleased": 7908,
      "Ġapproxim": 7909,
      "ĠProvince": 7910,
      "Richard": 7911,
      "ĠHungary": 7912,
      "ĠSannio": 7913,
      "Ġrespons": 7914,
      "Ġcompletely": 7915,
      "obiography": 7916,
      "Ġchemical": 7917,
      "ĠCatholic": 7918,
      "ĠLiszt": 7919,
      "Ġastron": 7920,
      "Ġclaim": 7921,
      "Ġstrandi": 7922,
      "Ġeducational": 7923,
      "Eurysthea": 7924,
      "Available": 7925,
      "Loeb": 7926,
      "ĠTaiwan": 7927,
      "Ġcateg": 7928,
      "Frederick": 7929,
      "Ġreceived": 7930,
      "ĠRocchetta": 7931,
      "atellite": 7932,
      "ĠSebast": 7933,
      "Ġdeposited": 7934,
      "ĠMotorbooks": 7935,
      "ĠQueensland": 7936,
      "Ichthyodes": 7937,
      "Moneilema": 7938,
      "ĠAuckland": 7939,
      "ĠBounty": 7940,
      "ÅįkyÅį": 7941,
      "Shrewsbury": 7942,
      "Epiblastus": 7943,
      ",***\"": 7944,
      "312": 7945,
      "824": 7946,
      "Bel": 7947,
      "Cra": 7948,
      "Ceral": 7949,
      "Dr": 7950,
      "Day": 7951,
      "Dip": 7952,
      "Euch": 7953,
      "Gro": 7954,
      "June": 7955,
      "Krushnamegh": 7956,
      "Lan": 7957,
      "Law": 7958,
      "MC": 7959,
      "Med": 7960,
      "Mion": 7961,
      "Mec": 7962,
      "Mark": 7963,
      "Moscow": 7964,
      "Rel": 7965,
      "Rod": 7966,
      "Rib": 7967,
      "Russian": 7968,
      "Sk": 7969,
      "Sci": 7970,
      "Wars": 7971,
      "Young": 7972,
      "actions": 7973,
      "bk": 7974,
      "ball": 7975,
      "cing": 7976,
      "gov": 7977,
      "green": 7978,
      "hu": 7979,
      "hill": 7980,
      "icidae": 7981,
      "ju": 7982,
      "lich": 7983,
      "mont": 7984,
      "more": 7985,
      "oa": 7986,
      "oud": 7987,
      "odact": 7988,
      "pol": 7989,
      "pared": 7990,
      "rical": 7991,
      "rÃŃ": 7992,
      "rates": 7993,
      "yia": 7994,
      "yph": 7995,
      "¤í": 7996,
      "Ã¥": 7997,
      "ĠÃ¼": 7998,
      "Ġ74": 7999,
      "Ġê°": 8000,
      "ĢìĿ": 8001,
      "ĥĢìĿ": 8002,
      "Ĭ¤í": 8003,
      "ķëĤ¨ì": 8004,
      "erano": 8005,
      "inh": 8006,
      "inction": 8007,
      "isation": 8008,
      "isse": 8009,
      "enburg": 8010,
      "online": 8011,
      "onstr": 8012,
      "aten": 8013,
      "atem": 8014,
      "ĠSig": 8015,
      "ĠSici": 8016,
      "ĠSach": 8017,
      "ĠSnow": 8018,
      "ĠSuccess": 8019,
      "ĠSierra": 8020,
      "ament": 8021,
      "rei": 8022,
      "pei": 8023,
      "peus": 8024,
      "ĠCP": 8025,
      "alination": 8026,
      "arid": 8027,
      "aridae": 8028,
      "arina": 8029,
      "ĠRan": 8030,
      "ĠRem": 8031,
      "ĠRyan": 8032,
      "ĠTre": 8033,
      "ĠTop": 8034,
      "ĠTrav": 8035,
      "ĠTropical": 8036,
      "ĠTettig": 8037,
      "ĠLine": 8038,
      "ĠLant": 8039,
      "ĠLove": 8040,
      "Ġsummer": 8041,
      "Ġfal": 8042,
      "Ġfac": 8043,
      "Ġfile": 8044,
      "Ġfiles": 8045,
      "ĠIN": 8046,
      "ĠIran": 8047,
      "Ġacid": 8048,
      "Ġbar": 8049,
      "Ġband": 8050,
      "Ġbim": 8051,
      "Ġbip": 8052,
      "ĠPanzer": 8053,
      "andr": 8054,
      "andria": 8055,
      "ĠThor": 8056,
      "ĠThailand": 8057,
      "ĠMit": 8058,
      "ĠMut": 8059,
      "ĠMason": 8060,
      "ĠMyth": 8061,
      "ĠMaterial": 8062,
      "ĠMountain": 8063,
      "ĠMoscow": 8064,
      "ĠMathematical": 8065,
      "ĠAero": 8066,
      "ĠAlain": 8067,
      "change": 8068,
      "ĠBes": 8069,
      "ĠBod": 8070,
      "ĠBak": 8071,
      "ĠBattles": 8072,
      "asu": 8073,
      "Ġprol": 8074,
      "Ġparv": 8075,
      "Ġdivided": 8076,
      "Ġ1920": 8077,
      "Ġ1934": 8078,
      "ĠGamb": 8079,
      "ĠGrow": 8080,
      "ĠGram": 8081,
      "ĠHyp": 8082,
      "ĠHimal": 8083,
      "ĠDig": 8084,
      "ĠDuch": 8085,
      "ĠDiffer": 8086,
      "ĠDmit": 8087,
      "Ġtake": 8088,
      "Ġcer": 8089,
      "Ġcode": 8090,
      "idend": 8091,
      "Ġmig": 8092,
      "Ġmart": 8093,
      "Ġmaking": 8094,
      "raisha": 8095,
      "ĠWide": 8096,
      "ĠWitt": 8097,
      "ĠWink": 8098,
      "ĠFlying": 8099,
      "entin": 8100,
      "ĠEmer": 8101,
      "ĠJord": 8102,
      "iacom": 8103,
      "oso": 8104,
      "Ġwide": 8105,
      "terdam": 8106,
      "laci": 8107,
      "labor": 8108,
      "ĠOut": 8109,
      "ĠUl": 8110,
      "ĠKil": 8111,
      "ĠKings": 8112,
      "ĠKare": 8113,
      "ĠVehicles": 8114,
      "Ġtour": 8115,
      "Ġhome": 8116,
      "ews": 8117,
      "otto": 8118,
      "rio": 8119,
      "stone": 8120,
      "âĢĿ": 8121,
      "Ġnuclear": 8122,
      "Ġnumbers": 8123,
      "agh": 8124,
      "ĠStation": 8125,
      "ĠStock": 8126,
      "ĠStimpson": 8127,
      "avy": 8128,
      "Ġgla": 8129,
      "Ġglobal": 8130,
      "Ġgastropod": 8131,
      "Ġlittle": 8132,
      "ĠYong": 8133,
      "Ġven": 8134,
      "Ġvow": 8135,
      "rant": 8136,
      "ifrons": 8137,
      "ĠChild": 8138,
      "ĠChange": 8139,
      "udi": 8140,
      "udson": 8141,
      "antage": 8142,
      "quist": 8143,
      "exts": 8144,
      "ocyna": 8145,
      "ouk": 8146,
      "eggio": 8147,
      "ioides": 8148,
      "ibial": 8149,
      "illes": 8150,
      "asse": 8151,
      "upta": 8152,
      "orei": 8153,
      "Ġ1870": 8154,
      "Ġ1859": 8155,
      "angered": 8156,
      "ĠAllied": 8157,
      "Ġanother": 8158,
      "ĠOriginal": 8159,
      "ĠRoth": 8160,
      "onso": 8161,
      "ption": 8162,
      "102": 8163,
      "109": 8164,
      "Ġprom": 8165,
      "Ġprox": 8166,
      "Ġpropos": 8167,
      "Ġproduct": 8168,
      "Ġwhose": 8169,
      "ĠZen": 8170,
      "enno": 8171,
      "Ġeff": 8172,
      "Ġeight": 8173,
      "leyi": 8174,
      "180": 8175,
      "Chen": 8176,
      "Ġexcer": 8177,
      "ĠSchÃ¶n": 8178,
      "Ġrh": 8179,
      "Ġrich": 8180,
      "ynton": 8181,
      "ĠLeicester": 8182,
      "clus": 8183,
      "ttem": 8184,
      "away": 8185,
      "136": 8186,
      "Ã¡k": 8187,
      "ĠPhoto": 8188,
      "150": 8189,
      "157": 8190,
      "ckley": 8191,
      "aily": 8192,
      "===:": 8193,
      "ghetto": 8194,
      "Phyl": 8195,
      "rene": 8196,
      "ship": 8197,
      "braham": 8198,
      "Ġadults": 8199,
      "lago": 8200,
      "Ġphil": 8201,
      "cluded": 8202,
      "ĠCastiglione": 8203,
      "rosoph": 8204,
      "ĠRobertson": 8205,
      "ĠAdrian": 8206,
      "Ġ81": 8207,
      "ĠAndreas": 8208,
      "Ġroad": 8209,
      "Ġrock": 8210,
      "zza": 8211,
      "ĠPaper": 8212,
      "Ġuses": 8213,
      "oulder": 8214,
      "Ġfounded": 8215,
      "oeh": 8216,
      "Ġqual": 8217,
      "Parmen": 8218,
      "297": 8219,
      "Ġlonger": 8220,
      "itzerland": 8221,
      "Enes": 8222,
      "ĠCollected": 8223,
      "Ġscale": 8224,
      "ĠTimothy": 8225,
      "1962": 8226,
      "1966": 8227,
      "ĠAssessment": 8228,
      "Ġoblong": 8229,
      "flict": 8230,
      "Ġrain": 8231,
      "ĠSwitzerland": 8232,
      "armorata": 8233,
      "ĠLuft": 8234,
      "ĠWeber": 8235,
      "Ġformation": 8236,
      "Ġinteractive": 8237,
      "ĠPoynton": 8238,
      "ĠMediterranean": 8239,
      "ĠControl": 8240,
      "cidental": 8241,
      "ijing": 8242,
      "plications": 8243,
      "ĠBurma": 8244,
      "ĠDelta": 8245,
      "ĠCastelletto": 8246,
      "Ġcomments": 8247,
      "Ġcompet": 8248,
      "Ġ1867": 8249,
      "Ġneigh": 8250,
      "ĠInterior": 8251,
      "Ġresearchers": 8252,
      "Ġmanus": 8253,
      "Ġmanagement": 8254,
      "Ġpaperback": 8255,
      "ĠFauna": 8256,
      "Ġreturn": 8257,
      "ĠMela": 8258,
      "Ġmonths": 8259,
      "ecause": 8260,
      "ĠMikh": 8261,
      "ĠUSAF": 8262,
      "Amphib": 8263,
      "olnÃŃ": 8264,
      "ĠHansen": 8265,
      "ĠIntel": 8266,
      "Periboeum": 8267,
      "ĠMetro": 8268,
      "Ġeleg": 8269,
      "Ġshows": 8270,
      "Ġshowing": 8271,
      "ĠRenard": 8272,
      "ciples": 8273,
      "ĠTanks": 8274,
      "ĠUniversal": 8275,
      "ĠSheet": 8276,
      "ĠSiber": 8277,
      "ĠSpeech": 8278,
      "ĠVenice": 8279,
      "Ġ___": 8280,
      "Hyalin": 8281,
      "Ġbehind": 8282,
      "Ġgrowth": 8283,
      "ĠClarke": 8284,
      "ĠPotsch": 8285,
      "Ġterrest": 8286,
      "Ġtypes": 8287,
      "Ġserve": 8288,
      "Harper": 8289,
      "Ġmarkings": 8290,
      "Ġbelong": 8291,
      "Ġcities": 8292,
      "ĠDistrict": 8293,
      "Ġwinter": 8294,
      "ĠPrince": 8295,
      "Ġassociation": 8296,
      "ĠKenya": 8297,
      "ĠGilbert": 8298,
      "colm": 8299,
      "ĠGardens": 8300,
      "Colobothea": 8301,
      "Ġestabl": 8302,
      "Ġconcern": 8303,
      "onstruction": 8304,
      "allowtail": 8305,
      "Ġprimary": 8306,
      "ĠBosco": 8307,
      "Ġfiled": 8308,
      "ĠCzech": 8309,
      "ĠWayne": 8310,
      "ltr": 8311,
      "ĠPlants": 8312,
      "ĠAeronautica": 8313,
      "Ġsolutions": 8314,
      "ĠOvid": 8315,
      "ĠInvest": 8316,
      "Ġseparate": 8317,
      "mbH": 8318,
      "ĠHendel": 8319,
      "Ġproblems": 8320,
      "hausen": 8321,
      "ĠConfeder": 8322,
      "ĠMaurice": 8323,
      "ĠFriedrich": 8324,
      "Ġvariab": 8325,
      "ĠParnassius": 8326,
      "Ġconducted": 8327,
      "Eriphus": 8328,
      "Lophop": 8329,
      "Velk": 8330,
      "ĠJinbut": 8331,
      "ĠPSY": 8332,
      "ĠGonz": 8333,
      "Ġprobably": 8334,
      "ĠPhilippines": 8335,
      "ĠAgriculture": 8336,
      "Logisticus": 8337,
      "Ġsalamander": 8338,
      "ĠPablo": 8339,
      "Silva": 8340,
      "ĠMarek": 8341,
      "Ġsemifinal": 8342,
      "Ġreptiles": 8343,
      "elligence": 8344,
      "Ġlikely": 8345,
      "obatrachium": 8346,
      "Amsterdam": 8347,
      "Gangnam": 8348,
      "Ġdedicated": 8349,
      "Honolulu": 8350,
      "Ġgracilis": 8351,
      "Ceralocyna": 8352,
      "Mionochroma": 8353,
      "Mecometopus": 8354,
      "Ġê°ķëĤ¨ì": 8355,
      "ĥĢìĿ¼": 8356,
      "Ĭ¤íĥĢìĿ¼": 8357,
      "ĠTettigoniidae": 8358,
      "idendrum": 8359,
      "Parmenonta": 8360,
      "Hyalinobatrachium": 8361,
      "ĠJinbutsu": 8362,
      "Ġê°ķëĤ¨ìĬ¤íĥĢìĿ¼": 8363,
      "120": 8364,
      "313": 8365,
      "400": 8366,
      "500": 8367,
      "854": 8368,
      ":**": 8369,
      "AC": 8370,
      "Du": 8371,
      "Don": 8372,
      "Ely": 8373,
      "Great": 8374,
      "Gramm": 8375,
      "HS": 8376,
      "Hen": 8377,
      "Hal": 8378,
      "Hap": 8379,
      "Host": 8380,
      "Hrsg": 8381,
      "IP": 8382,
      "Ic": 8383,
      "Il": 8384,
      "Jul": 8385,
      "Lu": 8386,
      "Long": 8387,
      "MP": 8388,
      "Mer": 8389,
      "Mur": 8390,
      "Naval": 8391,
      "October": 8392,
      "Pat": 8393,
      "Plo": 8394,
      "Publ": 8395,
      "Patt": 8396,
      "Print": 8397,
      "Paul": 8398,
      "Sam": 8399,
      "Sec": 8400,
      "Spal": 8401,
      "Sca": 8402,
      "Since": 8403,
      "Tr": 8404,
      "Tele": 8405,
      "aus": 8406,
      "bow": 8407,
      "cÃŃa": 8408,
      "ding": 8409,
      "dong": 8410,
      "fall": 8411,
      "fried": 8412,
      "gang": 8413,
      "horn": 8414,
      "iidae": 8415,
      "lon": 8416,
      "lit": 8417,
      "lington": 8418,
      "ners": 8419,
      "pic": 8420,
      "rh": 8421,
      "ror": 8422,
      "rology": 8423,
      "sm": 8424,
      "ti": 8425,
      "uence": 8426,
      "von": 8427,
      "wyn": 8428,
      "zawa": 8429,
      "Â°": 8430,
      "ĠÂ": 8431,
      "ĠÄ": 8432,
      "Ġumb": 8433,
      "anensis": 8434,
      "ede": 8435,
      "cipe": 8436,
      "onis": 8437,
      "ĠSla": 8438,
      "ĠSac": 8439,
      "ĠSars": 8440,
      "ĠSources": 8441,
      "ĠSource": 8442,
      "ĠSÃ¦": 8443,
      "ĠSoftware": 8444,
      "reille": 8445,
      "pez": 8446,
      "ĠClin": 8447,
      "ĠCather": 8448,
      "oro": 8449,
      "ored": 8450,
      "aly": 8451,
      "aru": 8452,
      "arro": 8453,
      "arov": 8454,
      "arterf": 8455,
      "ĠRag": 8456,
      "ĠRivers": 8457,
      "ĠRose": 8458,
      "ĠRights": 8459,
      "ĠRKO": 8460,
      "ĠTrib": 8461,
      "ĠType": 8462,
      "ĠLign": 8463,
      "ĠLomb": 8464,
      "ĠLane": 8465,
      "ĠLars": 8466,
      "ĠLakes": 8467,
      "Ġfemor": 8468,
      "lec": 8469,
      "lection": 8470,
      "Ġbur": 8471,
      "Ġbates": 8472,
      "Ġbark": 8473,
      "Ġbarb": 8474,
      "Ġbuilt": 8475,
      "istance": 8476,
      "ĠProp": 8477,
      "ĠPieve": 8478,
      "eties": 8479,
      "ĠMes": 8480,
      "ĠMam": 8481,
      "ĠMand": 8482,
      "ĠMomb": 8483,
      "ĠMount": 8484,
      "ĠMajor": 8485,
      "ĠMollusca": 8486,
      "1912": 8487,
      "1901": 8488,
      "1956": 8489,
      "ĠAction": 8490,
      "ĠActor": 8491,
      "rost": 8492,
      "ĠBened": 8493,
      "ĠBack": 8494,
      "ĠBrad": 8495,
      "aso": 8496,
      "elida": 8497,
      "Ġbee": 8498,
      "ambarus": 8499,
      "Ġpa": 8500,
      "Ġpoll": 8501,
      "Ġpale": 8502,
      "Ġplat": 8503,
      "Ġdiversity": 8504,
      "Ġdry": 8505,
      "ĠGlo": 8506,
      "ĠGau": 8507,
      "ĠGray": 8508,
      "ĠGmbH": 8509,
      "omer": 8510,
      "omus": 8511,
      "omel": 8512,
      "ĠHand": 8513,
      "ĠHÃ¼b": 8514,
      "ĠHashimi": 8515,
      "ĠDj": 8516,
      "ĠDiet": 8517,
      "ĠDocuments": 8518,
      "ĠDiane": 8519,
      "Ġtro": 8520,
      "Ġtip": 8521,
      "Ġtalk": 8522,
      "ĠNap": 8523,
      "ĠNaz": 8524,
      "Ġcrass": 8525,
      "Ġclear": 8526,
      "idot": 8527,
      "Ġmass": 8528,
      "Ġmuseum": 8529,
      "Ġmakes": 8530,
      "Ġmother": 8531,
      "Ġmemory": 8532,
      "rae": 8533,
      "rada": 8534,
      "rael": 8535,
      "ĠWright": 8536,
      "ĠFay": 8537,
      "ĠFors": 8538,
      "ĠFinn": 8539,
      "ĠFuture": 8540,
      "ivo": 8541,
      "ĠElectronic": 8542,
      "ĠJava": 8543,
      "osquilla": 8544,
      "heel": 8545,
      "opes": 8546,
      "opoda": 8547,
      "iment": 8548,
      "igious": 8549,
      "lau": 8550,
      "lagher": 8551,
      "loy": 8552,
      "ĠKol": 8553,
      "ĠKew": 8554,
      "ĠKah": 8555,
      "ĠKamp": 8556,
      "emp": 8557,
      "emonte": 8558,
      "ĠVo": 8559,
      "ĠVig": 8560,
      "ĠVerm": 8561,
      "Ġhov": 8562,
      "oting": 8563,
      "rif": 8564,
      "rior": 8565,
      "rique": 8566,
      "stadt": 8567,
      "Ġnob": 8568,
      "Ġnetwork": 8569,
      "aglia": 8570,
      "ĠUniti": 8571,
      "acco": 8572,
      "acopsis": 8573,
      "Ġvo": 8574,
      "Ġvel": 8575,
      "rano": 8576,
      "ifasci": 8577,
      "apicalis": 8578,
      "abilis": 8579,
      "quet": 8580,
      "occ": 8581,
      "unders": 8582,
      "allas": 8583,
      "ĠTheir": 8584,
      "ĠAnthropology": 8585,
      "ibility": 8586,
      "Ġstre": 8587,
      "illed": 8588,
      "icity": 8589,
      "Ġeditors": 8590,
      "uga": 8591,
      "Ġ1873": 8592,
      "ortic": 8593,
      "ictory": 8594,
      "uca": 8595,
      "izioni": 8596,
      "ennes": 8597,
      "ritten": 8598,
      "Ġeth": 8599,
      "Ġleading": 8600,
      "Ġlevel": 8601,
      "Ġletters": 8602,
      "1890": 8603,
      "Ġchap": 8604,
      "Choriolaus": 8605,
      "Ġexperience": 8606,
      "ronze": 8607,
      "Anton": 8608,
      "aceous": 8609,
      "Ġrat": 8610,
      "ĠShel": 8611,
      "ĠShores": 8612,
      "Ġ42": 8613,
      "ĠProte": 8614,
      "index": 8615,
      "ĠFranz": 8616,
      "ĠFranco": 8617,
      "ĠWarren": 8618,
      "Ġ500": 8619,
      "Ġknow": 8620,
      "arison": 8621,
      "ĠConquest": 8622,
      "Pha": 8623,
      "Ġshallow": 8624,
      "burn": 8625,
      "Ġlaev": 8626,
      "Ġlake": 8627,
      "ĠSpring": 8628,
      "shaped": 8629,
      "Ġconference": 8630,
      "formed": 8631,
      "ĠNative": 8632,
      "Ġresemb": 8633,
      "Ġseab": 8634,
      "Ġadol": 8635,
      "ĠIsk": 8636,
      "ĠPaulo": 8637,
      "Ġphylogenetic": 8638,
      "United": 8639,
      "337": 8640,
      "inalis": 8641,
      "228": 8642,
      "Ġpublications": 8643,
      "Ġ84": 8644,
      "ĠAmphib": 8645,
      "Ġsubfamily": 8646,
      "cripts": 8647,
      "Ġquick": 8648,
      "Ġquarterf": 8649,
      "Ġdistributed": 8650,
      "ĠMacDi": 8651,
      "ÅĻeb": 8652,
      "ĠMilan": 8653,
      "ĠForum": 8654,
      "ometry": 8655,
      "ĠWales": 8656,
      "ĠEmmanuel": 8657,
      "Beraba": 8658,
      "troleptus": 8659,
      "ĠMalcolm": 8660,
      "ĠRichardson": 8661,
      "Ġhealth": 8662,
      "ĠGiust": 8663,
      "ĠHerpet": 8664,
      "Ġtrade": 8665,
      "ĠSwallowtail": 8666,
      "Ġmodest": 8667,
      "Ġ1892": 8668,
      "ĠPalae": 8669,
      "armid": 8670,
      "ĠEcosystem": 8671,
      "Springer": 8672,
      "Ġreprinted": 8673,
      "pectives": 8674,
      "ĠMezz": 8675,
      "Ġdays": 8676,
      "ĠCapt": 8677,
      "Ġopenness": 8678,
      "Ġrevision": 8679,
      "Ġlocation": 8680,
      "Ġhigher": 8681,
      "relim": 8682,
      "oday": 8683,
      "Ġorchestra": 8684,
      "ĠGarland": 8685,
      "Atimura": 8686,
      "ĠMush": 8687,
      "ĠMusical": 8688,
      "Ġpoint": 8689,
      "Ġoccup": 8690,
      "Ġbiological": 8691,
      "ĠRobb": 8692,
      "ĠRobin": 8693,
      "ĠAcqu": 8694,
      "ĠGraf": 8695,
      "uggle": 8696,
      "petes": 8697,
      "Ġattack": 8698,
      "IST": 8699,
      "ĠIdent": 8700,
      "ĠGallagher": 8701,
      "ripennis": 8702,
      "Ġelev": 8703,
      "Ġrecording": 8704,
      "ĠRandall": 8705,
      "Ġdirected": 8706,
      "Ġdirector": 8707,
      "Ġvarieg": 8708,
      "Ġvariety": 8709,
      "Class": 8710,
      "ĠGreece": 8711,
      "Ġannotated": 8712,
      "Ġstandard": 8713,
      "ĠDuke": 8714,
      "According": 8715,
      "igenous": 8716,
      "Ġplaced": 8717,
      "ĠExplor": 8718,
      "California": 8719,
      "France": 8720,
      "April": 8721,
      "Ġbelow": 8722,
      "ĠForez": 8723,
      "ĠNikol": 8724,
      "ĠLanka": 8725,
      "Ġprofile": 8726,
      "ĠArizona": 8727,
      "ĠAshgate": 8728,
      "ĠAhmed": 8729,
      "ĠHorse": 8730,
      "Ġissues": 8731,
      "ĠEnvironmental": 8732,
      "Ġmeasure": 8733,
      "erdin": 8734,
      "ĠRaymond": 8735,
      "Ġadvance": 8736,
      "ĠGabriel": 8737,
      "Ġpupa": 8738,
      "Ġsuggested": 8739,
      "Ġindicates": 8740,
      "Ġexplanation": 8741,
      "Ġfeatures": 8742,
      "Ġmilitary": 8743,
      "Ġpossible": 8744,
      "ĠDevon": 8745,
      "ĠSergei": 8746,
      "ĠFontan": 8747,
      "ĠEicher": 8748,
      "Ġnumerical": 8749,
      "Ancylistes": 8750,
      "Ġparticularly": 8751,
      "Ġterritory": 8752,
      "ĠWritings": 8753,
      "reshwater": 8754,
      "aggiore": 8755,
      "ĠPetersburg": 8756,
      "Deltaspis": 8757,
      "Parep": 8758,
      "ĠSopra": 8759,
      "Ġbecomes": 8760,
      "ĠTwentieth": 8761,
      "ĠIbrahim": 8762,
      "hopalus": 8763,
      "ĠKaiser": 8764,
      "Ġsomew": 8765,
      "icoptus": 8766,
      "Ġcyclase": 8767,
      "ĠSalamander": 8768,
      "Praxithea": 8769,
      "Ectenessa": 8770,
      "Hinckley": 8771,
      "Jackson": 8772,
      "Ribes": 8773,
      "Ġterrestrial": 8774,
      "Elytroleptus": 8775,
      "Spalacopsis": 8776,
      "ĠSÃ¦ther": 8777,
      "ĠLignon": 8778,
      "ĠMacDiarmid": 8779,
      "112": 8780,
      "216": 8781,
      "700": 8782,
      "?\"": 8783,
      "Aeg": 8784,
      "Alex": 8785,
      "Aeren": 8786,
      "Bas": 8787,
      "Born": 8788,
      "Bonn": 8789,
      "Because": 8790,
      "Das": 8791,
      "Document": 8792,
      "DolnÃŃ": 8793,
      "ET": 8794,
      "Em": 8795,
      "Eth": 8796,
      "Est": 8797,
      "East": 8798,
      "Gal": 8799,
      "Hong": 8800,
      "HTML": 8801,
      "King": 8802,
      "Kim": 8803,
      "LI": 8804,
      "MI": 8805,
      "Mo": 8806,
      "Mor": 8807,
      "OS": 8808,
      "Oeax": 8809,
      "Pla": 8810,
      "Pygm": 8811,
      "Ret": 8812,
      "Rept": 8813,
      "Su": 8814,
      "Time": 8815,
      "TÅįkyÅį": 8816,
      "VA": 8817,
      "VD": 8818,
      "Xyst": 8819,
      "buch": 8820,
      "bek": 8821,
      "cens": 8822,
      "ditions": 8823,
      "fran": 8824,
      "from": 8825,
      "gence": 8826,
      "hoe": 8827,
      "iens": 8828,
      "iosa": 8829,
      "jin": 8830,
      "mine": 8831,
      "oen": 8832,
      "pper": 8833,
      "perside": 8834,
      "president": 8835,
      "rice": 8836,
      "rÃ¶": 8837,
      "vet": 8838,
      "Ä±": 8839,
      "Ð»": 8840,
      "åħ": 8841,
      "eran": 8842,
      "erry": 8843,
      "inth": 8844,
      "inated": 8845,
      "anum": 8846,
      "edon": 8847,
      "thing": 8848,
      "oney": 8849,
      "ĠSin": 8850,
      "ĠSid": 8851,
      "ĠSoph": 8852,
      "ĠSemi": 8853,
      "Ġthick": 8854,
      "rete": 8855,
      "ĠCes": 8856,
      "ĠCreat": 8857,
      "ĠCir": 8858,
      "arius": 8859,
      "ĠRat": 8860,
      "ĠRise": 8861,
      "ĠTic": 8862,
      "ĠTag": 8863,
      "ĠTert": 8864,
      "ĠTomb": 8865,
      "ĠTranslated": 8866,
      "ĠTuttle": 8867,
      "ĠLanguages": 8868,
      "ĠLhota": 8869,
      "Ġsus": 8870,
      "Ġsent": 8871,
      "Ġsens": 8872,
      "Ġslight": 8873,
      "Ġinvent": 8874,
      "icz": 8875,
      "icine": 8876,
      "icata": 8877,
      "icola": 8878,
      "icorne": 8879,
      "ĠPand": 8880,
      "ĠPun": 8881,
      "ĠPace": 8882,
      "ĠPrim": 8883,
      "etch": 8884,
      "ĠThienemann": 8885,
      "itung": 8886,
      "itrate": 8887,
      "itarsis": 8888,
      "ĠMing": 8889,
      "ĠMig": 8890,
      "ĠMast": 8891,
      "ĠMorn": 8892,
      "ĠMagn": 8893,
      "ĠMaps": 8894,
      "ĠMolecular": 8895,
      "ĠMoths": 8896,
      "ĠMTV": 8897,
      "ĠMorgan": 8898,
      "1958": 8899,
      "1905": 8900,
      "ĠBet": 8901,
      "ĠBac": 8902,
      "ĠBib": 8903,
      "ĠBenn": 8904,
      "ĠBois": 8905,
      "ĠBrief": 8906,
      "elves": 8907,
      "Ġpast": 8908,
      "Ġptych": 8909,
      "Ġdent": 8910,
      "Ġdate": 8911,
      "Ġ1918": 8912,
      "Ġ1938": 8913,
      "Ġ1928": 8914,
      "ĠGav": 8915,
      "ĠHit": 8916,
      "ĠHum": 8917,
      "ĠHir": 8918,
      "ĠHorn": 8919,
      "ĠHaj": 8920,
      "ĠHistoire": 8921,
      "ĠDer": 8922,
      "ĠDra": 8923,
      "ĠDep": 8924,
      "ĠDuda": 8925,
      "ĠDutch": 8926,
      "ĠNak": 8927,
      "Ġculture": 8928,
      "Ġmis": 8929,
      "Ġmoth": 8930,
      "rap": 8931,
      "ĠWein": 8932,
      "ĠFord": 8933,
      "iventris": 8934,
      "ĠJess": 8935,
      "ĠJoe": 8936,
      "osition": 8937,
      "Ġwind": 8938,
      "Ġwords": 8939,
      "ulp": 8940,
      "ulen": 8941,
      "ullian": 8942,
      "oplax": 8943,
      "imation": 8944,
      "ĠOF": 8945,
      "ĠUk": 8946,
      "ĠUt": 8947,
      "lore": 8948,
      "ĠKas": 8949,
      "ĠKaz": 8950,
      "ĠKÃ¶n": 8951,
      "ĠVit": 8952,
      "ĠVolumes": 8953,
      "Ġham": 8954,
      "otis": 8955,
      "riend": 8956,
      "rift": 8957,
      "Ġnel": 8958,
      "phon": 8959,
      "ovic": 8960,
      "Ġgrass": 8961,
      "Ġgutt": 8962,
      "Ġly": 8963,
      "ĠIncluding": 8964,
      "Ġvert": 8965,
      "ianum": 8966,
      "evier": 8967,
      "lyc": 8968,
      "ĠChamp": 8969,
      "ĠCharact": 8970,
      "ĠChamber": 8971,
      "arta": 8972,
      "arts": 8973,
      "abat": 8974,
      "abil": 8975,
      "ichl": 8976,
      "ichroma": 8977,
      "antium": 8978,
      "ouch": 8979,
      "mans": 8980,
      "ipment": 8981,
      "ĠTheatre": 8982,
      "tone": 8983,
      "ĠAnne": 8984,
      "Ġstars": 8985,
      "Ġstems": 8986,
      "asser": 8987,
      "Ã©m": 8988,
      "ohol": 8989,
      "Ġ1815": 8990,
      "Ġ1833": 8991,
      "Ġ1860": 8992,
      "Ġ1851": 8993,
      "ustry": 8994,
      "iele": 8995,
      "ĠAlf": 8996,
      "ĠAlkan": 8997,
      "ologica": 8998,
      "endipes": 8999,
      "obile": 9000,
      "achim": 9001,
      "Ġanimal": 9002,
      "ĠOrn": 9003,
      "uced": 9004,
      "101": 9005,
      "Instit": 9006,
      "Ġorigin": 9007,
      "inski": 9008,
      "insky": 9009,
      "toine": 9010,
      "ideos": 9011,
      "erei": 9012,
      "see": 9013,
      "Ġlecture": 9014,
      "181": 9015,
      "1891": 9016,
      "Ġchang": 9017,
      "Ġchems": 9018,
      "Ġchapter": 9019,
      "China": 9020,
      "counts": 9021,
      "ropoda": 9022,
      "Ġexperim": 9023,
      "ĠSchmid": 9024,
      "ĠLeith": 9025,
      "iales": 9026,
      "issen": 9027,
      "unga": 9028,
      "inde": 9029,
      "ĠNoctu": 9030,
      "enga": 9031,
      "ĠPhotos": 9032,
      "ittor": 9033,
      "ussa": 9034,
      "153": 9035,
      "Ġ57": 9036,
      "Ġkept": 9037,
      "caeder": 9038,
      "Phym": 9039,
      "Ġshape": 9040,
      "146": 9041,
      "oche": 9042,
      "Ġlakes": 9043,
      "ĠSpar": 9044,
      "Ġnote": 9045,
      "Ġsee": 9046,
      "idaceae": 9047,
      "Ġspider": 9048,
      "rome": 9049,
      "Ġadult": 9050,
      "Ġunseeded": 9051,
      "Ġphen": 9052,
      "Ġphoto": 9053,
      "ĠSek": 9054,
      "inners": 9055,
      "ĠBrig": 9056,
      "ĠAdv": 9057,
      "ĠAdministration": 9058,
      "ĠScores": 9059,
      "Ġsubt": 9060,
      "Ġsubspecies": 9061,
      "Ġlib": 9062,
      "ĠBiol": 9063,
      "ĠBiological": 9064,
      "zzolo": 9065,
      "arsus": 9066,
      "otta": 9067,
      "Ã¨re": 9068,
      "Ġupperside": 9069,
      "oxys": 9070,
      "ĠQuarter": 9071,
      "oyle": 9072,
      "Exalphus": 9073,
      "ÅĻez": 9074,
      "ĠMilit": 9075,
      "ĠAustin": 9076,
      "ĠEls": 9077,
      "566": 9078,
      "ĠManchester": 9079,
      "Leptoc": 9080,
      "ĠLibr": 9081,
      "ometes": 9082,
      "Ã¤n": 9083,
      "ĠButler": 9084,
      "Engy": 9085,
      "ĠColoma": 9086,
      "ĠJulian": 9087,
      "ragus": 9088,
      "rague": 9089,
      "Carn": 9090,
      "ĠReprint": 9091,
      "ĠReprinted": 9092,
      "Ġnews": 9093,
      "Add": 9094,
      "Ġindex": 9095,
      "Ġenergy": 9096,
      "acional": 9097,
      "Ġ1909": 9098,
      "ÄĽt": 9099,
      "Ġformed": 9100,
      "Ġaccept": 9101,
      "275": 9102,
      "Proceedings": 9103,
      "ĠPoole": 9104,
      "laceae": 9105,
      "forest": 9106,
      "ĠMedical": 9107,
      "arns": 9108,
      "ĠCampo": 9109,
      "unctatus": 9110,
      "ĠSimp": 9111,
      "ezd": 9112,
      "noun": 9113,
      "Ġprovid": 9114,
      "Ġprovide": 9115,
      "Ġlateral": 9116,
      "minent": 9117,
      "ĠMuslim": 9118,
      "ĠBasil": 9119,
      "Ġactivity": 9120,
      "Ġrufic": 9121,
      "ergus": 9122,
      "Ġpapyrus": 9123,
      "Tropidoz": 9124,
      "Ġadded": 9125,
      "Ġepisode": 9126,
      "ĠReligion": 9127,
      "ĠGraham": 9128,
      "Ġcoral": 9129,
      "ĠBorghetto": 9130,
      "Ġremains": 9131,
      "Trichoxys": 9132,
      "inctus": 9133,
      "Ġtowns": 9134,
      "Ġlinear": 9135,
      "apping": 9136,
      "ĠJoachim": 9137,
      "ĠIntelligence": 9138,
      "board": 9139,
      "khine": 9140,
      "ĠEthics": 9141,
      "Ġidentif": 9142,
      "ception": 9143,
      "ĠSavas": 9144,
      "ĠSecurity": 9145,
      "lovice": 9146,
      "ĠAlekhine": 9147,
      "ĠZheng": 9148,
      "Ġimpression": 9149,
      "ĠSieg": 9150,
      "Nyssodrysina": 9151,
      "Ġmainly": 9152,
      "Ġmedium": 9153,
      "ĠPerspectives": 9154,
      "ĠAvro": 9155,
      "Ġmoved": 9156,
      "ĠLeonard": 9157,
      "Ġdispers": 9158,
      "Ġdesignation": 9159,
      "ĠDenis": 9160,
      "ĠDenmark": 9161,
      "Description": 9162,
      "Manchester": 9163,
      "ĠDistribution": 9164,
      "Ã©tÃ©": 9165,
      "Ġsynonym": 9166,
      "Artelida": 9167,
      "zhong": 9168,
      "Ġpulch": 9169,
      "ĠMosso": 9170,
      "rophys": 9171,
      "Ġrelease": 9172,
      "ĠImpact": 9173,
      "iÃ¨re": 9174,
      "ĠSibley": 9175,
      "Ġvirid": 9176,
      "Ġobserved": 9177,
      "ĠHonor": 9178,
      "Ġmagazine": 9179,
      "ĠAeronautical": 9180,
      "ĠCambaridae": 9181,
      "Ġlargest": 9182,
      "Ischasia": 9183,
      "Ġcastane": 9184,
      "Ġlimited": 9185,
      "ĠOrganization": 9186,
      "ĠRafael": 9187,
      "ĠBusiness": 9188,
      "Ġcatalog": 9189,
      "Ġproblem": 9190,
      "ĠBorgo": 9191,
      "Ġtreatment": 9192,
      "ĠJewish": 9193,
      "oracibidion": 9194,
      "ĠEntertainment": 9195,
      "Ġinhabit": 9196,
      "ĠPulau": 9197,
      "Fallbrook": 9198,
      "Social": 9199,
      "ĠPascal": 9200,
      "Ġcorner": 9201,
      "ĠEncyclopÃ¦dia": 9202,
      "ĠHollywood": 9203,
      "Ġcivilizations": 9204,
      "ĠGesellschaft": 9205,
      "Kyoto": 9206,
      "Soviet": 9207,
      "ocratic": 9208,
      "Ġconscientiousness": 9209,
      "Ġconsonants": 9210,
      "WÃ¼rttem": 9211,
      "ĠJenkins": 9212,
      "attleya": 9213,
      "ĠÃ¼ber": 9214,
      "ĠSicilia": 9215,
      "iacomo": 9216,
      "ibialis": 9217,
      "Lophopoeum": 9218,
      "Plocaeder": 9219,
      "ĠHÃ¼bner": 9220,
      "Ġhovorei": 9221,
      "ĠIskandar": 9222,
      "Ġsomewhat": 9223,
      "Reptilia": 9224,
      "Ġptychonomous": 9225,
      "Ġchemsaki": 9226,
      "Phymatodes": 9227,
      "Engyum": 9228,
      "Tropidozineus": 9229,
      "WÃ¼rttemberg": 9230,
      "Plocaederus": 9231,
      ")\".": 9232,
      ",:": 9233,
      "110": 9234,
      "250": 9235,
      "470": 9236,
      "631": 9237,
      ":\"": 9238,
      "AP": 9239,
      "CT": 9240,
      "Cross": 9241,
      "Den": 9242,
      "Diet": 9243,
      "EFA": 9244,
      "GC": 9245,
      "Hein": 9246,
      "Histor": 9247,
      "Kam": 9248,
      "LA": 9249,
      "Leg": 9250,
      "Lob": 9251,
      "MIT": 9252,
      "Oopsis": 9253,
      "Pont": 9254,
      "Peter": 9255,
      "Pros": 9256,
      "Person": 9257,
      "Ra": 9258,
      "Reg": 9259,
      "Rout": 9260,
      "Sing": 9261,
      "Saint": 9262,
      "TE": 9263,
      "Taylor": 9264,
      "Vill": 9265,
      "Wing": 9266,
      "Water": 9267,
      "aet": 9268,
      "bil": 9269,
      "bana": 9270,
      "bourn": 9271,
      "cro": 9272,
      "comp": 9273,
      "color": 9274,
      "ders": 9275,
      "flow": 9276,
      "fact": 9277,
      "her": 9278,
      "har": 9279,
      "iopia": 9280,
      "jk": 9281,
      "kel": 9282,
      "mitt": 9283,
      "mouth": 9284,
      "nh": 9285,
      "pat": 9286,
      "put": 9287,
      "pag": 9288,
      "qing": 9289,
      "rast": 9290,
      "tax": 9291,
      "uw": 9292,
      "uge": 9293,
      "wich": 9294,
      "wise": 9295,
      "waffe": 9296,
      "zs": 9297,
      "ï¼": 9298,
      "Ġih": 9299,
      "esp": 9300,
      "esian": 9301,
      "inate": 9302,
      "including": 9303,
      "anne": 9304,
      "edom": 9305,
      "city": 9306,
      "ciple": 9307,
      "enstein": 9308,
      "thmia": 9309,
      "onisi": 9310,
      "atures": 9311,
      "ativity": 9312,
      "ĠSed": 9313,
      "ĠSens": 9314,
      "ĠSca": 9315,
      "ĠSold": 9316,
      "ĠSpect": 9317,
      "Ġthus": 9318,
      "Ġthems": 9319,
      "ĠCE": 9320,
      "ĠCu": 9321,
      "ĠCow": 9322,
      "ĠCole": 9323,
      "ĠCave": 9324,
      "2014": 9325,
      "orch": 9326,
      "arc": 9327,
      "arily": 9328,
      "ĠRing": 9329,
      "ĠRum": 9330,
      "ĠRip": 9331,
      "ĠRica": 9332,
      "ĠRey": 9333,
      "ĠRott": 9334,
      "ĠRabb": 9335,
      "ĠTw": 9336,
      "ĠTes": 9337,
      "ĠTch": 9338,
      "ĠTome": 9339,
      "ĠLas": 9340,
      "ĠLif": 9341,
      "ĠLund": 9342,
      "ĠLear": 9343,
      "ĠLloyd": 9344,
      "Ġsett": 9345,
      "Ġfund": 9346,
      "Ġfrag": 9347,
      "Ġflu": 9348,
      "Ġaure": 9349,
      "Ġaway": 9350,
      "Ġbin": 9351,
      "Ġbene": 9352,
      "Ġbranch": 9353,
      "Ġborne": 9354,
      "ĠPu": 9355,
      "ĠPod": 9356,
      "ĠPob": 9357,
      "etford": 9358,
      "ĠThem": 9359,
      "ĠThetford": 9360,
      "itv": 9361,
      "ĠMang": 9362,
      "ĠMult": 9363,
      "ĠMaster": 9364,
      "ĠMuh": 9365,
      "ĠMIT": 9366,
      "ĠMÃ¼nchen": 9367,
      "daÅĦ": 9368,
      "usch": 9369,
      "ĠAur": 9370,
      "ĠAcc": 9371,
      "ĠArea": 9372,
      "ĠAaron": 9373,
      "olfe": 9374,
      "olineata": 9375,
      "ropetes": 9376,
      "ĠBian": 9377,
      "ĠBeng": 9378,
      "ĠBulletin": 9379,
      "ĠBaker": 9380,
      "asive": 9381,
      "elly": 9382,
      "elberg": 9383,
      "ingham": 9384,
      "Ġdors": 9385,
      "Ġ1915": 9386,
      "Ġ1929": 9387,
      "Ġ1923": 9388,
      "Ġ1926": 9389,
      "ĠGur": 9390,
      "ĠGib": 9391,
      "ĠGren": 9392,
      "omo": 9393,
      "omes": 9394,
      "omimus": 9395,
      "ĠHass": 9396,
      "ĠHÃ©": 9397,
      "ĠHoch": 9398,
      "ĠDet": 9399,
      "ĠDere": 9400,
      "Ġtim": 9401,
      "Ġtric": 9402,
      "Ġtanks": 9403,
      "Ġtubercul": 9404,
      "ĠNE": 9405,
      "ĠNear": 9406,
      "ĠNorm": 9407,
      "ĠNij": 9408,
      "ĠNiger": 9409,
      "Ġcyan": 9410,
      "Ġcultural": 9411,
      "iders": 9412,
      "Ġmo": 9413,
      "Ġmic": 9414,
      "Ġmim": 9415,
      "Ġmax": 9416,
      "Ġmechanism": 9417,
      "raight": 9418,
      "raulic": 9419,
      "ĠWer": 9420,
      "ĠWomen": 9421,
      "ĠWyda": 9422,
      "ĠFamil": 9423,
      "ĠFier": 9424,
      "ĠFull": 9425,
      "ĠFitz": 9426,
      "ĠFischer": 9427,
      "ĠEsc": 9428,
      "osoma": 9429,
      "oshi": 9430,
      "opis": 9431,
      "imna": 9432,
      "igraph": 9433,
      "ĠOlym": 9434,
      "lod": 9435,
      "ĠKa": 9436,
      "ĠKom": 9437,
      "ĠKep": 9438,
      "ĠKess": 9439,
      "ĠKirk": 9440,
      "emeter": 9441,
      "Ġ178": 9442,
      "ubescens": 9443,
      "ĠVista": 9444,
      "ĠVintage": 9445,
      "Ġhyp": 9446,
      "Ġhirs": 9447,
      "Ġhaving": 9448,
      "rij": 9449,
      "ridae": 9450,
      "riope": 9451,
      "stan": 9452,
      "iral": 9453,
      "irls": 9454,
      "irchen": 9455,
      "agon": 9456,
      "phab": 9457,
      "phyg": 9458,
      "phritus": 9459,
      "ordrecht": 9460,
      "ĠString": 9461,
      "ĠStuttgart": 9462,
      "acus": 9463,
      "ondo": 9464,
      "Ġgig": 9465,
      "Ġgold": 9466,
      "Ġglab": 9467,
      "ĠYe": 9468,
      "Ġvers": 9469,
      "Ġvirg": 9470,
      "appe": 9471,
      "ĠChannel": 9472,
      "ublin": 9473,
      "Ġreal": 9474,
      "owa": 9475,
      "ayan": 9476,
      "eglio": 9477,
      "astic": 9478,
      "iper": 9479,
      "Ġstr": 9480,
      "Ġstable": 9481,
      "assing": 9482,
      "ohl": 9483,
      "ugo": 9484,
      "Ġ1879": 9485,
      "Ġ1874": 9486,
      "Ġ1837": 9487,
      "ustain": 9488,
      "ĠArg": 9489,
      "aeides": 9490,
      "ĠAless": 9491,
      "ĠAlberto": 9492,
      "ĠAlliance": 9493,
      "icauda": 9494,
      "Ġ38": 9495,
      "acher": 9496,
      "achile": 9497,
      "achilidae": 9498,
      "erna": 9499,
      "ĠRoberts": 9500,
[...]
